#version: 0.2 - Trained by `huggingface/tokenizers`
_ t
_ a
h e
i n
_t he
_ s
r e
_ w
_ o
i s
e r
n d
_ f
_ m
_ b
i t
a t
in g
_ c
e n
e s
o r
o u
_t h
o n
_ h
l l
a n
_a nd
_t o
_o f
_ p
a r
_ d
e d
a s
_ in
_ l
o m
_ I
_ is
i c
b r
_ g
_ /
< br
_/ >
l e
_ e
o t
_ n
a l
u t
s t
c t
i l
_ it
_b e
_ T
v e
i e
l y
_m o
_ re
_o n
_th at
v er
o w
a d
en t
_ he
' s
i on
i m
_th is
a y
_w h
s e
_s t
e t
g h
i d
c h
_w as
_mo v
_ y
_/> <br
it h
il m
a ll
_f or
_f ilm
o o
_a s
_ A
_ u
c e
_ S
_w ith
_a n
a m
k e
l d
_s e
_T he
i r
_mov ie
r o
_y ou
_h a
r i
. <br
_ B
he r
u r
_l i
_b ut
_ M
_w e
' t
r a
_n ot
all y
i ll
_ (
t er
_ C
_ "
_ H
c k
_a re
_s h
om e
_ W
_h is
_c h
p e
er s
ou ld
_a t
u l
_ D
_ha ve
gh t
. .
e m
i f
_s u
u st
u n
_ j
_f r
ou t
_s c
_a ct
_d o
a in
b le
_e x
es s
_wh o
_on e
e l
_ k
_s o
_c om
_p l
oo d
ver y
a ct
_a ll
s ,
an t
ar t
i es
_a b
a k
p p
_b y
a g
_a l
o l
_ v
u s
_ P
es t
o p
_d e
t h
is t
_ L
s .
_ R
a nd
_w or
_n e
_fr om
as t
_the y
_ F
on e
n 't
_li ke
_o ut
v en
_ r
_s ome
_ J
_in t
_w he
q u
_he r
_c on
_ G
_o r
at ion
u m
f e
ou gh
re d
ou s
a u
_T h
_I t
at e
_m e
_ab out
_h as
_j ust
ic h
in d
i ve
or y
_ N
ar d
o s
_p ro
i re
a ck
_c an
_ch ar
p t
or t
_u n
_t im
_ E
i g
re s
u d
oo k
a ke
_l e
re at
i ght
_ O
_g ood
_char act
_an y
_m an
on g
_w at
_t r
_l o
_u p
_mo re
_g et
_g o
_n o
it y
_f e
_w ould
_ very
_se e
T he
ou nd
t her
_m y
_wh at
e ,
_the re
_st ory
_be c
n t
it e
_Th is
a ble
_s he
o d
_ 1
am e
_whe n
g e
u re
id e
_ en
_ -
h ing
_we re
_h ad
_re ally
o re
_on ly
e ll
a b
_ K
_sc en
it t
o y
_the ir
_wat ch
_h im
_ if
_sh ow
_e ven
_p er
_wh ich
_it 's
_o ther
c i
p l
s o
in k
_tim e
ic k
_c l
m an
_th an
m ent
y ,
ou r
_the m
o nd
t e
a p
_do es
o g
_d id
_k n
a re
u ch
_e nd
v es
au se
_p e
ad e
ing ,
on 't
_ qu
_g reat
in e
_m uch
_b ad
_be t
_l ook
_a r
a c
ire ct
ir st
op le
.. .
_be en
_o ver
_c ould
_p o
_ im
_w ill
i ous
p le
_int o
_h ow
_I '
er t
l f
e ar
en ce
_pl ay
ing .
_we ll
in t
ic e
_p re
_mo st
_pe ople
o se
_th ink
_/> The
_ ro
w ay
n e
_kn ow
_t w
_w ay
u e
f or
_bec ause
_a d
ot her
_d is
_to o
p er
_a g
f ter
a v
as s
f ul
f f
_d irect
es ,
r y
_re al
_f irst
_m ake
_p art
_u s
_/> I
_e very
_of f
_a m
i le
u ll
is h
ag e
ic t
_m ade
e re
_al so
o ll
at ed
_f un
o st
g in
_se em
_w r
a w
_th r
_mov ies
_it s
_s ay
ic al
ow n
_charact er
ak es
_th ing
e p
i an
_d on't
_wor k
_ Y
ie w
n g
_b l
_s p
t y
_charact ers
a ce
_A nd
o b
u ally
_g u
_C h
he d
_ '
i al
pe ct
_f l
ar y
c c
n y
fe ct
i z
se lf
_pl ot
res s
or s
_the n
_se en
_W h
an ce
_w ant
_B ut
_ V
om et
_s er
i v
itt le
) ,
_you r
_y ear
_a fter
_I n
_tw o
_be ing
) .
_lo ve
an g
_ne ver
ur n
_t e
_H e
g et
_man y
nd er
_thr ough
m er
_b ack
ar k
_whe re
_li fe
_ ent
_l ittle
i p
es .
_b est
_re m
ul t
_b r
_ <br
_s omet
ed .
il d
at her
b er
_e ver
a ch
_it .
_d es
_S t
_h or
ed ,
ve l
_bet ter
en s
_re c
w n
il y
an s
d u
u al
_per for
w e
_movie .
ra p
_sh ould
_f ind
! !
_s l
r u
_s pe
ou ght
_It 's
_ U
_con t
r is
_fe el
_The re
l ess
ver s
_at t
_ag ain
c es
ert ain
_film s
i a
_ i
_he re
_st ill
ie nd
at h
_m in
_ 2
l ie
_ ri
v ing
_u nder
e ver
er ,
ere st
_g r
b e
y .
au gh
_1 9
ak ing
_act ing
ab ly
m e
f ore
_k ill
_su ch
_int erest
ct ion
i gh
_in c
_/> A
_somet hing
re n
_ha pp
as on
_scen e
_o ld
th ing
en se
_the se
_perfor man
_m ay
_im p
_c ast
v ed
al k
_f am
ar s
t ing
a ve
a il
ar ly
_l ot
_po int
re e
_film .
ot h
re en
_A l
_h um
_p r
_a p
as e
_s ur
_does n't
_c r
r or
_de c
_w om
t he
j oy
n ing
_th ose
u p
_s im
_g ir
_re s
_m us
_I f
_ ra
is e
_did n't
_g en
_c he
_s et
_en joy
o ck
_st art
_v iew
_c ou
_f act
at ing
v ent
_m akes
ly ,
_d own
y ing
f fect
_scen es
_film ,
_f in
o ld
_be lie
ers on
_o b
_fe w
_movie ,
_com p
_watch ing
w h
a z
a le
ri gin
at er
_I' m
_be fore
_act ually
_t ra
o c
_com ed
_J o
_pre t
s h
_g ot
_s ame
_o rigin
_l ong
_e m
_go ing
_you ng
ut e
_su pp
l i
_direct or
_th ough
_wh ile
_d if
- -
_/> T
os s
u b
_n ow
* *
i ence
ci al
f t
oo l
_o wn
_pro du
e ct
_you '
d er
_b it
ri pt
l es
is s
_g i
_ne w
_t ri
_t er
i ble
ion s
he n
_t urn
_ex ce
_ ke
_th ought
_not hing
_su b
_b ig
w ard
in ce
_gir l
a ut
_re l
_gu y
_an other
r am
_s m
_wh y
_qu ite
_com ple
re nt
_ar ound
_d ay
_a pp
_act ors
ig n
ond er
_fr iend
_ &
_e ffect
_origin al
_seem s
_year s
_pret ty
_fun ny
ic ally
_can 't
a ir
_sc reen
_wor ld
_ne ed
c hed
we en
_ri ght
0 0
_en ough
i b
_h ard
_sc ript
_S he
m ost
mer ic
e w
an k
_st r
n ess
_bet ween
a pp
_ap pe
as h
_B r
_t ake
_a cc
ri ll
_k id
e ad
_in s
_h igh
_f ar
_k ind
on s
_p erson
in em
_se c
_l augh
_act ion
_m ust
_g ive
_in v
_ser ies
way s
_A s
_Y ou
_ es
ent s
st er
_re ason
_ro le
or d
_hor ror
_w onder
_a w
_m om
_t ell
_o p
_thing s
a id
" ,
_get s
_b u
_ch ild
ic ul
_e p
_is n't
_he l
_le ast
_se x
_re ad
ou se
ar r
_who le
_p ut
_H ow
_s aw
_act or
_it ,
_be aut
_c ome
_A meric
_I' ve
a ,
he re
v ious
ent ion
_mus ic
_m ain
er .
o ot
_with out
_S h
_al ways
_d one
_ex pect
_The y
it ing
_b oth
s on
_ha nd
_le ad
_min ut
_b as
_con s
_re v
_m ight
_al most
_ ide
c ed
ing s
_dif fe
_sh ot
h n
_a ud
_c inem
ar n
_performan ce
_cl ass
_l ast
b ably
_ex pl
_c am
x t
_be gin
g g
_s ound
_b ook
_comple te
_in st
_c our
h y
he s
th ough
_c are
_A n
ri ble
ur ing
_hel p
_/>T h
st and
d e
_wor th
it ion
_ 3
_c o
ci ally
o v
ull y
_ent ertain
p ris
is m
og rap
" .
_fam ily
_ar t
o ,
_happ en
if e
_c le
od y
_s ince
_e l
_wom an
_f ound
at ive
_a way
at ch
_se qu
r ay
re t
_c ar
ever ,
ist ic
is od
it s
_pro bably
_F r
_su re
_T V
_r ather
_Wh at
r ist
me nd
_ex t
_ vers
ial og
im e
_r un
_c all
pe cially
o int
_me an
_ep isod
an c
a pt
an e
_1 0
_d ialog
_ab s
_wor st
_any thing
ro s
um b
t en
_li k
_cour se
_/> S
w ood
it her
ate ly
_Jo hn
_l et
_" The
a h
_b o
os ed
E R
or n
_interest ing
_o ur
le as
re am
in es
on t
_beaut if
a .
oll y
e c
_d el
_/> W
_that 's
_ad d
_m aking
_W e
_com es
o k
_diffe rent
ation s
_ke ep
_po or
_j ob
_l ess
oll ow
_belie ve
_Th at
V D
_re st
an ge
as ter
_e ach
_tr ying
_m ind
p h
ble m
al f
_s ense
_pl ace
u ck
f in
_sur pris
- c
_any one
e x
an n
d d
_p ol
e e
em pt
re ad
_st and
_f an
j ect
_p res
_su per
l ed
_D VD
_pro blem
l ud
_N ot
_y et
om mend
ort un
_m one
_t y
_in ter
- m
_was n't
s c
_look s
al ity
_g l
_go es
o pe
ion ,
_p ort
_per fect
are nt
_a c
_minut es
_play ed
ie ce
_b oy
l ing
at ure
_he 's
_/>Th is
_B l
ion al
_wat ched
em ber
_T H
u res
_c re
_d ram
_w ar
_f av
_con f
_tim es
_sh ort
_f ollow
_rec ommend
_D e
_s aid
il ar
_aud ience
at ic
_A ll
_c reat
_ha ving
get her
_s it
_to gether
id ent
ll ent
_he ad
_h alf
at ter
om b
_play s
_him self
_sec ond
_t akes
ing ly
_some one
er a
in c
_el se
_W hen
it er
_im ag
c o
l and
_l ow
_rev iew
_e v
_comed y
olly wood
d ay
_c ertain
_t alk
_de p
_under stand
ne y
_v is
_F or
_f all
ion .
n ot
_p oss
_st ar
s p
- t
1 0
_S o
_an im
_look ing
ce pt
_b or
at es
_le ft
- f
_ ed
or k
_spe cial
_es pecially
_f ather
_m iss
i x
_n ight
_show s
_beautif ul
_S c
_ent ire
_ex c
_Americ an
al s
r .
a red
_c ame
_n ice
ap s
.. ..
_h our
_S p
_p h
_tr ue
_s ing
_e le
_d ist
_u se
_com m
ir d
i red
at t
_th ree
_com ment
p ly
_m ur
_d et
sh ip
_B e
_exce llent
li ke
_inv ol
_m ar
' re
s y
_Ch rist
_U n
_h ome
_e y
_time .
_R e
ud get
up id
_C l
_M y
0 's
_m on
n er
u ff
_S te
app oint
_ob vious
_e vent
b ut
_s k
_/> B
_ Z
_att empt
_d uring
_m en
_f ight
_class ic
_ex p
_hum an
_on ce
al ent
_M ar
_l ack
_every one
_dis appoint
ot t
am es
ra ct
_port ray
_s ch
_his t
pl ay
ou nt
_un t
_m em
_st y
_be h
_A t
_to t
it ed
_there 's
i en
_de ath
. "
_A r
ol ute
i o
ow er
_st upid
_ex per
i ol
_see ing
_produ ction
_complete ly
_sim ply
_vers ion
_R ob
_to p
_s ong
- b
ros s
_ 4
_he art
_supp osed
_m ess
_H ollywood
_inc lud
_p ict
_de fin
_tr u
_d ra
_wr ong
_re p
id es
el t
_t it
o on
_/> O
itt en
_op en
_e as
_end ing
_mone y
_O ne
_ide a
or m
i ed
i er
s .<br
_f ail
f ully
_h ouse
_us ed
ut h
_w ife
_st ud
_you' re
f ic
_e ither
_re t
_gen er
_s y
am p
g r
_every thing
- w
o ve
_wor d
_lo c
- l
_p ain
_gi ven
id d
_as s
_bl ack
_ex am
_em ot
/ 10
_c ra
r ic
_bec om
_sm all
_- -
_con c
_abs olute
_in d
vel op
_v ide
_wom en
_cou nt
_part icul
_" S
_/>I t
_g ra
_W ell
_r om
_ 8
_tr y
t ed
_li ght
it ies
ers ,
_unt il
_c op
_fav or
u es
_ser ious
u g
_cou ple
re ak
_al ong
_s ad
e .
_s ort
f ortun
v is
ite ly
i ke
in ess
_h ope
_w a
_ 5
id er
_tru ly
_c red
_l ater
m y
_v iol
ain s
- d
i ant
se l
_mom ent
k s
or ies
on ,
_am az
_inst ead
ist s
_for m
_fl ick
_rem ember
a j
h aps
_ 7
_p ass
_f ull
_he ro
iz e
o ice
_aw ful
ot e
il ity
_sch ool
et s
_hum or
able .
_exce pt
_gi ves
I N
_effect s
_b udget
_get ting
_it self
_O n
_ z
_t alent
_( and
_L e
_sl ow
_bec ome
_wonder ful
_s w
_de velop
_c ut
_l ine
_W ill
_d ri
_of ten
_ter rible
ol og
_ne xt
_f ace
a x
_M an
is ter
um ent
_f elt
_re g
_play ing
_all ,
ri ght
_an n
u nd
_gu ess
_TH E
_ 9
_S e
_p iece
_cl ose
er y
le ase
augh ter
_c oll
_m is
c om
_C ar
_qu est
a el
_li ve
_( wh
_imp ress
' ve
_e arly
_de ad
_f ant
_b rill
_do ing
_could n't
_n ame
_ .
_cam era
re me
_m other
_How ever,
_con v
_lik ed
_w ent
ic s
m ed
ter n
ib ly
_J ack
_m ention
_pict ure
_again st
_str ong
_rel ation
_child ren
_re f
_r id
cc ess
ul ar
in s
_E ven
_sty le
_vide o
u red
_was te
_d ark
0 s
um p
ent ly
_N ew
_N o
y n
_p ast
- p
_D av
l ish
_tit le
_/> M
if ic
_tr ans
_tim e,
_A fter
o id
p ite
_kid s
_wor se
ich ael
_is ,
un ch
ur t
_H is
_absolute ly
_wr itten
_defin itely
at ur
on y
ou b
ation .
_appe ar
_supp ort
i am
it ch
ers .
re w
_( the
_becom es
sel ves
r iend
en n
_th rill
_may be
_ 
_S ome
_al read
_seem ed
_br other
_exam ple
im es
_su ccess
_li ves
_re nt
_M c
iv ing
_p red
ro p
qu e
_p op
iz ed
_E ng
ow s
_ad m
_brill iant
_T o
_se ver
_certain ly
_performan ces
m ing
he t
_ext reme
_relation ship
_sever al
_m atter
ation ,
_H ar
_t ou
_al though
os p
a 's
_c ent
_c or
_p ower
g er
_bl ood
_want ed
_se lf
g u
ak en
l er
u c
ie f
- s
) .<br
a ul
b ody
_w alk
_that ,
ch n
_p ur
ment s
_them .
ou p
_m aster
_lo st
_m ag
_lo ved
_e t
c ess
_d em
_to wn
ie t
sy ch
_ann oy
ly .
_/> F
a pe
av ing
pp ed
un k
_tri es
o il
un t
_pres ent
us ed
_v ill
ograp hy
in ed
_l ist
le y
_tot ally
_d r
_pro v
_o cc
_a v
_through out
o ke
_s at
us s
_friend s
_a ble
_gen re
_n um
_qu ality
_p ar
_des er
or ge
_man ag
_dialog ue
_c apt
_d aughter
_alread y
un g
_no vel
_hist ory
_e ff
_want s
! <br
_m ed
w here
_f ine
_do c
_episod e
O T
_s ide
id ed
l t
_c ol
_st uff
_call ed
u se
_I s
er n
_I' d
? ?
_f em
_M ichael
_to day
_g ave
_v al
_f air
_mom ents
o ff
_m or
_fin ally
_" B
_b ra
_Ch ar
ill y
it ive
_W ith
_de al
_enjoy ed
_act ress
_le arn
_l ate
_bas ed
_one .
_beh ind
am ed
_f ig
art h
_my ster
i ent
_in f
_l ines
_h on
wh at
_st ars
_them selves
- h
_D an
_w on't
is hed
_c ult
ar b
_story ,
_fun n
_cont in
_ev il
1 9
_fin al
_sit u
_re leas
i k
_st ay
_c ase
_imp ort
aj or
able ,
ro du
_this .
_start s
o x
ity ,
_pr om
_favor ite
_et c
_st ra
_as k
_sh oot
_turn s
_The n
_cr it
_o pp
ar ing
us b
_" I
_gr oup
_ex act
_me .
_le vel
_ty p
ast ic
_wr it
_Wh ile
ri ed
_him .
l ine
al ,
_Br it
_" A
i or
_int ell
_ ir
_f oot
_f a
_w in
_st ories
_my self
_Al so
_cons ider
_su sp
_del i
_c ost
_doc ument
_p at
_p sych
ou s,
g ed
ri b
_/> D
_dec ent
_mus ical
_J ust
_p ick
_inc red
_begin ning
_s n
_eff ort
_d ream
_bor ing
_con st
_other s
_feel ing
usb and
_hor rible
_this ,
_rid icul
y p
_b us
_st op
ity .
_he ard
_good .
_ ,
_m ot
A N
_H er
_too k
_fam il
_/> H
_ch ang
_s on
_st ru
_cinem at
_well .
i ves
_can not
_m ajor
ant ic
_h it
_so on
_G e
en e
_g ame
_G od
_she 's
_O f
_story .
g an
_f ore
_fe at
_( I
_te en
_we ak
_me ,
L L
_M ay
y 's
ou s.
_you' ll
_pred ict
_h ilar
es e
et h
y s
_h usband
_all .
_ro om
_Rob ert
_Wh y
ur b
_/> N
_v oice
t on
_te chn
_ty pe
_s le
_op in
_view er
A T
a ves
_n on
ak ers
_p ay
_O r
_exper ience
_they 're
_" M
_res ult
- up
_b reak
h ow
_pro f
m s
_so l
_h old
_K e
_br ing
_f ans
om in
m m
_film 's
em ent
c hes
r it
_to ld
_" D
m p
u ge
_entertain ing
.. .<br
_life .
_viol ence
_te le
_guy s
ich ard
_think ing
_/>I n
_extreme ly
_E very
_work s
_le ave
ap an
_f ut
_E d
ow ing
_st e
_ch ance
_c rap
_G er
_sequ el
_mo ve
_" C
_p leas
_per haps
_es c
_would n't
_2 00
_import ant
_wr iting
_an t
_ 6
_che ap
_G r
_good ,
idd le
_p os
_M r.
_" W
_j ok
_qu ick
_wh ite
e red
_sc ore
ud e
ra ck
' ll
_st re
or ,
_produ c
S T
o .
_un i
re st
_amaz ing
_I nd
O N
_show n
_P et
_P aul
_/>The re
_f oc
_sh ock
_course ,
_look ed
_pol it
b el
ent ial
ward s
_des c
_ Q
ic ,
_kill er
_ph ot
s ide
_dis co
n a
_app arent
h ,
_mur der
er ing
_an g
_( 19
_sim ilar
_sim ple
ation al
_num ber
_in de
m b
us ing
_There 's
e k
_direct ion
_Eng lish
_W ar
A R
a im
_t aken
_J ames
O R
_well ,
gr ound
ov ie
_J apan
_N ow
_v ar
_your self
_high ly
_particul arly
_O sc
_P l
_" H
ud d
ren ce
_g un
_t reat
_f our
_al one
_de v
_de ep
_un c
_ret urn
b y
_direct ed
_ ill
_l ar
_know n
om p
_poss ible
ren ch
_some what
_say s
_c ool
al .
_find s
_obvious ly
_go re
_mo der
_d oub
_who se
_dis c
_h ot
_movies .
_us ual
_se ason
_pre m
_exact ly
_film m
ub l
_P er
_part s
_sub ject
nd s
ent y
_com ing
_z omb
_p ot
ad y
ies ,
itt ing
_/>I f
_n arr
ie ld
v able
_h uge
_for get
_Dav id
ut ter
_pl an
_R ichard
_movies ,
ou ble
_p ull
_d est
_s ent
_M e
! "
_loc al
ir t
_girl s
_P e
_sing le
_f ill
_coll e
ment .
_bu ild
!! !!
_A d
_fem ale
m osp
_w ish
_film s,
ust r
h at
_a ge
_v ict
ograp h
- st
_T om
r on
_ac ross
_s ister
_open ing
_m ist
_how ever,
_att ention
_hon est
_s ign
_act ing,
ant ly
_happ ens
o le
_m ad
al d
** **
_str ange
b all
re ci
ou d
_rem ind
_tou ch
at or
_at mosp
_somet imes
_kill ed
_s ave
_ch ange
_me et
_kn ew
_start ed
_Will iam
_that .
_dram a
c he
_m iddle
ally ,
or th
ie l
_" T
_J e
_or der
ate ly,
nd ed
_turn ed
he ad
_Brit ish
_susp ense
ar is
pp ing
_tell s
out h
_des pite
_cinem a
_p arent
_D is
_sequ ence
IN G
s "
ure ,
_moder n
_com ic
_tele vis
an ,
_com pl
_sub t
_det ail
_doub t
er 's
_in n
_E l
en c
_fe ature
ac ed
_ap art
_invol ved
u ri
_D o
ous ly
_stra ight
_pol ice
_intell ig
_a ir
_te am
y ond
i od
_res pect
_run ning
l ight
_t en
_p ri
_e qu
_are n't
_un f
_us ually
_count ry
_he ll
_Osc ar
_t aking
_h op
_here .
_e ar
us h
ub b
_bad .
_cont ro
_pr ot
_rom antic
o ver
in ation
re ly
ater ial
E N
an ces
_tw ist
ies .
_way ,
_A ny
_ ve
_N e
o 's
_the at
_m ark
_expl ain
_ !
at s
ie ty
_am ong
ou l
_it .<br
for m
_Y ork
_2 0
ich é
_includ ing
_d ue
_as pect
_ad ult
_fact ,
z y
im p
_ey es
_eas ily
_c art
_l and
_s we
_ex ist
_talk ing
o e
_che ck
_support ing
_ er
ar ch
_f ast
as c
_/> P
_d ull
_/>B ut
_m aterial
_out .
_say ing
_app reci
lt im
im ent
et t
_sex ual
_ad v
_cle arly
_for g
' m
_characters ,
_pro g
_happen ed
ut ion
_cam p
g s
_b ody
oo f
_act ual
_en g
, "
l in
re al
_c a
_li ving
_bo x
_cre ep
het ic
en g
_D on't
_end s
_wr iter
_o dd
_A m
_end ,
es tern
_so ld
_again .
ct or
ies t
_and ,
_fall s
_n one
au ght
_pre vious
att le
is ed
_g iving
_her self
_ro ck
_Ger man
ven 't
_cl iché
_most ly
_Al though
r ow
_re ve
al ian
_I' ll
_sp ir
_19 7
pe nd
_one ,
i ar
' d
_O K
_vict im
_C on
_Well ,
an y
le t
_F irst
_fl aw
en ,
am b
_per iod
_quest ion
ot ic
im in
_" L
_know s
_19 8
_document ary
en ces
_bad ,
_M or
_appe ars
_sec ret
_ab ove
_ad apt
_spe ak
_g ang
_ne ar
_P h
_feel s
ang er
_cle ar
_be l
_su ck
_need s
t rack
_m et
irect or
_P r
_sl ight
_att ack
_vis ual
all ,
_" P
_r u
_fut ure
ar re
_( M
? <br
_S u
_stand ard
fic ult
_t re
_b unch
n ter
_end .
_h ate
_ha ven't
' ,
_S am
_em b
gg est
_releas ed
_is .
_fe ll
_way .
_I M
k y
_/> C
_com b
_ne arly
_super b
_dif ficult
_ac cept
_be yond
_with in
_m il
_T r
_he ar
_B en
_N OT
_sp oil
ubl ic
_su ggest
_pro p
_sound track
ll ing
_su ff
ance ,
! )
O U
it al
_seen .
_dec ided
_b ro
ent ,
_Ge orge
v iew
a ur
_w it
_her .
_ins p
- g
_n amed
_hour s
_cl im
b ack
_f ive
_( J
_up on
ire s
_( S
i ,
_d ru
ot s
ment ,
_vill ain
_r ating
_fant astic
_typ ical
_/> E
_here ,
_d anc
_ke pt
_person al
a f
l us
on es
_film s.
_movie .<br
_sc ary
in a
age .
_again ,
R E
_tri ed
_That 's
_fig ure
_t ale
_plot ,
_U S
ris on
_l os
_tr uth
s w
as y
I L
or ld
_st ri
_wa it
_annoy ing
ri fic
_us ing
_we ird
ate ver
_show ing
_br ought
!! !
_particul ar
_m ix
se t
_him ,
_happ y
_atmosp here
- the
_etc .
_lar ge
_on es
_work ing
_/>A nd
_event s
_sur v
ict ion
_shot s
_c at
_po st
_ro les
_real istic
_mem or
_int rodu
_un fortun
_/>A s
_day s
_surpris ed
_hilar ious
_bus iness
_w ood
_C he
_whe ther
_b ab
ac es
_ *
us es
_F rench
_che es
o f
_n orm
_L ee
_back ground
_life ,
_exp ress
_Un fortun
_re d
_K ing
_ob s
ur y
_J im
_film .<br
_great est
_jok es
_u nd
_( s
_( as
_Jo e
_episod es
_S m
_is s
_on .
oo se
_C ol
_ utter
_s il
_19 9
_begin s
ce ed
ag e,
o or
_b ar
' .
dd en
_a ver
es ome
_re se
_M ost
_bas ically
_song s
? "
h ost
k ay
_f ree
_so c
_des ign
_Fr ank
_stru gg
i 's
_effect ive
_bu y
ur ther
_eas y
_fr ont
_ey e
_n ature
_ex ec
_bec ame
_care er
_D on
_May be
_ ...
lf riend
E S
_(wh ich
_hand s
_l aw
_av oid
_app ro
_fam ous
m as
_cred it
ar a
_screen play
o -
_( A
_too .
_real ity
_mur d
_Dis ney
w ork
_c ur
_u ltim
_le aves
_set s
_d umb
_T im
og n
atur al
g y
o ic
he l
_" R
_su dden
_ridicul ous
_cinemat ography
_c as
ur d
_G u
s pect
_situ ation
b or
h ood
i ally
_t ast
in ing
oo p
ens ion
_f ire
_funny .
t o
_p ure
_me ans
_j ump
hy s
_the ater
_s ens
_m ent
_d ie
_tr ad
_kill ing
_Pet er
ir c
_C an
m ore
in ,
_m ale
_th ird
_/>It 's
_master p
_cart oon
_any way
_bo red
E A
u ro
_s or
_s illy
_c ap
r ated
_g one
_he av
_story line
_lot s
_cost um
_televis ion
re ed
_L ike
_N ight
_Sc ott
_l iter
_me ant
_characters .
g ic
nd ing
_ad vent
_set ting
_ear li
o red
_w ind
_ele ments
_emot ional
r om
_M art
_ id
_poor ly
_Japan ese
b ert
is f
_int e
_funn y,
is ing
_some how
_IM D
ch ie
_( w
_them e
_real ize
b s
_/> L
_over all
_T w
_re lease
_character ,
_cr ime
_( B
_" G
ant s
_Fr om
_problem s
en ing
ate ,
_B y
ter s
_Wh o
_res p
a i
on .
_G ra
_me ets
ian s
_keep s
_mess age
as ed
_enjoy able
_o per
_out ,
_con cept
_dram atic
_dist urb
_st ick
_It s
w ise
_/> R
_S ch
_G ood
_all ow
_un like
in o
re y
_The se
_wr ite
p or
er v
_m ill
_d am
_them ,
_emot ion
_f asc
_A ng
_conv inc
_A N
_W ood
_con ne
ress ed
_for ward
_" F
_prem ise
_p ublic
_n ud
ak er
_E x
_gra nd
_pop ular
_prof ess
_poss ibly
_ $
_s ick
ive ,
ang u
_/> "
_lead s
z z
on 's
_n or
_mov ing
_adm it
? )
b b
_l ame
ri f
_gir lfriend
_co ver
_ `
_l im
_pro ject
_st ere
all ow
_M ac
_br ings
_point s
_apparent ly
er m
_l in
_say ,
er ry
le ,
_( C
_on ,
_anim ation
_comment s
le ct
_( or
if f
_en c
_how ever
_fl at
_min ute
_M at
_( a
_you' ve
_read ing
r ing
_S im
_who 's
_J ul
_appe al
_b and
_c atch
_better .
_19 5
_mean ing
ar y,
_need ed
- in
et ,
_film ed
_cle ver
_pot ential
_spir it
as k
_event ually
_sle ep
s '
_b attle
_( D
_im m
_view ers
m a
_j oke
_imag ine
_to wards
_cre ate
an a
_wh om
_F ilm
_power ful
o pp
in n
_L u
_off ic
_In st
_occ as
iv id
_hist or
_pur p
_re pe
_fl ash
_rec ogn
_view ing
_am ount
_var ious
el s
el ess
_F l
_Christ mas
bel ie
k n
un n
I S
_for ced
_19 3
_ide as
f riend
h ic
_C om
_so cial
_inn oc
_stere ot
_b are
_pl ain
_work .
arr ing
_g ay
_watch .
_though ,
_lead ing
_st age
_do g
_word s
_Q u
_a ut
on ic
_F red
_inv est
_deser ves
_cl aim
_sp ace
_incred ibly
v in
as hing
_ :
_ ign
arr ass
e le
un ning
_up .
_show .
_comm un
_IMD b
_/> G
ve red
_J ane
m ist
_d ance
il t
_D es
ber g
_pos itive
_ag ree
_att ract
_manag es
_masterp iece
_ est
_m atch
_st ep
_k ick
_ne g
cess ary
_rev ol
_disappoint ed
_A f
_j our
_r ich
_there .
_interest ed
_tra ck
i -
w art
_c ond
_E uro
_old er
_mar ri
_emb arrass
_p hys
_H ere
_des per
_ ess
i us
u e,
_c irc
_polit ical
_you .
_review s
_tot al
_a chie
_re act
_W atch
iv ed
_He 's
_rem ake
g es
k ing
as her
le x
_ext ra
_aver age
_st at
_" s
_bad ly
for d
_fair ly
_c ry
al t
. )
g o
_expect ing
_pl enty
wh ile
_expect ed
_her ,
_tr ash
_St re
e en
_sh ame
_uni que
_l angu
_sy mp
_scen es,
_feat ures
_St ar
" )
_a f
_B ra
_cl os
med i
Y ou
g est
_f urther
_h om
_l at
ir l
_cre w
b ers
d y
ell ,
i pp
ven ge
_rem ark
_famil iar
S .
e y
_O ver
_work ed
_attempt s
am e,
_rel ig
_opin ion
_ ident
om an
ag ue
_char m
_up ,
_scen e,
_ag o
_hard ly
_sk ill
_B ill
op h
_reve al
_a ff
_c ity
_an sw
_sc ient
_sequ ences
_soc iety
_G old
_rec ent
_Also ,
_dest ro
al th
_tra il
_acc ident
_c aught
ol f
_dec ides
_del ight
_re qu
ci ous
_Bl ack
_foot age
_d i
_dep th
O O
_m id
_writ ers
_p ace
_mo d
ke y
_sc ream
_ha ir
_int ri
_un belie
ac ing
_rec ord
_p rison
_v amp
less ,
_comple x
_dra w
_b iz
_S er
_G l
_direct ors
_col or
_wh atever
ro om
_( "
ect ive
ien ces
_med i
_It alian
_im medi
_expl o
_we ek
ain t
ag es
_P at
idd en
is e,
is hing
_re ce
ag on
_fail s
_predict able
_W orld
oss ible
f er
_b le
an 's
ain ed
_out side
_imp ro
_(wh o
l u
u pp
_h y
_B ar
ate .
_ins ide
ent .
_" f
ak ed
_3 0
_Euro pe
_p orn
_O ther
_us es
ia ,
ank s
v il
_" c
ge nd
ib ility
_cop y
_ rap
c her
ure .
_br ief
_/>W hat
_am b
_crit ic
_sol id
_for mer
_se es
ict or
_entertain ment
is es
ar l
_sound s
_ed iting
_parent s
_contro l
_id i
re ct
_st ore
itt ed
ac her
_quick ly
c y
l ict
_p lease
ar m
_D r.
_slight ly
u it
_portray ed
_myster y
r al
_G reat
man ,
_perfect ly
_serious ly
_wa iting
c ome
_g host
_M ad
_1 5
_way s
_comm on
_thrill er
_success ful
V ER
_in e
_tell ing
_conc lus
_m el
_I r
_reg ard
ver t
_year s.
_cred its
_memor able
_Inst ead
ly ing
_B at
_" m
_comp ut
_h ol
_K ell
_sp ent
_19 6
_talent ed
_sat isf
_bra in
_esc ape
_t ear
_r ad
ip s
E D
_A ct
_( R
pl ic
_rec ently
O W
_m ass
ri but
_rom ance
_earli er
id e,
_An n
_M ary
_sl asher
ow ,
_j ud
_P ro
_tim es,
_gen u
b o
_tra vel
_big gest
_a uth
_w ild
_M r
_ar ri
_St ill
- n
h is
_com pe
_what 's
_f it
_R ed
_R ock
way ,
_spe nd
_tri p
ver n
_B ig
_there ,
_contin u
_m ach
_b reat
_un s
_wr ote
_entire ly
_conc ern
_filmm akers
_zomb ie
i ous,
_M on
_belie vable
_incred ible
_forg ot
as ,
iv al
_gener al
_foc us
l es.
ul a
res h
_ro b
in y
_it !
_T ra
ra ge
_fe ar
_stereot yp
_D ead
_su it
_made .
_opp ortun
ate ur
_fight ing
iz ing
00 0
_rep res
_swe et
_creep y
_fasc in
_B ro
ide red
_people .
_cont r
ann el
_portray al
_enc ou
re l
_e arth
_dep ict
_biz arre
en ed
_I I
ive .
e g
_re de
if t
_plot .
_gl ad
r y,
al es
_br ut
_cast ing
_surpris e
_dru g
P O
_l ad
l es,
_t ort
_s oul
_su m
ag ed
_L ou
_were n't
_people ,
_che mist
_fant asy
e ven
u s,
_f ol
_mov es
_su spect
_miss ing
_mon ster
_Af ric
_genu ine
ri an
_P ark
th is
_tr ouble
_sp ot
_comp ared
_appreci ate
is c
ic e,
_" O
_show ,
ra g
_H or
_V an
_said ,
_imag in
a us
_w all
_H ouse
_ro ll
_ele ment
_f ash
_kill s
_/>A l
_actor s,
_ed it
_w estern
_l uck
_gr ound
_dec ide
_mar ried
v al
er o
un ny
_work ,
_cons idered
et te
_cr imin
_chees y
_purp ose
c es.
it ary
_p ract
_show ed
_end ed
_point less
_follow ing
a ven
e ah
_g arb
_was ted
r id
_b ull
_un in
_Y es,
_V ictor
_/> J
_mo od
_( in
_Sm ith
g l
_f at
_car ry
_sor ry
O M
_b all
_b other
_do ll
_am ateur
_comed y,
_follow s
_fill ed
f ort
_ch oice
_comp et
_scen es.
_aw esome
ic he
_fav our
_creat ed
_m er
ed y
_character .
i .
_t ough
_O h
ap pe
_miss ed
_be .
se qu
_un less
_dis play
I T
ing er
ar ily
ri es
_M el
_su c
_run s
_mem bers
_exec ut
rib ly
_Ind ian
_rede em
- like
L E
z e
_a ffect
_s av
_more .
_too ,
kn own
_" N
_ra re
_ass um
_prog ram
_be at
op her
th ur
ru pt
_imp ossible
eng th
en er
_p ers
ant ,
_19 4
_stud io
_fa ith
_trad ition
_chemist ry
_c ute
_M ovie
_C or
_deli ver
_bare ly
c es,
_s qu
_f ake
_L ond
** *
_stre et
u k
it ation
_ab ility
_dis g
- y
_F in
_anim ated
_b ought
_h ang
_l ab
_w on
_in form
st r
ie ,
_r ate
_O '
_Su per
_B est
_great ,
_hum our
_beaut y
_cra zy
_A nt
_A lex
ott om
_subt le
_c old
_l oud
_R uss
_ne igh
_St an
_ra nd
_screen .
_role .
_in .
_S T
_' The
_val ue
_b ed
_lik es
_t est
_T ony
_re fe
_un ex
_cl ot
_invol ving
_O F
ain e
_L et
_le g
_other wise
re m
_c ru
_re venge
ur ch
_L ove
_pre p
ec ause
_sudden ly
_intri gu
ir ty
_young er
_ins ult
_Christ ian
_obs ess
_C ra
_sc i
_R o
_laugh ing
_develop ment
re nd
_p ow
id ence
em y
_le aving
_But ,
_W ay
_bas ic
c ast
_p ie
_art ist
i ous.
r ound
re g
_you ,
_( al
_" d
_H am
_act ing.
_invest ig
_rand om
_s pect
_1 00
_direct ing
_Unfortun ately,
a ire
_c ross
_l ady
_n umb
_S and
_de f
_E arth
_tra in
_Ste wart
_some where
_go vern
w r
_B oy
_great .
_min or
_ter ror
_acc ent
olog ical
_occ ur
_clim ax
g ing
st em
itt y
_cam er
_utter ly
_p ack
_D ay
_ne ither
_man ,
ars h
_mag ic
_non -
_appro ach
_auth or
- out
s )
_m ult
le .
_tim es.
_acc ur
_abs urd
_d ad
_g rap
_se g
_H en
_mention ed
IL ER
" .<br
in ary
_" b
_An other
_Ste ve
id ing
_se arch
_go d
_ro ad
_heav y
_c ause
_st arring
_well -
aw n
iz es
ance .
_Americ a
y l
_M ur
_act ed
_sing ing
_immedi ately
A S
i ven
o es
_was ,
_not e
_" E
ive ly
_d ig
_do ctor
th at
_lo ver
_/>A ll
_chang ed
_convinc ing
PO ILER
ou n
_l au
_movie 's
_B ru
_( L
_series ,
_add ition
rop ri
_manag ed
_consider ing
_teen ag
_Je ff
ad es
_de fe
_sold i
_s itting
_p un
_d anger
_" p
_think s
_inde ed
a ff
_world .
I D
ver se
_ter rific
_colle ge
_t one
_g em
_for ce
_fail ed
_/>M y
_narr ative
v ir
_th reat
_do or
_now here
_Per haps
O V
_c uri
if y
olog y
_impress ion
_ultim ately
m en
_t ension
_s ix
_f ully
un e
_ser ial
_book ,
_conf lict
_mon th
_dri ve
_mist ake
_comput er
_suc ceed
h am
_g ag
_S w
_like ly
_long er
_pres ence
B C
_not .
_produc ers
_w arn
an ic
_re pl
_gener ally
_sy stem
d ing
ve y
ri ff
_much .
_thr ow
_cast ,
_add ed
_shoot ing
_resp ons
ly n
_B el
_W al
_fin ish
anc y
_intellig ent
A D
ir th
if ied
_j o
_reason s
_except ion
_av ail
_Char lie
w ell
is ,
_of fe
ac y
_cinem atic
_inter view
_Har ry
_Pe ople
_not ice
_K ill
_boy s
_pain ful
_wit ness
t t
_A b
_( T
_out stand
ab ility
_ind ivid
_Ang el
er k
_b od
_A g
_D en
_L uc
_thr own
_exc iting
_dra wn
_danc ing
b oy
_b omb
_off ice
_produ ced
_quest ions
_equ ally
ic ated
_u r
_( P
and y
ac hed
_rem ain
_9 0
_flash back
- of
_n atural
_C al
_sc ience
_wat er
_sm art
_Ad am
_M iss
_ch all
_E m
_exc use
_desc rib
_nud ity
it es
_p il
_D irector
_rem ains
less ly
_pat hetic
_const antly
h a
h ol
m in
he art
ct ed
_D ick
_R ay
_or d
_St r
_laugh s
_P aris
_gen ius
_ind ust
_dem on
_o kay
_f re
_Ch ris
_supp ose
_10 .
_8 0's
_esc ap
n ight
ill e
_C r
_1 8
-f i
_viol ent
_myster ious
_inf lu
_liter ally
p ar
y ou
_boy friend
_beh av
_mil itary
_histor ical
j ust
l ook
ic ious
ough ly
_spe c
_ri p
_scene .
_/>O ne
_off ,
_sub st
_dr unk
_medi oc
_d ied
_is land
_year s,
_comed y.
_destro y
m ark
is on
_b urn
_in it
_S ci
_we 're
ist ,
_series .
_disc uss
_aff air
a res
_m at
_B ecause
_W here
_P al
_J on
ann a
_adapt ation
c ing
_" the
_know ing
_off .
_stud ent
it z
ri be
_B ob
_do .
_know ,
) <br
an ch
_n omin
_H igh
_sh ip
_D ou
_so ft
_com mer
_Th ough
_pro per
_script ,
_hop ing
o ved
_m ir
ir ing
_en er
te nd
iz ation
_ser v
_sur round
u nder
_st ate
pl oy
son ,
_inter n
ele br
_individ ual
_a st
or ter
ens ive
_music ,
_On ly
_prot agon
_mill ion
g hed
_s ight
_h urt
ic ip
_al ien
_am using
_mean ,
_mor al
k in
is ion
_m akers
_was .
_li f
_not ,
_C G
if e,
_int ense
_put s
_/>S o
C H
_t ired
_f right
_H ard
_le gend
_Ph il
_unfortun ately
_ ****
_lo ves
_sur f
_ke y
. I
I E
_film -m
_pl us
_breat h
_l ength
_P art
_J es
_sp ort
_tra ged
_diffe rence
_impress ive
in ct
_f ool
ab l
_qu al
ress ing
en a
_re -
_W est
un ting
ag ing
_cont ains
_f resh
_S l
_S outh
ex ic
_includ e
_M ill
_tr ick
_no ir
_mag n
I G
c l
_S ec
_than k
_V ery
_imag es
_mel od
_S o,
_we e
_sh are
_te acher
ia .
_l oose
id ay
_" h
_R og
_ter ms
_appe ared
_norm al
_th or
_M us
_( p
_G o
_ste al
s s
_T ar
ful ,
_enough ,
_/>W h
_present ed
_fell ow
_I S
_st unning
te xt
ap er
_St ory
az z
_exc it
_dr ink
_c elebr
_h am
al y
st ers
_has n't
_You ng
_surpris ingly
_together .
_advent ure
_vamp ire
od e
_stand s
-b udget
_bab y
_dam n
- off
_b re
_c ard
_g orge
_pr im
_Fr anc
_Christ opher
_appear ance
_disturb ing
_neg ative
- se
_s pl
_A p
ness ,
_Can ad
_ era
ra id
ab b
_beautif ully
_walk ing
_sil ent
or .
_th ing.
_d u
_H ol
_W W
_D ark
_P ol
_then ,
_langu age
_repres ent
_Bru ce
_ X
m on
r as
_( W
ated ,
_Not hing
_profess ional
bo ard
_commer cial
b l
an .
ur al
_pro ves
_lack s
_cur rent
_innoc ent
E T
_h osp
_j oy
_sc are
us hed
_un ne
_best .
ically ,
_either .
_disg ust
y le
in e,
_n ast
and s
_aud iences
_example ,
_a ward
_l atter
et .
_v irt
akes pe
gg ed
_sci -fi
r ont
man 's
_part y
omet hing
_lau ghed
k en
_b ase
_d read
_d ubb
_B as
_M ark
_M exic
_( not
_about .
_child hood
_fa ult
? !
n o
_a head
_m art
ed .<br
_/> U
ir k
_me rely
_un us
_qu iet
_ir rit
_disco ver
e al
ent ially
_B ur
_( H
and a
_loc ation
_fore ver
_fr ustr
_r out
_G reen
_touch ing
g e,
_in vent
ro c
_M ag
_imp act
_opp os
_medioc re
il ities
_T re
ro g
_you th
_ch ick
_N or
_any th
_All en
_self -
- sc
p ret
he rent
_h ig
il es
_B o
ust er
_set t
ness .
de red
_fall ing
_Ste ven
_cult ure
. S.
a "
_h ost
_d en
_in ,
ic ide
_B er
_( G
_book s
_Car l
_inde pend
_Hen ry
m are
_p aid
_d in
_d iv
_for t
ath y
_high light
_tast e
_" J
_r ide
_go ld
_ed ge
_prov ides
_Je an
/ 2
_cons ist
_Ste p
_cor rect
_funn iest
_inte nded
_achie ve
_m outh
_h ide
_A ustr
_dis aster
_conf us
_aspect s
f fe
_e at
_v oic
_dis appe
_comp an
_comp any
_role ,
_minut es.
led ge
_becom ing
_Char les
_ra pe
_you' d
_day .
_actor s.
ism ,
_/>O ver
f ield
i um
_B ad
_not ic
.. ...
_perfor m
_ob ject
_help s
L Y
on na
ay l
_S ant
_su n
_act s
_char ming
_them es
_ra c
_dra g
_opportun ity
y "
he ro
_d ouble
_re ach
ion ed
_st uck
ill ing
ell ing
_did .
_kn ock
_Sh akespe
_anim al
_colle ction
_(w ith
_f est
_n ons
_he ld
_H it
_will ing
_off ers
_rem ote
_main ly
mb ol
_remind ed
_spect ac
_melod ram
is hes
it 's
ain ,
and er
_E y
iv il
_cont em
_slow ly
ograph y,
- old
on ed
_pro cess
ine .
_fun .
_wonder ing
_follow ed
_cent ral
_Tw o
_occas ion
_af raid
_thor oughly
- and
g ue
r ough
or ious
_bl ond
_/>F or
_val ues
_forgot ten
h ouse
i ac
_c ell
_e ight
_with .
_r ated
_no body
_ar m
_off er
_seem ingly
_director ,
_add s
_war m
-t ime
i vers
r ick
_f ict
ir gin
_man ner
_bl ind
_gr ow
_super ior
-y ear
er ous
an ced
_un w
_ever .
_res c
_gi ant
_bo ard
_Mart in
_AN D
es ides
an ish
_B illy
_L ittle
ren ces
_day ,
_minut es,
c on
s es
_h at
_h ook
ie 's
_li ved
_so ,
_r ound
_E n
_any more
_/>A n
_ra ce
_effect s,
_world ,
_person ality
_pass ion
_deli vers
n ow
u ous
_" t
_J erry
_con vers
_put ting
_sure ly
_stre ng
A Y
_S ee
_ch annel
os h
app y
_performance .
_det ective
_rent ed
_Des pite
- for
_a im
_l ay
_on to
_ch ase
_love ly
_action ,
ines e
v ol
_su mm
_r at
_lo se
_turn ing
_rel ative
_pick ed
_desc ribe
_build ing
_avail able
e ch
in .
_w ond
_m ount
_p ath
_n ames
_st o
_man .
_des ert
_point ,
_tra gic
_sex y
_vis it
_unex pect
_govern ment
C K
g ar
_w ide
_w ise
_b right
_b ottom
st e
_y es,
_S ar
_att it
_now ,
_expl an
_cle an
_4 0
_On ce
_hot el
_jour ney
A L
in ci
_m ember
_to .
_be gan
_movie !
_( E
_C ity
_tw ists
_under st
_Ar thur
_b i
ow d
_S pe
_love ,
_find ing
_acc om
_hand ,
_sy mbol
_chang es
_bro ad
_redeem ing
_Lond on
- M
c le
_g ri
one y
_tr ust
_1 2
_mot ion
_iss ues
_Shakespe are
ic a
_film ing
_L yn
_F ox
ook ing
_what so
_And ,
_should n't
_feel ings
_soldi ers
_l ed
le ep
_script .
_awful .
_insp ired
_lat er,
_b ank
ut s
_( d
_Bl ood
_Bat man
/ d
_int ention
ian ce
_comp aris
_ins ight
_let 's
_pict ures
o om
_b oss
ar p
_W in
_O N
_bl ock
_cast .
_art istic
_ ver
_b udd
_B oth
_interest ing.
_includ es
_crit ics
_intellig ence
_pie ces
_mult i
- A
_ 's
ot ed
_S in
... and
_though .
_bu ff
_read y
_actor ,
_away .
_list en
_allow ed
A M
re ck
es c
_d ro
_n a
all ed
au d
_E dd
pl es
_im age
_rem em
_7 0's
_Man y
_techn ical
_encou nter
_t ar
_t em
_u g
_M ore
_" g
_other .
_than ks
_help ed
_dep art
_Dou gl
- a
a fe
_d im
ad ow
_as ks
_se ll
_W alk
_R oy
_cl ub
_friend ship
ord ing
_rese mb
_phys ical
_compe lling
_favour ite
a br
o hn
_m ut
_h int
_T oo
_The ir
_D u
ag ger
ate g
pl ot
ice .
ated .
_character 's
_supposed ly
_zomb ies
_outstand ing
b ian
i que
_s our
_we ap
_P ow
_N ever
_seen ,
_belie v
_bor ing.
_Mc C
_/>H ow
_conne ction
_th ing,
ll ed
_A c
_F e
_N ick
_ph one
_pers pect
_streng th
- e
i qu
ar ry
_A pp
_before .
_comed ies
_em ploy
_impress ed
_Dav is
_prov ide
_fascin ating
_p air
_R os
_gr ad
_interest ing,
_app ropri
_aw are
_wrong .
_5 0
_indust ry
_b ene
_d rop
le v
_T ayl
am ent
_H ill
_time .<br
ru ction
_She 's
play ed
_situ ations
w olf
_p ra
_n aked
_any where
_te nd
_des ire
ograp her
_creat ive
_poss ess
_Jack son
_contin ue
_Kell y
_mart ial
_l a
_I N
_sc ared
act ion
ac hes
_gr at
/10 .
_Russ ian
_s ill
_D id
_F ord
_r ubb
res s,
_comed ic
_audience .
_conclus ion
- th
U T
_f ood
_c orn
_d er
ter ,
_D am
_do z
_de b
_sl ap
_kid n
_family .
_else .
_sign ific
_marri age
_contr ast
_neigh bor
_unus ual
_Step hen
r ical
ar ,
_B rian
_pl aces
pp y
_ne cessary
-m ovie
_mem ory
_/>O n
_repe ated
_scient ist
_pil ot
_b irth
_de g
_end ing.
ip ul
_fin ished
_comp are
_produ ct
_emot ions
eah ,
k ward
it ,
it e,
_re lie
_mov ed
_un real
_Ch inese
und red
_pur s
_opin ion,
_sent iment
_ment al
_c al
_p en
_S ad
_B urt
_but ,
_ch as
_J enn
um an
_en s
_V H
_Al an
_anim als
_teen age
_CG I
v ate
_W H
_L es
_r is
_O h,
te rest
_Y et
_done .
_const ant
_B arb
_man 's
_em pt
_Br other
_Z omb
_exp ert
_Eng land
_mot iv
_deep ly
_de but
_L au
_1 1
_back .
_Br ook
_acc ount
_aw kward
_performance ,
_mone y.
_ele ct
_Ke at
_relig ious
_answ er
_w ife,
_m ild
en ge
_it ?
_bl and
_book .
_bor ing,
_detail s
, 000
u ct
es pecially
_st unt
_we aring
_O l
be red
_cr owd
enc y
_ve hic
_strugg le
_costum es
_tar get
_t ed
en .
_B ab
_hor se
_pret ent
_begin n
-c l
_develop ed
itch c
_prog ress
_Mor gan
_mod el
- 1
_s ac
ad ed
_do ,
_R y
_' S
_conf used
_cra ft
_remind s
_accom pl
. A
u be
_b al
_h undred
_W il
op s
_R us
te red
_im pl
_fl es
_better ,
_got ten
_sm ile
_surpris ing
_deser ve
_mad e,
_bel ong
_cas e,
C T
at hetic
il st
_( K
_L ind
_first ,
_wonder fully
_place .
_honest ly
_crimin al
_gorge ous
_unexpect ed
S E
p ort
_b ur
_y es
oo per
_A v
_S us
ant .
_E r
_scen ery
ci ent
_pre fer
_disappoint ed.
_exper ien
_form ula
_garb age
_ ing
u ed
_t our
in al
_o h
_b orn
_st ret
_J ew
_real ized
_And rew
_want ing
_ent h
_now .
_expl os
_Rob in
_famil y,
_hold s
_trail er
: <br
e an
f ather
t ain
_c ow
_T e
_( N
_so ap
_L o
_sense .
_pain t
x ual
_o pt
_f reak
_th us
_be ,
_se par
_M s.
_D O
_J ud
_O ut
_lo ck
_before ,
_ep ic
_worth y
_let s
_actress es
_Hor ror
_inform ation
e per
om en
_ch urch
if er
pp er
_r ul
_N az
_un known
_ra rely
_str ang
ism .
e 's
l ock
_H el
_happen ing
_inter pret
_low -budget
i ver
_to ward
_for .
_S il
_W as
_ab and
_J ose
_J ason
_J ones
ab or
_part ,
_himself .
_unbelie vable
_f lying
at ra
_S ince
_( The
_W estern
ant ed
_lo ving
_had n't
_belie f
_original ,
_Americ ans
_/>S t
_job .
_exper iment
_OK ,
_magn ific
_c ateg
_man age
_1 3
ac he
_gu ard
_person ally
_ph il
_reg ret
_Dan ny
_mark et
_Lyn ch
_w ed
at ory
_th ous
_pl ane
_P res
_L aw
_F re
pl ess
_bl ame
_dialog ue,
-t o-
_stud ents
_"S t
_phot ography
_behav ior
_Dougl as
it a
_ch ore
az y
_cour t
_lik able
_ang ry
_unc on
- sh
an o
ad emy
_st ink
_( like
_al ive
_P ac
_watch ,
_te xt
_new s
_How ever
_/>W hen
_disappoint ing
_cra ck
_capt ure
_Dan iel
_stru ct
_produc er
_Col umb
_murd ers
_attract ive
_nast y
_ ic
_ 't
it ions
_con text
_Al bert
_theat re
_introdu ced
- F
he red
_p et
ar io
_d ate
_that s
_C o
_H aving
_con vent
so ci
_best ,
_creat ing
_ask ed
_intell ect
_win ning
_respons ible
_unne cessary
_independ ent
_t ur
ot es
_pro ceed
_V er
_cont ent
_Sh ow
_expect ations
_mem ories
_conv in
_Every thing
t 's
t able
t ime
z an
at ,
_h yp
_S y
_R EA
_char ism
int ention
_des p
_Jo an
_det erm
v it
ll a
as ure
_st ock
ra ction
_D el
us hing
ud ic
_every body
_fin est
_desper ate
_f ield
app ed
_creat ure
_comment ary
_Unfortun ately
_circ um
_whatso ever
_rubb ish
at .
_h idden
ul f
_su icide
_L ife
_G irl
our ne
te en
_know ledge
_cont ri
_Sp anish
k a
y er
_s afe
ar i
st al
im al
if ul
un ted
_R on
_J an
_much ,
_Wh ite
_genre .
_pull ed
_lim ited
_b ill
_h ated
_B ond
_C am
_E ast
_other ,
ens ional
_John ny
_apart ment
_mix ed
_rad io
_fre qu
_t ick
_b oo
as hed
_st ation
ir m
_M i
ac hel
_fin ale
_treat ed
_iss ue
_ ?
b ur
k i
v ed.
w ar
he m
_( if
_L ord
_see .
_tw enty
_dis p
oth y
_down .
_woman ,
_mis er
_trans l
_deser ved
_Every one
_numb ers
_t ight
_s in
as p
_e arn
_W ashing
_so .
_E ric
_tw ice
_ag o,
_gr owing
_res ol
_De ath
_ass ist
) ;
g n
_M ike
_R am
_or gan
_pro ve
ok ing
_Sp ace
_sad ly
_pleas ure
_grap hic
k es
_s al
_th in
_we alth
_( 2
th ony
_ne cess
_inc re
_today 's
_Now ,
_pri est
it .
ic .
ie .
_mo b
ri x
_C ass
_H art
ation s.
_Th om
_K id
_ter ribly
_mur dered
_ref lect
_sat ire
R I
one ,
_Th ose
os aur
_man ipul
_tr oub
ually ,
_love .
_DVD .
_flick .
ar c
_n er
um mer
ru ct
_kind a
_reg ular
_cent ury
_capt ured
_disco vered
_victim s
_Europe an
p ir
in 's
_cinem a.
_conf ront
_terrible .
_relationship s
_num erous
_deal ing
_insp ir
_sum mer
_circum st
or ing
oo re
_any body
_ag ent
_/>T o
_right .
_keep ing
_brother s
_brut al
m ar
_f iction
an z
_d ying
_g ru
ag er
_long ,
meric an
_conf using
_Har ris
_shock ing
_remark able
_unbelie v
_Bro ad
r ors
u el
_s ed
_I m
ad ing
_S id
_j u
_L ady
_ad vert
_inc omp
_psych ological
_dream s
_los es
_react ion
_fash ion
_nons ense
O L
h ip
_t or
_C oll
_H all
_R om
_fun ,
_point .
_girl ,
_original .
_exp os
_cor rupt
_wood en
_Afric an
_tradition al
R A
_b an
_b ath
at ives
as m
_/> You
ent le
ill a
_sh allow
_understand ing
_light ing
ug s
_hosp ital
_phil os
T H
_p ark
_g rew
_be ar
her n
_li es
_are ,
_de als
_R ose
_J ess
ac c
_Wh ich
_/>A ny
_pr int
_pr inci
_start ing
_return s
_unf old
_hop es
_adult s
_exist ence
_bel ow
POILER S
_/>Wh ile
- r
he nt
_f aces
_d ies
_j unk
_G ar
... I
_dis m
_gr own
_ter rif
ov ies
_TH IS
_vis ion
_ed uc
_came o
_sw ord
_ant i-
_genuine ly
_remem bered
t a
y m
in i
_h its
_in ex
_g e
_G ene
ive red
-- and
_laugh able
_bu ck
_/>N ot
_plan et
_Hit ler
a a
c ise
_g reen
_with ,
_C apt
_there fore
_K ate
_K ong
_art s
_contin ues
_clot hes
vir on
_Tayl or
_VH S
m ble
_in h
_fr ank
_com fort
_pro ved
_un com
_over ly
_/>I 'm
_spe aking
lud ing
_recommend ed
_together ,
_Be fore
_wrong ,
_moment s,
_today .
_fore ign
_feat uring
_Stre et
_idi ot
_sav ed
_hig her
_notic ed
_s ake
le ction
il og
ay s
_all ows
_ar ch
_/>Th at
_second s
_father ,
_mar ry
_relie f
- T
_t ack
_/> 1
se ll
_se ven
_E VER
_mind .
_fol k
_oppos ite
_Edd ie
. The
ll e
ch ing
_M en
_C ent
est y
_G ord
_1 4
_them .<br
ap h
ue en
_origin ally
_disappoint ment
-w r
?? ?
_learn ed
_Ke vin
_Still ,
_l es
_re du
_M al
_M il
_( for
_H ad
_sh op
_one 's
_v ul
_Th ank
_just ice
od d
_How ard
_Any way,
_oper a
_spectac ular
! ).
_f if
_I T
st ick
_as soci
_S und
_C arr
_L ew
_some body
_un able
_she er
_really ,
_And y
_fl oor
_bit s
_del ivered
_dist ract
_cra z
LL Y
_break s
_disco vers
_William s
por ary
_delight ful
d own
o res
_h all
_S k
_" w
_E s
_ob l
_big ger
_fan ,
_Be at
-l ife
_blood y
_rese arch
_Lu ke
wr iter
0 s.
b an
c er
u h
_p ress
_g oof
_g onna
_/> -
_B et
_" K
_K enn
_performan ces,
_Br own
_mar vel
_grat uit
o oth
_f ac
_b ot
ar ies
_e mer
_re un
se y
_C ind
_N orth
_en viron
_Y OU
_cont ain
_screen ,
_op ens
son 's
_less on
_house ,
reed om
- on
= =
T his
n ox
_b at
_c ivil
_p it
et her
em an
_act ions
_v an
_L at
ish ,
_gu y,
_te ach
_through .
_tri b
_Br ad
_call s
ug os
_dri ving
_ref res
_med ia
_subt it
_prot ect
_gang ster
- D
. 5
0 s,
t .
ing "
et work
_se ction
_( m
_are a
_D or
if orn
un ter
um m
ous y
_spe ech
_ob sc
_music .
_/>S ome
fin itely
_gra ce
_col our
_Gr ant
n am
s en
_w ound
is .
_f al
_f are
_l oss
st it
ul s
ul ous
_al tern
_L i
_R ain
_end ing,
_entertain ing.
_short ,
_major ity
_express ion
_wind ow
_fol ks
_to ,
_/> Y
el ,
_so le
_J r.
_app l
_An thony
_creat es
_sy n
-w ork
_filmm aker
_Jim my
_protagon ist
- be
_n atur
_T ex
_se nd
_M aster
_C ast
_H ay
ation s,
_K im
_U .S.
less .
_ca used
_ultim ate
_danger ous
_ener gy
_Jes us
at ors
_c yn
om ed
_I nt
_g ory
_as ide
_S H
_( b
_con vey
_can n
_performan ces.
_head s
_pain fully
_val u
_aut hent
_hol es
_traged y
_Tre k
n ie
_c ash
_M oore
_watch ing.
_sp oof
_bu ilt
ograp hed
_review ers
.... ....
_Un ivers
_rece ived
_ine pt
_Sin atra
_pretent ious
itchc ock
a ult
n atural
r ie
he ster
it ter
ll y
_se m
_fr ame
_ar my
ear ing
_belie ves
_sk in
_ve ter
a way
h ar
ar ian
_d ry
ay be
et ic
_M ont
est ,
_L ong
wh o
li ver
_director 's
_imag ination
yn am
_sold ier
_est abl
_ug ly
u zz
ad d
_rec all
_under rated
_comp os
_right ,
_Ar t
_includ ed
_cop s
_pop ul
_Let 's
_na ive
I LL
w hel
_t al
_T er
_for ces
ke nd
_ha ck
_sc rew
_E ll
_pe ace
_bl ue
_ter m
_friend s,
_ins ane
co hol
_flaw s
_intrigu ing
_month s
_refres hing
r ous
_t ape
er "
_b ond
_d ress
_l one
ut ed
st ream
_movie ?
_( f
_C inem
_" l
_G ary
_un b
_E v
_And erson
_produ ce
_effect s.
_invol ves
_rep ort
_hands ome
_Instead ,
d om
_A re
_A ust
ir o
_D ra
_P ar
_un p
_fl ow
_V iet
_rel ate
_As ian
_awful ,
_Se an
allow een
_ord inary
b ell
o h
_P re
_more ,
ere r
_dec ade
_dec ision
_pract ically
_Jose ph
o ir
p s
u gg
is a
_f und
_( played
_C ap
_H itchcock
_ch oose
_L ast
os en
_O kay
_ro les.
_enough .
_dram a,
_nice ly
_Le on
atur day
_ru in
_tear s
G E
k ,
or b
_p acing
_st alk
id ge
_B or
_we l
_( F
_H aw
us i
_L A
res s.
_see ,
_K u
_direct ion,
_lack ing
_learn s
_eng aging
_seg ment
heart ed
_empt y
f ull
o "
v ed,
en ny
_p unch
_T O
se c
ch an
_A sh
_M iche
_( he
_they 've
ab eth
_job ,
_himself ,
_itself ,
_/>U n
_Washing ton
' S
I I
U N
p oint
_f le
_b ound
_r ing
_r an
ich ol
_end less
_play ers
_ag o.
ang ed
_cou nter
_done ,
ann ed
-t op
_night ,
_cra ppy
_comb ination
_ess entially
IG H
_excit ement
_occasion ally
f it
is her
_f ly
_M ax
_( but
_W ild
_ch oic
_v ac
_P lease
_F ull
_em p
-- --
_history .
_ask ing
_unf unny
_large ly
_norm ally
_emotion ally
_Super man
_unreal istic
n al
_p al
_d omin
as .
il ty
_wh ilst
_A LL
_M oon
_con ce
_un intention
_my th
_other s.
_pre vent
_' B
_pr oud
_TH AT
_ev idence
_flick s
_cap able
_Bra nd
_Lou is
_describ ed
_Canad ian
_explan ation
_in ner
ic ate
ro ll
ur ity
_C age
_W r
_sc ar
_who ,
omet imes
_mone y,
_fight s
_stud y
_compl aint
_bro ken
_Austr alian
_/>Over all,
C E
m at
_h arm
_/> *
_S ur
_R od
_like ,
_when ever
_2 5
_sur real
_around .
_portray s
_death .
_pur ch
_theat rical
il i
_M ir
_sh arp
_/>The n
_part .
_bl ow
_hum ans
_action .
_invol ve
_picture .
_brilliant ly
eth od
_assum e
_Sec ond
_fict ional
_Ac ademy
s !
u pt
_c ab
_M att
_( even
_so ph
_P itt
_U K
_min i
_gl imp
_classic .
_pass ed
_capt ures
_Pr ince
_prop ag
_Ant on
_curi ous
m other
_w itch
_g ross
_as leep
_C are
_W he
_r ange
_lo g
_over -the
_portray ing
_hero ine
_ine vit
_m ask
_T ime
ul p
_k iss
ence ,
_' M
_St one
_cont ribut
_crap .
_unc le
_adv ice
_tort ure
_unin terest
_convin ced
ic ol
_re nd
ad s
_S ure,
_B E
_B ak
_W at
_D og
_al cohol
_over look
_V ER
_spe ll
ok en
_place ,
_Cl ark
." <br
_meet ing
_ru ined
_(al though
_sto pped
- C
_c ant
es "
_p upp
_for th
_S ure
_H a
ers "
_N O
ide o
ical ,
_sp in
_long .
_walk s
EN T
ana gh
_accur ate
G M
V E
at ing,
ic ation
_an cient
_K arl
_over .
_fl o
_exc ess
_ass ass
_Well es
_hero es
_/>F irst
_Any one
_extra ord
_qual ities
i j
l im
s ing
w alk
_f ate
_d ressed
ut her
_T or
_D ar
ast s
_make up
_part ner
arn er
_An ne
_away ,
_itself .
_ste als
_amateur ish
_refe rences
_Way ne
_init ial
_Rus sell
_ #
_ ́
it iz
as hes
_re vel
_v ol
_F est
_G ener
_N o,
ose xual
_U p
_day s.
_ref er
_los ing
_hy ster
_lad ies
_/>Al so
_resc ue
_les bian
_gratuit ous
v y
v inc
ing .<br
_d a
_T ri
_S an
_D omin
ant e
_L a
_K h
_rem in
hen s
_reason ,
_vers ions
_war ning
_miss ion
_dru gs
_categ ory
_Broad way
_fal se
i os
k ed
_s aving
_f its
_p ile
_l udic
_e ating
ot ing
am ily
_B on
_C as
_C le
_J .
_con sequ
_pre gn
_/>A t
_em ph
_/>W e
_night .
_home ,
_rep orter
_violence ,
_desc ript
_contro vers
while ,
_virt ually
_relative ly
_c ris
_g ig
am ing
_ch ose
_D em
_act iv
_r ot
_man s
_him .<br
_every th
_ser ves
_sit com
_humor ,
_foot ball
_Com m
_base ball
) :
3 .
l o
_w id
_/> K
_he aven
et urn
_S n
_S un
ard ed
_ever ,
_spe ed
_director .
_actor .
_pol ic
_stand ing
_ac qu
_rep ut
_bring ing
_wood s
_murd erer
_Jenn ifer
_Keat on
g ent
_T it
_he aring
_at ro
_v ague
_ne at
_about ,
_un for
_cl ue
og ether
_over d
_year .
ail s
_least ,
inc ess
_strong ly
_worse .
_lives .
_hold ing
_er otic
_cap ital
_lin es,
_anyth ing.
_multi ple
_sour ce
_Thom as
_tal ents
- so
s he
_t un
_b att
_c and
en 's
_B ern
_R em
_tr uck
_up set
_laugh ter
_vis ually
_death ,
_typ es
_Ed ward
_pleas ant
_compl ain
_explain ed
_obsess ed
_enth usi
- man
i at
n ce
y al
er )
ic es
_( though
_lo vers
_story t
_ar rest
_play er
_part icip
_Y ear
_down ,
-- the
_around ,
_/>W ith
_beautiful ,
-l ooking
_cut s
_style ,
_adm ire
_themselves .
_pos ition
_suff er
_Watch ing
_blond e
_over-the -top
p ent
_s ite
_s ne
en ess
_A dd
_we 've
_P ri
_does .
_ide al
_talk s
_conv ince
_Is land
_bra ve
_suff ers
_commun ity
_lat est
_jud ge
_mach ine
_contem porary
_Barb ara
_intellect ual
_ )
c ul
o ch
_t ap
re hens
_S ky
_M OV
_we ar
_( especially
ol ic
_N E
_co vered
_exc ited
_dist ribut
_ant i
_ca res
_Victor ia
_irrit ating
_fles h
_incre as
I ON
c hen
_b ag
_l ink
_H ell
_W ars
_ch osen
_D ian
ab e
te nded
_i 'm
_ed ited
_moment s.
_budget ,
_/>E ven
_unfortun ate
_revol ution
_symp athetic
_reveal ed
aus ible
_dread ful
_Sant a
_a br
_s on,
_f reedom
at ing.
_n in
ion s,
_C amp
_ex agger
ol ph
_F er
... but
_over -
ull iv
_back ,
_gr ade
ise .
_add ict
_review er
_humor ous
_capt iv
_anyway .
_Pat rick
_cru el
- L
I A
i xt
p et
_m ine
ay ,
_G et
um ph
_would 've
_ri ver
inc luding
_sk ip
_stupid ,
_surv ive
_stat ement
_Bar ry
-year -old
_uncon vinc
2 .
at al
_S or
_M od
_C ru
_C omp
_H off
_r ough
_tr ilog
_lo gic
_ar g
_po ign
_well .<br
_pres ents
-t o
_today ,
_gun s
_suff ering
_Gra nd
_Sim on
_scream ing
_emph as
m es
_c ars
ic it
_e ld
_st ol
_A st
_M uch
_N ichol
_man n
_over whel
av y
ost er
_hor ribly
_view ed
_reason .
_We nd
_star s.
_flick ,
_prov ided
_Do es
_occas ional
_cond ition
_Ir ish
_offe red
_Pow ell
l s
in '
_c able
_/> V
se e
_M GM
_P ict
_K ore
_real izes
_V inc
_inc ident
_sense ,
_yet ,
_conc ent
_vill ains
_par ody
_unlike ly
_gag s
_nomin ated
_surf ace
_vehic le
_Capt ain
w ith
_s ink
is er
_of .
im ate
se ,
_B ett
_H ong
_D ream
_L aur
ard ,
ard s
_O ff
_make -up
_kind s
_main stream
_lead er
_cinem a,
_vers ion,
_house .
_terrible ,
_walk ed
_With out
_result s
_pri or
_land sc
_Over all,
_skill s
_impro ve
_Wal ter
_App arent
_Cind ere
/ or
w ise,
on )
_h arsh
_d ynam
_he alth
am ous
ur s
_W or
_real ism
_/>A fter
_old ,
_Be ing
0's .
_production .
_fant as
_Tar zan
-sc reen
_remote ly
A A
_ 0
n oon
p hy
r ad
w y
il ing
all ing
_S at
_M er
_D rew
_j ail
_k ing
_ab use
_' C
_' H
_spe nds
igh ter
_own er
_bo at
_low er
_comm and
_Un ited
_Jack ie
enn is
_genre ,
_feat ured
_strugg ling
_hang ing
_Cal iforn
_sport s
! ),
I R
a ver
l aim
_l y
_S aturday
_B urn
_( ex
_C H
_" st
um s
_N one
_E vil
_O liver
... the
ne y,
_every where
_thing s.
_sp ite
iz z
_plot s
_ri val
_cr ing
_down right
_dram a.
_cliché s
_speak s
_Wood y
_depict ed
_demon str
_mount ain
_/>How ever,
e ction
t s
_t ill
_m ethod
_b on
an ny
_was t
_are .
_v ote
_F air
_were wolf
_which ,
ick ed
iz abeth
_own .
_acc omp
_DVD ,
_inter act
_fig ured
_/>N ow
_accident ally
_influ ence
_magnific ent
_bot hered
_VER Y
_remin isc
o ons
_t ask
er ie
_b ore
_d ated
om er
_B BC
_C ur
_C ount
_H ope
_R oman
_out rage
_int ent
_experience .
mm a
_Pl an
lin e,
_conne ct
_claim s
_requ ired
lev ant
_Av oid
' T
b id
w in
_T urn
_S al
_li ber
_( that
if orm
_sc ale
_pro stit
_no stal
man .
_cont act
_episod e,
_human ity
_sw im
_fair y
_mor ning
_Then ,
_treat ment
_pri vate
_sens itive
_mass ive
- S
U R
o ly
p ass
_f ab
_f ix
_h ired
_l ousy
_g ames
_T y
im e,
et ime
ra ft
_W all
_D irect
ak ing.
_r ise
_story .<br
_bet ray
_know .
_episod e.
_gl ass
_night mare
_comm it
_worse ,
_pull s
_tre mend
_clos er
_pow ers
_attit ude
_authent ic
is co
_T ed
_mo ck
_st om
_se at
_W onder
_L ook
_L ugos
_G ill
_1 6
_acc ording
_What 's
_pres um
_/>O f
_humor .
_cor ny
_lin e,
_rob ot
_din osaur
ste in
_comparis on
_c ore
_d ed
et er
_ch air
_one .<br
_all .<br
_Th rough
_E ve
_sp ark
_cont ract
_2 .
_sim pl
_sex ,
_sequ enc
_dep ress
_stupid .
_cinemat ography,
bel ief
_standard s
_surv iv
_offic er
_recogn ize
_chall eng
_film-m aking
_beginn ing,
i ents
j a
l ow
t ,
v ille
_t on
_f ame
_th ro
_h ill
_of ,
_( y
_sh o
_sh ut
_sh adow
_j eal
_19 2
_something .
wh ich
_bit ter
_nothing .
_cut ting
_writ ing,
_ridicul ous.
_foc uses
ograph y.
_Fl or
_Fred dy
_critic ism
_breath t
_Rog er
_appropri ate
_wed ding
_Viet nam
B I
I C
a it
_c ust
_to ler
al ing
_S E
_C urt
_ch ill
_D uring
_pl ans
_dis s
_' D
_hand led
_shot ,
_De vil
_cent er
_stay ed
ron ic
_reve als
_explo itation
_wee kend
_perspect ive
w o
ot ion
_st umb
_A k
_M ST
_( c
_C ub
ol n
ist .
_int ens
_G i
_see k
_watch able
ple nd
_direct ly
_gu est
_str ict
_audience ,
_stuff .
_polit ic
_cliché d
_Ab out
_/>An other
_signific ant
_ ut
w w
on el
_an ime
_D et
_sc r
_me .<br
_O ld
_think ,
_' c
_te eth
_cont est
ath an
_day s,
_boy ,
_instead .
_coll ect
_children ,
_tou ches
_deli very
_(19 9
_mist akes
_Don ald
_heav ily
_ident ity
_legend ary
_dubb ed
_voic es
_doz en
_necess arily
_Es pecially
_stom ach
a )
a ust
u le
re aking
_f ond
_and /or
_he ck
un s
ell e
ious ly
_ad e
_first .
_Y our
_friend s.
_expl ains
_conf ess
_ev ol
_ev ident
_z ero
_pay ing
_compl icated
_inte gr
_AN Y
_ign or
_doll ar
_inh ab
O P
_the ory
at ically
_p an
_g ain
_re ject
ch ,
_S ol
_ha unting
_" You
em s
out hern
_de eper
_gu ilty
ons ider
_super natural
_Be aut
_Mar ie
_8 0s
-d im
_Car ol
_dem and
_stay s
_hilar ious.
orth y
_comb ined
_appeal ing
_Mur phy
_underst ood
_ ***
w rit
or ror
_p ac
_this ?
_B og
_li ft
ers '
_R ec
_G and
_un iform
_ar gu
_' A
_under w
_TV .
_mind ,
inc oln
_dep ressing
_fa cial
_ant icip
_foc used
_luck y
_Sar ah
g a
_f il
_S her
ill ed
_C ome
act ic
ist ent
_ne ck
_r ank
_did ,
_friend ,
_bu ying
_dri ven
_prof ound
_shock ed
_embarrass ing
_faith ful
_slap stick
_gru esome
- ch
s :
u ght
_f et
_m ature
_y ell
_B ourne
_li br
_( at
_H alloween
_P age
um my
_very ,
ence .
for med
_dis belief
_bl at
ob b
_ob nox
_acc ess
_You 'll
_else ,
_dist inct
_fail ure
_rent al
_pat ient
_possible .
_adv ant
_deg ree
_experien ced
h ib
_w and
im m
_this .<br
et he
am or
_R achel
_O b
are t
_bl ah
_Ch ild
_' P
_In c
ree k
_Br anagh
_sound ed
_care er.
_dep iction
_sing er
_Be ck
_amaz ed
_cor p
_prom ising
_/>D on't
_var iety
_Me an
_previous ly
_design ed
_satisf ying
_Mr s.
_(2 00
_wel come
IGH T
in 't
_w itty
_f u
ar .
_/> (
_n ative
_n etwork
ent ed
_B ack
_me re
_N ancy
ig r
_scen ario
oy d
_dis ag
_Y es
_gu y.
ster y
_worth while
_entertain ment.
_vers ion.
_home .
_word s,
_sn ow
_techn ology
_move ment
_uncom fort
_Lew is
f ess
_t ong
en ced
es pite
_d on
_/> 4
_se ve
_ch ief
one .
_E ach
_ro les,
_thing s,
_belie ved
_tra pped
_father 's
_comm itted
_excellent .
_mess .
_loc ations
_pass ing
_mis cast
_Mc D
_tou ched
_(19 8
_introdu ction
_jour nal
_veter an
_MOV IE
b uster
m ond
_t ens
_w reck
_b ird
es .<br
an i
ar g
_he ight
_st unn
_A ward
ro l
_H A
_pl aced
_le ar
_1 .
_1 7
_en h
_great er
_could 've
_pre view
_gu ar
_Ch a
ather ine
_inc or
_cou rage
ib ilities
_excellent ,
_At l
_ir re
_effort s
_techn iqu
_Ind e
_Pres ident
_Sund ay
_h ip
_d ent
_is ol
_g as
_re ward
_he 'd
_ha unted
_" V
_ch uck
_L ost
_L incoln
_J ay
_E nter
_over ,
ian ,
_after noon
_They 're
_Fr iday
_star red
_Ar n
_Mc G
_vill age
_novel ,
_famil ies
_fore st
_Q ueen
_gore ,
_desper ately
_Phil ip
_div or
_Tex as
B O
` s
i pped
_w rest
on est
_n ude
ie u
et 's
_M in
_k ung
_v ir
_v ivid
_L OV
_R oc
_fe et
way s,
ful .
_bl own
_ser ve
_hor rif
_tra ining
_help ing
_mon sters
_Mar g
_rep et
_serious ly.
rodu ction
_deli ber
_pick s
!!!! !!!!
_costum e
_prep ared
_rout ine
_reminisc ent
" ),
g .
u es,
z ,
_c ous
_p aper
_g entle
_C at
_C ole
_H ave
_J am
_she riff
_girl .
-l in
_mother ,
_mag ical
_list ening
_Ge or
_Am az
_grap h
iven ess
_teenag ers
_intern ational
_Mexic an
_aband oned
wy ck
he st
_S O
_M ic
_( O
_C ooper
_sh ape
_D a
_D ep
_v ast
_P a
_R a
ard en
ound s
ick ,
_am us
_thr ows
_pr ime
_laugh .
_car ries
-c alled
_war ,
_daughter ,
_fem in
_uni verse
_symp athy
/d irector
_environ ment
_soph istic
-dim ensional
K E
g ie
z il
_s ke
_b oot
_p ity
_T ake
_u s.
_movie ...
_( it
_D r
_other s,
_people 's
_cr ash
_sub sequ
app ing
_exper iences
_pain ting
_ess ential
_symp ath
_hom osexual
_Park er
_stol en
E L
_ ice
h rist
s ?
_s plend
ing s.
_d irty
_g am
_it ...
ro ph
_( l
ac le
_real .
_ent er
be c
_happ iness
_fact or
_An na
_car ried
_ass ign
_dri ver
_stre ets
_Ph ill
_$ 1
_stat us
_contri ved
c ore
k .
k ind
_a in't
re ,
_c ook
or ig
_in j
_n u
ay ing
se mble
_A L
ra b
_W id
_D ie
_D un
if ies
_so -called
_K night
ass ic
ian c
_V irgin
_St ud
_thought s
_laugh ,
_inst all
_inst ance,
_10 /10
_trans form
_rent ing
_US A
_aut om
OO D
_arri ves
_jo in
_flashback s
_mir ror
_sin ister
uther land
b a
m ,
n an
r s
_b ow
_d ub
_d ump
ed "
al ph
oo oo
_S ometimes
_( including
_at tend
_su ffe
_out d
_out .<br
_r ub
_ar r
_U s
_U nder
_Al t
_sec urity
_sty lish
_conc ert
_face .
_cor por
_psych iat
_chang ing
_uni vers
_ca uses
_bel oved
_suck ed
_spoil ers
_pure ly
_ign ore
_concern ed
_fest ival
v est
_t orn
_I re
_st orm
ch y
_for ,
_S ir
_C aine
_act ress,
_v irgin
um ber
_over act
_ad op
_every day
_Ch annel
_enjoy ing
_another .
_kid s,
_TV ,
_ext ras
_port ra
_"B l
_crit ical
_(19 7
_El izabeth
_Mat th
_stereotyp ical
_refe rence
_Gord on
- j
n s
_g ift
_B ac
_M AN
_D al
_v ia
_P erson
_show c
te nding
ass ion
_say .
_another ,
ib al
_happen ed.
_women ,
_children .
_matter s
_fig ures
iel berg
_ment ally
_cry ing
/ 1
_c y
_p ool
_T ru
_that .<br
_wh y.
_S on
el .
ag al
_L em
ud es
_V amp
_hor rific
we et
ia 's
_/>S o,
_half way
sp ired
_wife .
_slow ,
_children 's
_brother ,
_mag az
_predict able,
_visual s
_law yer
_jump s
_clos ing
_Sw ed
_mild ly
_Ry an
_Wil son
_Columb o
- B
I t
e nd
e ase
k er
l ing,
re 's
er ior
_b esides
or 's
_d ign
_l ust
_film ?
if i
_G ray
ell a
_way .<br
_thr owing
_gr im
be at
_kid s.
_co -st
_creat ures
_production ,
_lim it
_imm ense
_carry ing
_chall enge
_disgust ing
_neighbor hood
h and
l ong
_t iny
or able
as s.
_l aid
_that ?
_film !
_u s,
_S ulliv
_movie :
_we ars
_C us
_j ung
_com ical
_v i
_de pend
ple as
_dis gu
_pr ice
_res ist
_ra ised
_fact s
_rel ax
_co inc
anc ing
_attempt ing
_gener ation
_ind ie
_dark ,
_past ,
-h and
_atmosp her
_effective ly
_revol ves
_stereotyp es
_/>Al though
_bod ies
_Sid ney
_princi p
_extraord inary
_concent r
_accomp an
z el
is and
_p ed
_fr anch
_one -lin
_no ,
_qu ir
_over come
_dis like
_V al
_perfor med
_here .<br
ath olic
_cr ude
_che er
_hand le
_Re ally
_gra ve
_7 0s
_conv ict
_throughout .
_cult ural
_ill ustr
_explo it
_regard ing
_execut ed
_Stan wyck
lyn n
_weap on
_establ ished
U S
e z
f ace
he w
ce llent
_an al
_we ight
_W es
el a
_pl astic
us ive
_wor ry
_F ar
um ,
_N Y
_can ce
_fe ed
_off ensive
_' W
_hor rend
_ra ise
_entertain ing,
ret ty
_fan s.
_De an
_father .
_true .
iam ond
_psych o
_horrible .
_"W hat
_dull ,
_imagin ative
_repl aced
_ted ious
_philos oph
b od
_t rap
_t ense
er ved
_f ulf
_p hen
_sh out
_L ore
_L arry
_R and
_R aj
um .
_N el
_lo yal
_Ch an
_while ,
_Fr ance
_exam ples
_cred ible
_cred ibility
_/>There 's
_filmm ak
_twist ed
_personal ities
_exec ution
opp y
_continu ity
_Okay ,
3 )
l ance
_s ide,
_h ar
_p age
_p uzz
_/> the
_e th
st one
_S utherland
am a
_M a
_H al
_D rag
_de ce
_L I
_R en
_F BI
_J u
os es
_ar rog
... "
_part n
ber l
_inc o
_woman .
-m in
_"W h
_score ,
ON E
set t
_embarrass ed
_hol iday
_bre aking
_Cha pl
- not
/ s
1 ,
3 ,
_t empt
it ious
_h unt
_h ipp
ad get
_S av
_S imp
_B all
ur a
_H y
_sh ark
_Th ree
pl ace
_life .<br
be it
_call ing
_Ar m
_8 0
_sort s
_later .
_dri ves
_ir on
_inn ov
_bro ke
_wee ks
_Zomb ie
_glimp se
_suffe red
- G
- hearted
i )
i pping
u gh
_m as
an e,
_p ap
_d ut
_was ting
_se vent
_B L
_R ep
_N ed
_en semble
_K urt
_fun ction
_gu ilt
_tra um
_our selves
_head .
_Sp ring
_sk et
_heart .
_school .
_game .
_among st
_appreci ated
_soc iet
_Mat rix
_Jul ie
_determ ined
_eld er
f all
ar ter
_as h
_B u
_B rend
_ch oo
_D ennis
_al right
_ag re
_inv is
_less er
-c on
_Sp ielberg
0's ,
_sw ear
com ing
-p ro
_Is ra
_Mus ic
_Les lie
_Jew ish
_Cam er
2 )
L D
h old
l er,
w l
w orth
it or
st on
id ,
ri al
_M ovies
_W ow
_W arner
_R ick
_R alph
_G reg
_po et
_direct ion.
_' 7
_year ,
_lot .
_ra w
_tri umph
_cons pir
_add ing
-c om
_Bl air
_bor der
_school ,
_ann oun
_Car pent
_dead ly
_adm ir
-g o
_Jul ia
_neigh b
_spec ific
_anyth ing,
_Ol iv
_controvers ial
_MST 3
_Wid mark
_Matth au
" ).
S ,
_ **
p art
or der
_th umb
_h ors
_D E
_ex er
_L and
_out s
_G host
_en orm
iv ity
_Al ice
_comed ian
_now ad
_car ic
ph an
_De finitely
_Cl aire
_amaz ingly
_except ional
_par all
_med ical
_spirit ual
_relig ion
_ast on
_pra ise
d rop
l an
er y,
_m es
_to w
_l ie
_C .
_D aw
if fe
_j erk
_P L
_L ion
_R eturn
_N ol
_K are
_sp ook
_att raction
_acc ents
_cons ists
_el abor
uck y
_low -
_Un like
_classic s
_success fully
_occ up
_Char act
_dev il
_season s
_Stre isand
_teenag er
_succeed s
_WW II
_REA LLY
_obl ig
_unb ear
_descript ion
_lear ning
5 .
k et
l ot
y a
_d om
_g ather
_n ut
oo ge
_S omething
ul k
_L iving
ast e
og ical
_end .<br
_work s.
_Ch urch
_V eg
_In tern
_again .<br
_rel ated
_horror ,
_expl od
_history ,
-g ood
_step s
_Sand ler
_camer a.
_destroy ed
_ris k
_lock ed
_propag anda
- de
_h ur
_p ian
as s,
_on es.
_u lt
_B ollywood
_( an
_H ome
ag n
_v s.
_R ee
_F le
ation .<br
_me chan
_O ur
_my st
_cl ips
_ser ved
_St ates
_res ort
_view s
oc r
_sub plot
_cons um
_let ter
_fall en
_star s,
_close -up
_ref uses
_written ,
_town .
_attack ed
_sleep ing
_answ ers
_non- ex
_Kill er
_separ ate
_thous and
_frequ ently
_unfor get
- over
I M
b it
i ens
k ick
_t ied
_a ired
_o il
_f irm
_c ock
_h ous
_g ut
_M A
_W OR
_D ere
est .
op ath
_F lynn
qu is
_go .
ment ioned
_' T
oc al
_Sh ar
_men ,
_sty l
_Some one
_dialogue .
_prom ise
_level .
_myself ,
_amb ig
_/>Any way,
_Vinc ent
_Cindere lla
g ress
r il
y pe
it che
le ar
il y,
ly )
_A ud
_B AD
_M ann
ill ,
_ch a
_P ort
s. "
_G riff
_en em
_im it
av id
_' f
_something ,
_fin an
_different .
_war .
_ele g
_Re ed
_Ar my
_annoy ing.
_predict able.
_Why ?
_dev ice
_strugg les
_Stan ley
- re
U L
m itted
o )
or s,
on ne
ut ch
_be ach
ent ric
se ud
_st iff
_an ger
_B ook
_B oll
_B ros
_C ow
el ve
_L um
_F ay
_even ing
_per pet
_way s,
_' m
_fl ight
_te ens
_He aven
_back drop
_pr oof
_sm ooth
_shot .
_Fr iend
_let ting
_fan s,
_super fic
amp ion
_ang les
_theat ers
_camp y
_conne cted
_phys ically
_af ford
_rip -off
_serv ice
_ade qu
_Arn old
- he
l oyd
r ue
u per
_s ides
re ll
_w anna
ing u
_to ile
_n ational
ad a
_B uck
_P ower
_G oth
_E nd
pris e
cept ion
_Sc ar
_picture ,
_past .
_"I n
_"M y
_sol ve
_violence .
_Pe ck
_Gl over
_Pro bably
_subst ance
_surround ing
_fright ening
_disappe ar
_convers ation
_broad cast
_Brother s
_hundred s
_Sus an
_Fre eman
_struct ure
-wr itten
_cyn ical
_wid ow
_reput ation
_tong ue
_ult ra
1 /2
O D
r an
y e
_a fore
or ation
im ag
ch .
_A z
_u pper
_se nds
_M id
_not able
_( one
_L isa
_r hy
um ble
_un re
_K en
_play ,
_pre ach
_fl u
_through ,
_under ground
_point ed
_happen .
atch ing
ok es
_ey es,
_death s
_style .
_dr own
_husband ,
_sequel s
_6 0
ograph ic
_future .
_Che ck
_offic ial
_: )
_Over all
_garb age.
_Jess ica
_pregn ant
" ?
- sp
H ING
l on
n ed
_t ax
_s aves
_w ins
_m ont
_b ik
ing ing
en i
_S POILERS
ur g
_C el
_" Y
_H ank
_L am
_Th ings
_char ge
_E N
_K rist
_great ly
ere my
_interest .
_Mar ia
_sw itch
-s er
_inf amous
_case .
_polit ics
_alone .
_lar ger
_narr ation
_El vis
_eng ag
_met aph
_concern s
_search ing
_Sci -F
_believ able.
_lone ly
full y,
_phen omen
_inco herent
? ),
T A
r thur
_a unt
_a wards
er .<br
_h ole
_in fect
il ton
_T em
_on .<br
_B ette
_M om
_H est
_W ere
_act .
_F el
_un h
ud ge
_play .
_sp read
_min imal
_2 4
_ri pped
_new sp
_far m
_expl ore
_entertain ed
_poor ,
_fan .
_perfect .
_Re g
_top ic
_open ed
_women .
_deal t
_ir onic
_stop s
_/>H e
_equ al
_cart oons
_check ing
_German y
_doll ars
con om
-cl ass
_rul es
_East wood
_wealth y
_inex plic
_Miche lle
itiz en
_abr upt
_Hoff man
_Ob vious
_Cus ack
r d
on n
_p seud
_S uch
_" n
_H ot
_H ud
_sh ines
_sc he
au de
_me at
ig er
_see king
_1 st
ary .
_te nder
_Al ong
_dec l
_friend ly
gg ing
_care er,
_rest aur
_Re yn
_dra gged
_light s
_200 6
_suspense ful
_bored om
_Sch ool
_obsess ion
_Pol ice
_fort un
_ing red
_Naz i
_interpret ation
_whatsoever .
_circumst ances
_Roc hester
_MST3 K
re p
_w ishes
_c ere
_th read
_I mp
_T .
oo by
ce nd
_B ach
ur istic
_al t
_P oint
_r ushed
_J ac
ound ing
_K irk
_Ch uck
_then .
_gr itty
_inc ons
-- but
iss ion
_ter rit
_person ,
ative ,
umb ling
_mind s
_Cl ub
ier ce
_face ,
_quality .
_funn ier
_honest ,
EA D
_Gra ce
_lin es.
_jud g
_edit ing,
_ur ban
_spl it
_bur st
_Karl off
_advant age
_splend id
_ash amed
h i
h oe
_t ag
_t able
_to ss
_l ur
_l azy
_I ra
_is .<br
_e ager
id el
_A T
_B .
_v ent
ne w
_sp y
_happ ily
the less,
_res our
_main tain
_bas ement
_woman 's
_John son
ER E
_mind less
_De v
_imag ery
_moment ,
_amaz ing.
_title ,
_cent ur
uc lear
_level s
_weak ness
_opin ion.
_phot ographer
_suspense ,
_II I
_anymore .
_budd y
_thous ands
_trib ute
_natur ally
_Univers al
_fab ulous
ianc é
5 ,
9 .
l est
at isf
_th ick
_to y
_d ang
_n ail
ri g
_B ol
_( th
_D ad
if ying
_L ake
_L loyd
red ict
_K ath
_qu een
ple te
_ro ot
ry .
_' L
land ,
_count less
_stories ,
_horrible ,
_sle azy
_Ne ed
_material .
_mil es
_stri p
bb ed
_escap es
_init ially
_drink ing
_charism atic
_unconvinc ing
_tremend ous
_disag ree
B LE
i ber
r ich
_f ired
_g reed
il ed
_be ating
_D in
_pl ac
_J ake
_sp oken
_' F
_att ached
_old .
_cast le
_child .
_dialog ,
_else where
_ele v
_det ract
_develop s
_Se agal
_Gu y
_Tra cy
_mer c
_Ber g
_terrif ying
_goof y
_arg ument
_portra it
-min ute
f ire
g ia
_f ra
it ude
_th irty
_d ude
le an
id a
_se a
_M U
_we bs
_( h
_H .
_su s
_ex ch
_L og
_R oll
_F ire
_J er
ind ed
_what ?
_K ap
_show s.
ade :
_po ster
_i 've
_kill ers
the w
_che ese
_sex ually
_art ists
_sure ,
_rest ra
_pres ident
_brill iance
_shoot s
_200 0
_four th
_usual ,
_Con n
_red empt
_advent ures
_satisf y
.A .
_Pac ino
_uninterest ing
_increas ingly
_breatht aking
_Reyn old
? ).
C .
k ins
m ates
_s ings
_w ave
er al
as es
_e conom
_n ation
il s
_A ir
ra ce
_( t
_D i
_P G
_F alk
_r amp
_E mma
_no se
_ro lling
_' I
cc entric
_gr asp
_set s,
_Br id
_person .
_art ific
_surpris es
_Bl ue
_disappoint ment.
_At t
-b l
_conc lud
_themselves ,
_forget table
-st yle
_hop ed
_unfortun ately,
_belong s
_Mi ike
_inspir ation
acc ur
_marvel ous
_da ily
_ly ric
c ent
o ving
_s an
_p ush
_l ying
_e tern
_st ood
id es,
_but t
_M ass
_C ry
_C ox
_W ould
_j ack
ak ing,
_al ike
_R un
_like .
_G al
ard .
_story line,
man n
... .<br
ious ly,
_' G
_spe nding
_own ,
_child ,
_ide a.
_classic ,
_either ,
_thrill er.
_annoy ed
_El vir
_met al
_Night mare
_hy pe
_idi otic
_repres ents
_interview s
_surround ed
_Sad ly,
_Bab y
_vul ner
_associ ated
_Bak sh
_Gener al
_Lugos i
_Dere k
T V
i pe
r ict
s ome
_c ave
_h iding
_be ast
ch ar
_B -movie
ra w
_not orious
_C re
_H arr
_H ug
us hes
_L os
_R ub
_r uth
_G ive
_go ,
_well -d
_ag ed
_real ity,
ty .
_' R
_Wh atever
_view er.
_belie ving
_sub urb
_right ?
_co vers
_car ing
_episod es,
_Sp ir
_attempt ed
_once ,
_wonderful .
_thrill er,
_adapt ed
_ru le
_bull et
_melodram atic
-A merican
_troub led
_subtit les
/ c
T ER
h h
h att
i ently
_t ree
_w ann
_b es
br a
br ick
_g ame,
_he s
's ,
et y
_y eah,
_A cc
ir a
_C ould
_sh irt
un ction
ist ically
_F u
ind a
_un e
_un pleas
_say s,
ang ing
we ight
_gr ows
_screen ing
_Sp ike
_home less
_sad ,
_talent .
_/>F rom
_Brit ain
_tre asure
_suggest s
_(J ohn
_Gold en
_requ ire
_vamp ires
_Hol mes
_Austr al
_wond ered
_bal ance
_sem i
_Ast aire
_jeal ous
_quir ky
1 .
B S
d ie
u x
_w ake
_f iancé
_p in
_g al
id ents
_S aw
am s
_( of
_" real
_have .
_pl ant
ist ed
_they 'd
_F ather
_G abr
_qu ote
_real ise
_dec ades
_enjoy able.
_bas is
_expl icit
_gl ob
_ey es.
_Cl int
_mon st
_form at
_budget .
ific ation
_self -c
_town ,
_non ethe
_pleas antly
_accept ed
_nud ity,
_compet ition
_Sec ret
_Mus lim
_(ex cept
_cust om
_Isra el
_superfic ial
7 .
_s am
_w is
_m udd
it chen
on ald
_p ig
_p ubl
_p ushed
_in accur
_I ce
ic op
le e
ad er
_A ge
_M et
_M other
_( un
_C ann
_C onsider
_H op
_W ind
_all owing
_F OR
_F amily
_con ven
_Th ink
_there .<br
ab out
_K at
_real ,
_bl ank
_ent ers
sh ay
_young ,
_hand ful
_ext ent
_Re al
_ret arded
-w ar
_serious ly,
_dri vel
_guess ing
_col ors
_chance .
_sequel .
_dest ruction
_suck s
_obs erv
_masterpiece .
_ess ence
_curi os
_weap ons
_sentiment al
_Hel en
_Bett ie
_uncomfort able
_Atl ant
itche ll
_Sci-F i
E .
f its
l aw
m it
m ate
u ,
_t ons
er ning
on se
_d ust
_d are
_I d
_g re
_n uclear
_A lf
_S U
_sc ares
ag l
us ion
_G RE
ory .
_good .<br
av or
az e
_She p
_horror .
_super hero
_war ri
.... ..
_exp ensive
_everyone .
_rid ing
oil ers
_opp osed
_"I 'm
_mist aken
_Mor ris
_anyway ,
_mill ions
_repe at
_Here ,
_ident ify
_rob ber
_Afric a
_Luc as
_rac ist
_chas ing
_accompl ish
_cow boy
_ludic rous
_intens ity
_repet itive
_exer cise
_t une
_b ust
_b old
_A BC
am ,
_M itch
_C ag
_C ook
_C ont
_H as
_W ater
_pl ague
_con ve
ort ed
_E ver
_ag es
_min im
ably ,
_Al most
_enjoy ment
_dif f
_screen writer
_right s
icul arly
_10 ,
_/>W ell,
_talk ed
_Sc r
_conv ol
_matter .
lt on
_attention .
_requ ires
_Sci ence
_melodram a
_accompl ished
_Sil ver
_incomp et
_tor ment
_Fest ival
_trilog y
_Kore an
_psychiat rist
_invis ible
E LL
g un
h ill
v ia
he s,
_w icked
_c arn
_c ared
_h ung
_e ccentric
_T ob
ch ool
_" re
ers .<br
_j ew
_al b
ol a
_P ick
_P oor
_R ing
_R uth
_F arre
_does ,
_kill er,
_director ial
_rel uct
_far ,
_Sh aw
_shot s,
_So on
_/>B e
_/>B y
_tit les
_hope fully
_stru ck
_phot ographed
_sister s
_respect ive
_Ne xt
_20 th
_stri king
spect or
_achie ved
_rap id
_repl ace
_Hard y
_assist ant
_sne ak
_Californ ia
_afore mentioned
/ p
n ch
u f
_p aced
_d ire
_n ur
_M ild
ter .
ter day
_C IA
_C atholic
_W itch
_ch ain
_R ight
_tim eless
ud os
_en emy
_really .
_K az
ond a
ac re
_real -life
ty pe
_And re
_dec ad
_thought ,
_must -se
_ide a,
ov iet
ret t
_problem .
_problem s,
_bor row
_beautiful .
_"S h
_appear ing
_blood ,
_bra nd
_win ner
AN T
_Pl ay
_strange ly
_televis ion.
_Do ctor
_forg ive
_stri ke
_react ions
_Ir an
_sac rific
_assass in
_poign ant
_subsequ ent
hoe ven
' A
- W
2 ,
9 ,
in ent
_s ail
_s af
_w ra
_f ish
_d ict
_g ar
le y,
_n ice,
_T en
_re levant
_st ates
ch ant
_B art
_M ade
_( n
_C atherine
_ch ap
_ch illing
_sc ary,
_do gs
ol esc
_v icious
_R es
_go al
_1 /2
ell ar
_kn ife
ob ert
_ent ry
_em br
_str ing
_far ce
_abs orb
_det ect
_Un cle
_Rob b
_Hollywood .
_video .
_trans fer
_mor ality
_pull ing
_Ne il
_First ,
_release .
_ign ored
_attract ed
_kick s
_crimin als
_Alex and
_defe nd
_Apparent ly
_strict ly
4 ,
B ut
j ection
u z
_m aid
es '
or ic
_to ol
_d ud
as ion
_g ee
im ents
_M as
_M ort
_M ach
_M arsh
_( V
ul ate
_v enge
_F isher
_G un
_N ic
ack ed
_wat ches
ab lish
_pre tend
_pre cise
_ap olog
_dec is
_care fully
_entertain ment,
-m ade
_recommend ed.
iness ,
_moment .
_releas e,
_ir ony
uri ous
_Gold berg
_ble ak
_unin spired
_Fin ally,
_remain ing
_ing en
_Ver hoeven
_frank ly
_fif teen
_NE VER
_vir us
_Nel son
_Fel ix
! .
1 )
n ic
u ing
v an
_s ag
re r
_w rap
_o ught
on ly
_h ire
ed s
_in her
_g amb
_e erie
_film )
_( this
_C ost
_" U
_sh all
em ents
_do ct
_ex hib
_ab ys
_R ather
_R iver
_F all
_int r
_her .<br
um e
_N atal
_no ble
pl o
_way s.
_too .<br
_perfor ming
we red
_here 's
_che st
ib l
_cons erv
_job s
_came os
_once .
_lack ed
_defin ite
_dra gs
_ass ault
_thrill ing
_pat ri
_bus y
_techn ique
_yourself .
_murd er,
_grand mother
_draw s
_Cra ven
_card board
_summ ary
_choic es
_mans ion
_everyth ing.
_inhab it
_obnox ious
_graph ics
_unforget table
s ",
y c
_w ard
_f itting
_f aced
_m ort
_c up
_h ood
_h itting
_g imm
_st ead
_film ;
ro ck
_all e
_L ater
_F ul
_out come
_J osh
_E vent
ell y
_cl own
ert o
_part s,
_part s.
_made -for
iz ard
_two .
_hor rid
_sl im
_tri al
_rel ent
app ropri
_kid ,
_reason ably
_hel icop
_inst ance
_Sc ooby
_men .
_8 /10
ities .
_5 .
ony m
_brilliant ,
_daughter s
_sequence ,
_obs er
_195 0s
_meaning ful
_compet ent
_dro pped
_sill y,
_Lau rel
_redu ced
_Dor othy
_Tit anic
_atro cious
_dynam ic
5 0
8 .
H e
t le
_f rag
at ched
_c ri
_A le
_A bs
_S N
_M upp
_( g
_D ri
ag g
_L ow
ory ,
_un sett
_E X
_E st
_/>I 've
_kill er.
_lot ,
-- -
-f ilm
_hour s.
_eas ier
_"S c
_coll abor
_adm itted
_list ed
_jok es,
_prem ie
_flaw ed
_spoil er
_ble nd
_continu ed
_occur red
_Ag ain,
_Den zel
_steal ing
_Du ke
_craft ed
_bath room
_storyt elling
rehens ible
_landsc ape
_ ;
_ ..
b ird
c orn
c row
l ed,
o z
r ink
y )
_f ox
or s.
_p a
_d irt
_is :
ot al
_it )
ie ve
_re li
_re bel
_re ached
_S ing
_S ab
_M itchell
ra nd
_( i.
_H ind
_D ix
_who ever
ol ves
_R ic
_R ome
_J eremy
_whe el
_N orm
_tr oop
itt y,
_ag e,
_movies .<br
_ra in
_che w
_guy s,
_sk y
_mess ages
_tru e,
_line .
_dead .
oub ted
_matter ,
_sat ir
_pick ing
_effort .
_(19 6
af ia
_reveal ing
_society .
_Act ing
_arri ve
_seg ments
_Brook s
_elect ric
_Leon ard
_/>Un fortun
_Plan et
_Curt is
- R
. com
_w ack
at es.
_th rew
on i
_l ake
_T ur
_S oviet
_B A
_" in
_W oman
_at .
_ex ists
_P o
_L ane
_F our
qu el
_G il
ort ing
_see ing.
_real ity.
_part ly
_Y eah,
_br idge
_i .
_ri ve
_Americ a.
_car ,
_rom ance,
_talent ,
_Se ason
_strong er
_brilliant .
_prov iding
_stories .
_/>D espite
_ill eg
_tre nd
_rating s
_scary .
_express ions
uk h
_pack ed
_aim ed
_wond ers
_gri pping
_birth day
_stret ch
_sed u
_unintention ally
. '
g irl
m o
w ell,
_a id
_f oul
or ia
_d re
_I ng
_n erv
ent in
's .
ion s.
_st air
_film :
_li p
_( to
_H unter
_D .
_P retty
est ic
_R ow
_N ational
_un even
res pect
_lo vable
_up d
_bad .<br
_ar ms
_bl ast
_He art
_better .<br
_U ltim
_2 ,
_hum ili
ating ly
_same .
_sub -
_Sh ah
_perfect ,
_heart ,
_close ly
_Mc L
_/>F in
_"B e
_level ,
_ridicul ously
_God ,
_6 0's
_cool ,
_plan ning
_age .
_Pr incess
_attack s
_/>E very
_resp ond
_resp onse
_innoc ence
_tort ured
_display s
_Luc y
_protagon ists
_dubb ing
_unw atch
_depart ment
_tick et
_ju ven
_cab in
bec ause
_Griff ith
8 ,
n es
u ke
u es.
in ch
re e,
_I ron
_n ause
_S ally
ur ai
_not ed
_( most
_C her
_H ick
_sh ad
_F ortun
_tr ite
_lo ad
_show 's
_direct ing,
_after ward
ru cted
_enjoy s
ram a
_acc used
_ins ert
ons cious
_aud ien
_inst antly
_3 .
ec ess
_anyone .
_Bl ake
_head ,
_dist ant
_stupid ity
_conc erning
_favor ites
_sad istic
vis ion
olog ist
_Man ,
_manag er
_unf air
_clim b
_Tim othy
_cas es
_setting s
_Cor b
_warn ed
_proper ly
_confus ion
_resemb les
_Ku brick
_cous in
_aston ishing
- ey
_ =
b urn
o ight
y r
z o
_a ck
_f ing
_c roc
_e g
ut es
_be friend
_as p
_S ummer
_B esides
_we b
ra ight
_( no
_C andy
_ex tended
_ne p
_show er
_show s,
_cl iff
_/>The y
aw are
_Ch ic
_' d
ru ci
ale ,
sh ine
_got ta
_original ity
_laugh able.
_child ish
_short .
_creat ors
_use less
_My stery
_4 5
_name .
_trans port
_appear ances
unk y
_stuff ,
_techn ically
_pleas ed
_dev ast
_scient ists
_color ful
_miser ably
== ==
_sophistic ated
_elder ly
ket ball
_toile t
_Mild red
_ack now
i er,
_m al
at or,
on a
_p itch
_l oo
_I an
_n ine
se mb
_st aff
_B udd
_M un
_C ertain
ul oid
_D oc
em ark
_k itchen
_pl at
_R oth
_ne arb
_G en
_man iac
_fe ars
ap es
_over rated
ne y.
_because ,
_dis ease
_2 nd
_imp erson
_start .
_world 's
_acc laim
_bu ried
_help .
ition ,
_happen ,
_Re vol
-l aw
_vide o,
-d own
_hero ,
_Man hatt
_mother .
_pop corn
_par od
_musical s
_hilar ious,
_fut uristic
_writer /director
_bar g
_jump ing
_Ex cellent
opp er
_neg lect
_hom age
_fat al
_pun ish
_High ly
_frustr ated
_sett le
_ver b
_cann ibal
_atmospher ic
_gimm ick
' .<br
5 )
7 ,
O ST
t te
_b og
_b ott
it ar
_h un
_p sy
_st ress
_C old
_H unt
_H anks
_D own
_D ave
_have ,
_j aw
_ab ilities
_R itter
_cl iche
_2 1
_girl s,
_Sc ot
_count ries
_sad d
_develop ment,
_9 0's
_self ish
ley 's
_import ance
_win n
_mot or
AN D
_dev oted
_return ing
_sister ,
_atmosphere ,
_conclus ion,
_mer it
_lab or
_Mexic o
_encounter s
_Pict ure
_mes mer
_(i. e.
b ust
c r
i as
j oint
s ).
u ate
v ing.
he im
_c ig
ic ient
_e ch
al o
il a
_this :
_A W
_se lect
_B ush
_al iens
_G arb
au x
_le gs
_K ar
_think .
_Y et,
_enjoy .
li k
_rel ies
_laugh s.
_reason s.
_co herent
ah l
_poss ibility
_star .
_men acing
gr ade
_Le gend
_mis under
_camera -work
_Dav ies
_throughout ,
_daughter .
_hon or
_uni qu
ON G
_ang el
_stick s
bb ing
_Mat thew
_Jul iet
_imm igr
_joke .
_scient ific
_rece ive
_terror ist
_camer a,
_drunk en
_Franc isco
_hosp it
_grad ually
_kidn apped
_Te chn
_Ev a
_Whe ther
_́ s
_Laur a
_LOV E
_Jam ie
_Sulliv an
_Kare n
_Goth ic
_Ful ci
i ation
_t ires
_f o
_b os
_n ame,
_st ated
_movie )
_M ed
_sh y
_act ress.
el ing
_al ways,
_P y
_P ie
_they 'll
_F ore
_r ural
_G w
_G reek
_tim ing
_K ane
_look .
... )
_pre cious
_off ering
_films .<br
_kill ed,
_pr ay
_cr ook
_view ing.
_laugh s,
_Sh ir
_art .
_gl orious
_exc ruci
_invol ved.
_Hollywood ,
vis ed
_7 0
_present ation
_novel .
_novel s
_side kick
-h our
ik o
_typ ically
_son .
_Robert s
_/>N o
AR D
_return ed
**** ****
_York ,
_adv ance
_superb ly
_(s uch
_Lu ci
_Com edy
_clot hing
_Ag ain
-of -
_resemb lance
_inevit able
_Hud son
- one
k ill
v ideo
_t ab
in ning
_o w
_f art
_f ancy
_h unter
_p atter
_g uts
ut ion,
_T odd
_S ell
_B ull
_ch ances
pe l
_all -time
ies "
_al beit
_P am
pt ic
_she l
_K ay
ne ver
_am use
_' N
_fl op
_sl ave
_bit ,
_bit .
_sm oke
_str anger
_expl ored
_co ffe
anc es.
ph ant
_star ,
_production s
_gra b
_dead ,
_ref lection
_dark er
_pred ecess
_cost s.
_psych otic
udd en
_Per ry
_accept able
_theater .
_"f ilm
_Cra ig
_Ham let
_burn ed
_Bob by
_mir ac
_trick s
_/>Over all
_beginn ing.
_impl ausible
_Law rence
_convent ional
_ner d
_unbeliev ably
_log ical
_Wall ace
_Mean while,
_deliber ately
_finan cial
_juven ile
6 ,
e "
i o,
_s and
_m ic
_m ixt
_b ang
it ched
ll o
_l ord
_n uts
_T ry
_mo on
ver ted
_st ro
_an x
_B ell
_M ol
ra vel
_not ably
_" e
_sh ift
ak a
ak y
_F ool
_G rey
_over all,
_pre j
_ad ul
_ad olesc
_character istic
_V oight
_ob v
_Sh a
_inst ant
_inter rupt
_ind ul
_/>D irector
_ridicul ous,
_God father
_"D e
_ang le
_Pl us,
_build s
_country .
_cat ches
_sil ver
gy pt
_profess or
_Gl enn
_Act ually,
rel ated
_/>J ust
_beat en
_intrigu ed
_100 %
_dig ital
_escap ed
_Jes se
_Ap art
_Brook lyn
-T V
_vul gar
_Kenn eth
_syn ops
_Vamp ire
_abys m
6 .
h il
o s,
s ),
_b ump
or c
_h unting
_in appropri
om n
_he y,
_he 'll
im es,
_st one
_A rab
_S op
am eless
_( you
_" com
_H urt
_H ung
ag ine
_P an
_L ily
_F urther
_no d
od er
od ge
_1 /10
... it
ne red
_dis joint
_perfor mer
_U N
ition .
_3 /10
_co ach
_happen s.
anc es,
_less ons
_gl amor
_disappoint ing.
_song s,
-l ine
_7 /10
_room ,
_experience ,
_sequel ,
_Ind ia
_murder ous
_War ren
_dev oid
_Pe gg
_eng ine
_ca using
_slight est
_NOT HING
_realistic .
_(s he
_trad emark
rif ice
_trash .
_brief ly
_amb itious
_affect ed
-of -the
_prim ary
_hyster ical
_Inde ed,
_elabor ate
- E
- H
- day
S S
V .
b reak
f ight
g ren
_t ail
_s arc
it ual
at es,
_h o
_re h
id al
_S oph
_C D
_C our
_H ack
if ting
ag o
_P ot
_F ield
_r anks
_Th anks
_N ov
_N avy
_cl ues
ap s,
_end earing
_ag gress
ep ing
_bl ess
_2 )
_Al ien
_res ur
_comp assion
_reason able
_dialog s
_special .
_tit led
_along .
_Car ter
_mother 's
_dem ands
_col on
_inf erior
_ste am
_simple ,
_Pl us
_alone ,
_period .
_recogn ized
_ghost s
_ur ge
_describ es
_fright en
_Ber lin
_din ner
_Ey re
_cell uloid
_hat red
_fund ament
_/>Also ,
_batt les
_exagger ated
_Wor st
_Ak shay
_fil th
_enorm ous
iffe rent
_Kap oor
_unpleas ant
" ;
I n
K ,
i per
l ay
r um
s k
u ated
v ing,
st in
_be w
_re aches
im ated
_wh im
_se lling
_M ake
_C and
_H BO
ul arly
_su ited
s, "
_P en
_L y
_wor ried
_G adget
_K um
_watch ing,
pl ane
og ue
_ar gue
_po ison
ob ody
_while .
_script s
_Americ a,
_hand ed
_add ress
_surpris e,
_inter action
_anim ation,
_Mar c
_everyone ,
_Hollywood 's
_title .
_lives ,
_stay ing
_material ,
_OK .
_stri kes
_Here 's
_bed room
_occur s
_Rog ers
_current ly
_fort une
_consist ently
_rac ism
_rat ing.
_"g ood
_doz ens
_opt im
_EVER Y
_Cinem a
_involve ment
_sequenc es,
_horrend ous
" <br
4 .
6 )
r ase
t on,
_t ad
_s ales
_w ont
_f ed
_m ouse
_h ates
_to pless
_re bell
_A w
_S ong
_S old
ri p
_B UT
pe cial
_P ur
ind er
_she lf
ab h
ab el
_pre c
_also ,
_characters .<br
_Ch ina
_' 8
_view .
_funny .<br
_care .
ov ich
_/>W hy
_We 're
_poor .
_port ion
_Un less
_fail ing
_annoy ing,
?? ??
_mot ives
_pay s
_jok es.
_(19 3
_Osc ars
!!!! !
che ck
amb o
_truth .
_particular ,
_Stre ep
_remark ably
_Other wise,
_defe at
_influ enced
_discuss ion
_hig hest
_gold en
_compan ion
_charism a
_ded icated
_simpl istic
_jung le
oubted ly
_nearb y
_mixt ure
/ h
0 ,
A rthur
I P
_ {
_m use
_g ro
il arly
_be ats
_st abb
_ha unt
ur ance
_M Y
_H onest
if ted
ol k
_G inger
um in
_Th under
_me as
_N ice
_E xt
_O z
ap ed
_look ,
_po ver
_pre v
_tw in
_work .<br
_' b
iz ed,
_In spector
_two ,
ang el
_where as
_St all
_rec ru
ating :
-- a
_girl 's
_world .<br
_whole ,
_dram as
_half -
_miss es
_amaz ing,
_hero ic
_dark ness
_/>M ost
het t
_evil ,
_cinemat ographer
_produc ing
_foc using
_(19 5
che st
_mark s
_spoil ed
_soundtrack ,
_Ex cept
_est ate
_medi um
_impro ved
_travel s
_uns atisf
_insult ing
_threat ening
_Pol ans
_disappe ared
_perform ers
_hook ed
_Andrew s
_Mi y
_dism iss
_comfort able
_Brand o
_seve re
_techniqu es
_franch ise
_spook y
_Ira q
_artific ial
_Cag ney
_nep hew
' )
) and
a ith
c an
_a we
nd a
or se
on c
an ity
_p ir
_d ys
_e ase
_T erry
se en
_as ide,
_S C
_B aker
ra h
ra ve
_not ion
_H ist
_H ugh
_ch ased
_L ine
_F oster
_It aly
_O w
ab s
_work ers
_characters '
_fl uff
iv alent
_ri f
_kill ed.
_comple t
_friend .
rill er
_inst it
_3 rd
_abs ence
_poss ibilities
_mon ot
_vide os
_prom pt
_voice -over
AT CH
_phot ograph
_"H e
_narr ator
_explain ing
_introdu ces
_situation s.
_draw ing
_contr ad
_spec if
_lif etime
_prim arily
_Ap ril
_forever .
_tem per
_drop s
_chas es
_resol ution
_Lat in
_obsc ure
_sole ly
_appl aud
_outrage ous
_Hest on
_sche me
_i. e.
b ook
b idden
e v
p ed
w right
_t ame
_t ang
at ures
or al
ou red
an ing
le ad
id ers
_A br
_S et
_C all
_" a
_D oll
_act ,
_pl ag
th an
_L uck
_F X
_F ear
_just ify
_O p
pl ots
ick er
_character ization
_' h
_hor rors
_tri o
_inst inct
_course .
_small er
_count ry,
oil er
_fine .
_susp icious
_psych opath
_(I 'm
_suspense .
over n
_odd ly
_flaw less
_Su pp
_storyline .
_Qu ite
_ble w
_pers u
_Ham ilton
_bene fit
_repeated ly
_tur key
_hyp not
_Beat ty
_vac ation
_revel ation
_gig g
_arrest ed
_ut il
_blat ant
_divor ce
_hors es
_newsp aper
_alt ogether
_Consider ing
_convol uted
- type
4 )
R Y
t r
_t ie
_s ize
_w ished
er ic
at o
en es
en stein
on ing
ll ,
_g all
al ed
_re in
ad ,
_he nce
_for ty
_an th
ro y
ra in
_" Z
ul ated
_j azz
_ex otic
_L und
ud e,
_tr ade
_had .
_im plic
ne ck
for ms
_dis li
per fect
ry n
ile ,
_sp ots
_Ch am
_view ,
_fin e,
_comp osed
oss ibly
ret ched
ER S
_del icious
_My r
_4 .
_heart s
_Se pt
_trans ition
_thrill ers
_situ ation.
_writ er,
_season .
_sexual ity
_rock et
_villain ,
_stereot ype
_edit or
str ong
_Jeff rey
_okay ,
_behav i
_burn ing
_contem pl
_ON E
_cand id
_liber al
_thro at
_princip al
_mont age
_ruth less
- O
8 )
H A
U M
c ula
f unction
_w ore
is ation
_f og
_f aster
_m und
it led
it ches
ing ly,
_th ief
_on -screen
ad o
_B ow
_M am
_W AS
_su its
out s
_sc ope
ant ee
_v on
_P leas
_P alt
_G und
_le ague
_lo ads
_were ,
_ar c
_ag ing
iz able
ress ion
_V alent
iv al.
_U we
_You 're
_sex .
son .
_aud io
_last ed
_worth less
_invol ved,
_Cl ar
olute ly
_/>O ther
_pain ted
_ind ic
_Car rey
_disco very
_(19 4
_Ne ither
_er a.
_mid -
_pace ,
_scream s
_rap ed
_Alex ander
_"b ad
_Mur der
_Mill er
_bre ast
_achieve ment
_Never theless,
_Burt on
_Carr ad
_/>Y es,
_Rem ember
_overwhel ming
_magaz ine
_Swed ish
_Intern ational
_restaur ant
_tires ome
b reaking
u art
v a
_t aught
_t ales
he s.
in a,
_s ab
_s ons
_c ens
or "
_p ant
_p ub
le g
_T own
ie "
_he y
_st ir
_as semb
_A ctor
_S .
_su p
_one -dimensional
_com mend
_pl ight
_P ars
_L ad
_R E
_R O
_F ant
_F ish
_r ow
_O ll
_man y,
_pe ak
_qu ot
av al
_thr u
_still ,
the less
_comp ens
_new ly
_guy s.
_hard er
_ins ist
_worst .
_short s
_exp osed
_lack l
_develop ing
_trans p
_evil .
rib ute
_weak est
_polit ically
_parent s,
_pri v
_er a,
_documentary .
_soundtrack .
_Jul ian
-n umb
_hint s
_sac rifice
_REA L
_desp air
_sal v
_hall uc
_overlook ed
_dent ist
_Chapl in
_Camer on
_sus pend
_wann abe
_GRE AT
_nerv ous
_Palt row
7 )
9 )
l am
o j
v ill
_a x
_s its
_w ig
er y.
_d aring
_d azz
om m
_/> i
_st ole
_A ff
_S POILER
_B and
ra ged
_C ivil
_sh ake
_D awn
_j e
ol it
ist "
_F .
_F ive
_E gypt
pl ed
_cl ip
_over t
_bl ows
ob ic
_ri ot
_point s.
_sur pass
_cr imes
_kid .
_aw ake
_cons ci
_art ,
_el imin
ann ah
ott ed
_beh ave
iness .
_wa ited
_pass es
_quality ,
_capt ain
_writ ing.
_consider able
_document aries
_"T his
_box ing
_Con ner
_prop ert
_cas ual
_wind s
_masterpiece ,
_est ablish
_kick ed
_di vers
_lab el
_investig ation
_ord ers
_Franc o
_Nor man
_consequ ences
_emphas is
_Sat an
_cring e
_intent ions
_Phill ip
orig inal
_install ment
_conspir acy
_thumb s
_metaph or
_ingred ients
_SN L
- P
- rated
H E
R .
h ind
_b in
at tered
or a
_d iamond
om s
le ton
_it ;
_y eah
am il
_C ain
_D utch
un ior
_act ed,
_ex ter
ak es,
_v oy
_P enn
_R ead
ast ically
_F R
_out fit
_int im
_O R
_K n
_sp are
_des ired
_hum ble
_screen .<br
_hard core
_She ll
_different ,
_gl oss
_Bl ond
_Bl ock
_times .<br
_exp ed
_song ,
_(the y
_releas ed.
_document ary,
_"C h
_treat s
_swe et,
_/>L ike
_girlfriend ,
_meaning less
_imm ort
_clos est
_suit able
_wall s
_bull ets
_Ant w
_ST AR
_investig ate
_Em ily
_spl atter
_hide ous
_dim ensional
_yes terday
_unp redict
aust roph
_corp se
_guar antee
_Ire land
_vi br
_one-lin ers
_innov ative
_Carpent er
_Cow boy
_webs ite
s ".
he ars
_f rench
it le
_I ,
_T alk
_S ex
_S ister
_we 'll
_( see
pe red
ess ion
_so cc
_L ive
_L OT
_R ad
_F ro
_r um
_int ric
_G am
fe rence
_pro l
_up l
_sp oke
_Ch ase
_Wh oop
_V iv
_cont ained
_pr ic
_sim plic
_ra cial
_view ers.
sh ot
_person a
_lik ing
_/>W ell
aster n
fin ed
_short ly
_head ed
co ver
_mon key
_event s,
_stud ios
ities ,
_5 0's
ument ary
AT E
_inde ed,
_Pl ot
_ill ogical
_sign s
_/>P er
_eng ross
arre l
_Scott ish
_convinc ingly
_grand father
go ing
_hy per
_affect ion
_deliver ing
_gem .
_symbol ism
_bene ath
_corn er
_motiv ation
_unbeliev able.
_valu able
_purch ase
_Through out
_Mic key
_rub ber
_corpor ate
_Dal ton
-hand ed
_philosoph ical
imag in
/ f
c reen
r un
r ank
_f ur
_b anned
or us
_d y
_in ane
_/> '
ad e,
_this !
_st ark
id s
_mov ing,
_an aly
ro bably
_B a
_B us
_B ud
_not e,
ers h
_al ter
op les
_L ots
_R ich
_from .
_N icol
_un st
_she d
_watch .<br
irect ed
_also .
_' p
ever al
_down hill
oc ative
_read s
_diffe rences
ec ond
_problem s.
_someone 's
_low est
_star ing
_dist ance
_mon olog
_Z ero
_sch lock
_house hold
_gener ous
_mention ed,
_"I t's
_const ruction
_God z
_room .
_/>N ow,
_chance ,
_200 1
_cheap ,
_eng aged
_comb at
_insp iring
_business .
_und ert
_costum es,
_suspect s
_offe nd
_En joy
_ON LY
_'t he
_Sk ip
_(f rom
_unintention al
_journal ist
_Marg aret
n ,
é e
_a pt
_w retched
_c ried
_p ris
_g est
_/> 8
_e go
_be er
_he nch
_you .<br
_C ab
_C ary
_" so
_H ood
_D uk
_su ng
_P ear
_F A
_r ang
_G OOD
os ing
_can .
ort ion
_no ise
od ern
_cl austroph
_po em
ob s
_ent r
_sl ick
_gr otes
_interest ,
_che ating
_set .
az ak
_rel atives
ord s
_hel pless
stand ing
_episod es.
_For ce
-f l
_dist ingu
_Cl ose
_Mar io
_mess ed
_7 .
ery l
_par ano
_/>H ere
_Or son
_Ed ie
_Ed gar
_6 0s
_"T h
_equ ip
_adv ise
_eng age
_197 0s
_und oubtedly
_jump ed
_lame .
_amount s
_cond em
_destro ying
_Act ually
_Pro fess
_depict s
_display ed
_unex pl
_leg al
_respons ibility
_offe nded
_stunt s
_frequ ent
_incomp rehensible
_Cast le
_Ell i
_Mod esty
_prostit ute
_isol ated
_anal ys
_fulf ill
_Simp son
_dys function
- aged
/ S
D .
I V
M A
a e
c ed,
g al
l ines
m ail
w oman
re .
_w et
_w ip
_f acing
_b oun
_p unk
as ing
_in du
_in herent
il ted
_it :
_be ars
_T ow
_T od
ie ces
_re ck
_on es,
_A .
_A h
ce ived
_S irk
_S oder
ke ,
ke ys
_movie ;
_B al
_but ton
_D ill
_D irty
ol t
_R h
_R oss
_r itual
_G ore
_no .
od ile
_cl ic
_cl ock
for ward
_dis h
_bl ur
_' 6
_V en
_kill ings
wh ite
_nothing ,
_app alling
_far .
_family 's
_fan atic
_yet .
_ac id
_conf idence
_vis ible
_Sc ream
_Sp ock
_everyone 's
_4 /10
_along side
_/>M aybe
_"A n
_weak ,
_equ ivalent
_dull .
_secret ly
_superb .
OU LD
_fantastic .
_Disney 's
_/>" The
_admit ,
_project s
_195 0's
-in -law
_Ann ie
_compe ll
_compe lled
_mach ines
_execut ive
_squ are
_Bel ush
_jo ined
_individual s
_Mag gie
_highlight s
_convers ations
_earn ed
_Burn s
_nostal gic
writ ers
_incor por
_Drag on
_agre es
_Bros nan
_Gabr iel
_wra pped
- 2
- J
S POILERS
_ [
d en
u 's
u ity
_f inger
_m ish
it es.
at i
_c e
_c ul
_c ake
ou ch
_/> 2
_/> 7
_/> ***
_T op
se ct
_st aged
all o
_se lection
_C y
_C ut
_" what
_W olf
_do omed
_R A
ind s
_show .<br
_time !
ick ing
ple x
_real izing
ep s
_don't .
_' n
_' em
_V is
_te nds
ber gh
!! !<br
_Br ady
_As ide
_come .
_3 5
ane ous
ros pect
_less .
-m inded
_cre ation
_Ar gent
_light ing,
_next .
_guess ed
-s chool
_prom ised
_result ,
_Gr ade:
_Gr inch
ON 'T
_murder .
OR E
_pot entially
_detail ed
_Tr ans
_(A nd
more ,
_record ed
_brut ally
_Cra w
_subst it
_mat ches
_ener g
_**** *
_Bur g
_See ing
_proceed s
_Sy d
_everyth ing,
_vague ly
_captiv ating
_showc ase
_dign ity
_nowad ays
_parall el
_curios ity
_synops is
_pover ty
_Abr ah
_Lund gren
A nd
b e,
t w
_t ank
_a pe
on er
_to oth
_l un
_/> 3
st ar
il ight
ay .
_S outhern
am ount
_B ald
_W orth
_do ?
_pl ausible
_P R
_P ay
_L il
_R at
_R ings
_R ex
one 's
ind ing
_un aware
_E w
_en light
_K l
_ar ist
_pre tending
ob i
_' E
_V all
_U r
_cr ush
_fact ory
_ob st
_Jo h
_big ,
_acc ent.
_Cl aus
_rep uls
_gener ic
_develop ment.
_9 /1
_Pr ice
_tre as
_(S te
_danc er
_memor able.
_claim ed
_travel ing
_well- known
_addition ,
_Wal sh
_exception ally
_Dick ens
_reach ing
_warm th
_wide ly
_Spe cial
_block buster
_reun ion
_flo ating
_Comm un
_atro ci
_Dian e
_presum ably
_societ y,
_Charact ers
_glob al
_/>Fin ally,
_coffe e
- head
a ign
r ot
_s en
_m ile
or p
_d ating
_l it
ut ion.
_be ll
se x
_st ream
_S ub
_M iles
ill iam
_( by
_C row
_H olly
pe ople
_D ig
_v ig
op hy
_Th omp
_N ort
_up .<br
_see ks
_them e,
_work s,
_fl ies
_sl aughter
_sl oppy
_gr ate
_res on
_scenes .<br
_comp aring
_aw fully
_Sh ort
son )
ros aw
_anyone ,
_comment s,
_sty les
_top .
-b oy
_form ul
_wonderful ,
olog y,
_Some how
_capt uring
_mor bid
rodu cer
_ir res
_susp ic
_similar ities
_"H ow
_er rors
_odd s
_secret ary
_comb ine
_Tr ue
_truth ,
_Lee 's
_und eni
_situation s,
_inte nd
_potential .
_Film s
_Bra zil
_fascin ated
OM E
_O' H
_Sand ra
_Str ange
_bre asts
_du o
_Bas ically
_budd ies
_Lind a
_Jud y
_chore ographed
_miser able
_Cass id
_Cent ury
_altern ate
_purch ased
_pupp et
_cris is
_swim ming
_Oliv ier
_Elvir a
_wis dom
_Alf red
_must-se e
_unsett ling
_barg ain
_Gund am
- br
/ act
0 .
N e
a fter
f ast
i er.
o ven
p ut
_w ishing
is k
_m ap
es y
_T imes
_he at
_st ellar
_S qu
_you !
_not ch
_C A
_C ou
_" th
_are as
_D ud
ag es,
_P u
_r amb
_con qu
um sy
_E p
ig an
_man kind
_K ol
te nds
_direct s
_us er
_V ideo
_little .
_rec over
_perfor ms
!! <br
_U nt
_such ,
_che ek
_che ss
oc ol
iss a
_effect .
_aw a
_least .
_class ical
_car .
_sure .
_/>W atch
_rest ored
_surpris e.
-c he
_pol ished
_review .
_vis its
_word ,
_rom p
_form .
_except ion.
_example .
het ic,
ler 's
_town s
_side .
-h ouse
_group s
_const ruct
mp ire
_crap ,
_Ger ard
_ant ics
_phot os
_Me g
_er ror
_tale .
_los er
_introdu ce
_(s ome
ES S
_screenplay ,
_cur se
bor ough
_liter ature
_Qu inn
_disg race
_leg it
_cru cial
_(al so
_author ity
_Jon athan
_Hill s
_cal m
_advert is
_Ell en
_Ku rosaw
_storyt ell
_immense ly
ampion ship
_Scar let
_Obvious ly
_Acc ording
_Manhatt an
stin ov
_Miy azak
- act
e es
o ing
o ad
z .
re he
_b one
it o
at a
_c andy
_p ale
_p ushing
ar 's
_l ame,
_g ear
_wh ite,
ch a
ld om
_ha bit
ri ent
_W ard
em es
_ex quis
ant om
_de af
_L .
_L ang
_F ace
_J une
_G iven
_cl ass.
_under lying
_new ,
_hand .
_imag ined
_use ful
_beh old
_song .
ug ust
_9 /10
-p aced
_pop s
_cent ers
_dem ons
_sn ake
_cinemat ography.
_cool .
_Tom my
_doubt ,
_herself .
_rock s
_clim actic
_tale ,
_(A l
_die ,
_dam age
_flat .
_rece ives
_pow er.
_finish .
ha ust
_intern et
_sett ing,
_nons ens
_dim ension
_purs uit
_chore ography
_ic on
_ge nder
_rot ten
_Da is
_assign ed
_transform ation
_Lore n
_caric ature
_Reynold s
plo itation
" !
G .
_ –
f l
h aps,
l ack
l av
m .
s a
z en
_w arr
_f ren
_re b
_film ).
oo ges
_A bb
_S en
_S ave
_S abr
_B ased
_M ount
_" art
_H at
_H oll
_H uman
_D ow
_D oo
_D ec
_D olph
if ully
_sc ores
_do d
act er
_ab usive
ag an
est ed
_de ar
_F ell
_J ord
_J enny
_or phan
_N in
_pro b
_un imagin
_E ri
_E ug
_up st
_would -be
ite ct
_K yle
_cl umsy
_much .<br
_V on
_rem oved
_St .
_att or
_point s,
_sim ult
_start ,
_comp rom
_rel ations
_script ed
_since .
_comment ed
_men ace
_instead ,
_strong ,
_success .
_Mc K
rodu ced
_move ments
_mad ness
_camp aign
_hilarious ly
_ment ions
_Gra ham
_disturb ed
unn y,
_intri gue
_Fin al
_value .
_camer as
_length y
_represent ed
_WH Y
_Im agine
_Carr ie
_Dar ren
_Dian a
_Beaut iful
_Rec ommend
_choo ses
_pian o
_Tem ple
_unh appy
-ey ed
_Soder bergh
, '
O .
c ed.
c raft
g en
i ers
n e,
_t all
_b aff
_d reck
as er
om ing
le 's
le ck
_re nder
ent h
_S everal
_M ath
_sh ameless
_W ed
_su st
us .
_P ose
_L en
_L or
_L ess
_r ush
_r oof
_J ed
um ents
ind ul
_N atur
_un ravel
_E li
_E arl
ell i
_end ure
_sp ring
_seen .<br
_being s
_U stinov
_There fore
_scene .<br
_pr incess
_dec or
_set -up
vent ure
wh y
_thought ful
_She riff
_Br on
_Sh in
_class es
_vers us
_gl or
_understand .
_exc lus
_exp and
_mem b
amp oon
-d ri
_written .
_dem ean
_myster y,
_pat ience
_fut ure,
AR N
_gore .
_prem ise,
_sign ed
_El m
_adv anced
_"L a
sw orth
_etc. ,
_rese mble
.) <br
_trash y
_brut ality
_def ense
_succeed ed
_bod y.
_pathetic .
_indust rial
_fool ish
_Tar ant
_intention ally
_stret ched
_obl iv
_Anton ion
_excess ive
_ludic r
_Barry more
_mann er.
_Need less
_Austral ia
_nonethe less
_jew el
_conserv ative
_alle ged
_illeg al
_McL agl
_Nov ak
_Sept ember
- le
b ox
m ons
n i
in es,
_the rap
_o m
_o ce
_f ro
_f urn
_m ax
_m aker
_c ity.
_c attle
or row
an gh
_p ad
_l ing
_I .
_he ars
_wh y,
ch ild
_was .<br
_The ater
_M .
_C a
_C art
_" act
_W AY
_D ee
_sc hed
_pl anned
_P ost
_P sych
_P rest
_L ex
_more .<br
_him ?
_show down
ci p
_been .
ear ly
_ag reed
aw ful
ian s,
_fl ag
ress ive
_set ,
_isn't .
_expl oration
_sound ,
_3 000
_happen s,
_ext rem
ann on
_perfect ion
_perfect ly.
_anim ation.
_hour s,
_gra bs
_sad .
_cut e,
_Char lot
_situ ation,
_fa br
_season ,
_subject s
_straight forward
_appreci ation
_creep y,
_atmosphere .
_surv ived
_chees y,
_Joe y
_law y
_(A n
_tast eless
_clever ly
_Ser iously,
_Still er
_Ey es
_Win ters
_explos ion
_Cass ave
_popul ation
_Dra ke
---- ----
_alcohol ic
_ton ight
_wand ering
_horrif ying
_accompan ied
_eth nic
_Shir ley
_disli ked
_mund ane
_Craw ford
_Charlot te
( ..
- )
- es
9 9
e ur
i ed.
o s.
_s ame,
_s outhern
_w ing
_w ives
_f ighter
_m all
_m elt
en ch
ll en
_p ill
_in ability
_l av
_/> 10
ot ,
_it 'll
_T R
ly mp
et a
_A ction
_C ode
_sh ame,
_W el
_ch o
_ex haust
_who lly
_P ut
_or ,
_me asure
_E .
_O t
_get .
able .<br
_en l
_cl oud
ves .
_ar med
ne ath
ass y
_am id
_gu ide
_' O
_' g
_sl ice
_inc est
_/>A ct
_pr ide
rill iant
_laugh ably
ane ously
ten borough
ec il
_dram at
_sk ull
_defin ition
orm al
_house w
_either .<br
_Well s
_cop ies
_sad ness
_hero .
ize k
_bra ins
_Dan es
_hit -man
_phot ography,
_possible ,
_Per fect
_subject ed
_intellig ent,
_"L e
_die .
_flat ,
ma res
_track s
_"m ovie
_wild er
_Mon ster
_depict ing
_soul s
_Walk en
_Du v
_possess ed
_13 th
_arch itect
_Int erest
_mini -ser
_rend ition
_enthusi asm
_Year s
_Nichol son
_Turn er
_ignor ant
_libr ary
_dom estic
_mechan ical
_non-ex ist
_Spir it
_nur se
_decis ions
_made-for -TV
_cri pp
_/>Unfortun ately,
_contrad ict
! ,
- v
/ w
T .
_ ~
_ ....
a '
e er
e or
e orge
f elt
m ber
r ome
v oid
’ s
_w oe
_th ugs
_d ances
_T al
ve ,
_on line
_M ind
_M iddle
_C orn
_C ity,
_C AN
_" he
_W ow,
_W IT
_W omen
_one !
_P ig
_de gr
_F ont
_r am
_G re
_G ret
_can ,
_le ct
_O rigin
_K a
_cl ar
ap ing
_St orm
_rec re
_rec yc
rap h
_gr ief
_19 th
_ob tain
-- I
_cons cious
_/>S econd
_mess age.
_mess age,
_Man "
_mis gu
_(wh at
_Mc A
_Har vey
_blood .
-h ard
che s,
over ,
EN D
_Am anda
_suck s.
_prop s
_surv iving
_background .
_credit s,
_earli er,
_$ 2
_Mac Arthur
_Fred d
_charm ing,
_week .
_mat ched
_sill y.
_Naz is
_teach ing
_SE E
_NY C
_arrog ant
_enem ies
_borrow ed
_inappropri ate
_fundament al
_socc er
- te
e em
s ;
u y
_t ies
in er
_f ought
_b ord
_b read
_c ure
_to m
_d ile
_d arn
_g ym
_g ifted
_be lt
_T ak
id o
am in
_se am
_not es
_not .<br
_" sh
_H ans
_sh ine
_do ors
_com ics
_ab omin
_v om
_P ierce
_int imate
_G ot
_or dered
_un lik
_E arly
_E ither
_good ness
_go es,
_1 ,
_cl osed
are r
_end ings
ves ,
_fun eral
_Ch ief
_19 1
_ra il
_view er,
_view ers,
_tra ined
_world s
_kind .
_Americ a's
de velop
_sense less
-c ut
_problem ,
_For get
_wife 's
_black mail
vis ible
IN E
_slow -m
_support ed
_self -d
_etc .<br
_myself .
_result ing
_Ke ith
_ant agon
_Ind ians
-st ar
_compl iment
_team .
_country side
_Am it
_Con f
_(M ichael
_realistic ,
_King 's
_profess ion
_kick ing
_hair ,
_immedi ate
_imagin ation.
_edit ing.
_assum ed
_random ly
_jo ins
_Ray mond
_Str ong
cl aim
_loose ly
_prim itive
_Mag n
_consist ent
_Fox x
_Er n
_"St ar
_troub les
_/>1 .
_Kenn edy
_counter part
_Kh an
_revolution ary
_Wonder ful
_(y es,
_stumb led
_dece ased
-pro v
_rhy th
_Farre ll
onym ous
_shad ows
_specif ically
_Pear l
( J
/ m
3 0
Q ueen
_ 
l ers
l ing.
m atic
_w akes
_b ite
at ured
_p our
_in ject
_l onel
_n am
_be e
_be .<br
ve ll
_re n
im mer
_wh is
_st er
id .
_S P
_S ound
_S iss
_B es
_M TV
_C ase
_C omb
_sh ared
ers ed
ers hip
_at ,
_su ms
_do se
_so ci
_pl od
ood ing
_v ocal
_ne ur
_J et
_O dd
_were .
ell ig
_K N
_ad orable
per haps
_plot .<br
ang le
_gr ant
_ra ises
_comp ar
_tri pe
_thought .
_es p
_main t
_lead ,
_bas ketball
_book s,
ism s
_review ,
att ract
_Z e
_along ,
_hope less
ains aw
_close .
_finally ,
_writ es
_"A merican
_/>D o
_God 's
_husband 's
_narr ow
_middle -aged
_hell .
_theat er,
_standard s,
_villain .
_danc ers
_Don na
_/>R e
_joke ,
_porn o
_arri ved
_opportun ities
_Fin ally
tt a
_ast ron
_Franc is
_Dam me
_motiv ations
_enth r
_sed uct
-r ate
_hack ney
_Dra cula
_# 1
_sequenc es.
_guar ante
_Virgin ia
_Lem mon
_territ ory
_exch ange
_hes it
_Certain ly
_behavi our
_Shell ey
_pric eless
I ES
K .
Q u
S he
_ x
a .<br
m art
y .<br
_a est
_a ka
_s outh
re ction
_m ast
_c ity,
on s,
_p onder
_p ulp
ar ched
_in .<br
ic ia
al i
_T W
_T s
_re ly
_st ale
_y elling
_A my
ro b
_B ert
_B ible
_M olly
_M orm
ra v
ill ion
_( just
_" un
_W y
_W ATCH
_at h
ust in
ain .
_P .
_L amb
_R ambo
_F ra
_or chest
_Th ird
_N iro
_E than
_1 )
_- --
ore ,
_scen ery,
_other 's
ine 's
ac ies
ac ity
_po ck
_direct ed,
_character iz
_bl owing
_fl air
_In ter
_te aches
li x
ft en
_sub l
ash i
_bu g
_hour ,
ner 's
_heart felt
_ret ired
-l ength
_Se ven
_close t
_cult ure.
_releas ed,
_"I f
_dream s.
ene z
_non -st
ement .
_pleas e,
_ang st
_English ,
!" <br
_period ,
_secret s
_avoid ed
erv ice
_popular ity
_(C h
_offic ers
_langu age,
_record ing
_Ser ies
_Pro ject
_encou rage
_Smith ,
_Ham mer
_Bel a
_witness es
_unne cess
_Bas ically,
_frustr ation
_McC oy
_manipul ative
_philos ophy
_buck s
_frank ly,
_sem i-
_argu ably
_Pa xt
_adequ ate
_centur y.
_incompet ent
_Gw yn
_Cham berl
_/>Per haps
_arist ocr
" ...
- gu
? '
I nt
I RE
M AN
S h
_ +
p r
p in
r ument
r ows
t y,
he 's
_f ist
_c ats
an ning
ch ak
_A unt
_A ugust
_S ide
_The at
_but cher
_M ars
_M inn
_we 'd
ill ian
_( Y
_C ecil
_sh red
_ch ronic
ant s,
_F ree
_G ard
_G ib
os c
ack s
ig o
_what ,
_watch able.
man "
our ney
ap able
_people .<br
_tw elve
_dis ast
_should 've
_set up
_ke en
_sm oking
_ins ip
_inv ites
_series .<br
_shot s.
_dialog ues
_Cl assic
_At tenborough
_Le igh
_quest ion,
_ref used
-p ar
-p art
_val id
_win ter
_forget t
ator .
_team ,
_spir its
_question able
_fantastic ,
_etc. )
_express ed
_liter ary
_Sch ne
_project .
onic a
_Pat ric
_idi ots
_conclus ion.
_arri val
_pract ice
_Mur ray
_conflict s
_discover ing
_desp ic
_educ ational
_altern ative
_Care ll
_refer red
_overd one
_nostal gia
_autom atically
_coinc idence
_WOR ST
_redempt ion
_Scr ooge
_precise ly
_helicop ter
_Abs olutely
_bott le
_Abrah am
& A
l a
l er.
l ins
o cc
u v
v i
_f aint
it i
_c ode
or ry
_to mat
_d ur
_l ush
om a
_g h
_re hears
_that !
_A F
_A R
_S F
_B S
_B os
_B ear
_B ost
ra zil
_W ag
_W ang
_at roc
_D ON'T
_L if
_L ena
_R ud
and ,
_wor n
_J od
_G .
_me and
_N obody
_tr y.
_up s
_go ing.
_K ent
ci a
_well -written
ep burn
ance "
_year 's
_rem ained
_sl ut
_U nd
_cont empt
_att ribut
_2 2
_view point
_expect .
gg er
_sound ing
_inst rument
_care ful
_/>S h
ok ed
_conf ident
_dep ressed
_hope lessly
_ref uge
_thrill s
-s omething
_cost s
_Just in
_husband .
_Every body
_Gr im
_"W e
_Q ue
_yourself ,
_change .
_respect ed
_prot est
_exist ed
_German s
_198 0s
_standard s.
OU R
lus ion
_surv ival
_sil ence
_law s
_sens ational
_Sim mons
_catch y
_catch ing
_193 0s
_prison ers
_Lou ise
_Angel a
_subst ant
_film-m akers
cl ub
_ham mer
_Canad a
_Lau rence
_confront ation
_Cru ise
_Nichol as
_dut y
_alb um
_asp iring
_Techn icol
_Clar ke
_grotes que
_Unt il
angh ai
_Amit abh
I ST
d o
d ys
h an
i ed,
m ary
in es.
_w est
_m ac
on st
_h oke
ar se
br ow
_g arden
_e ars
st ead
_it ).
_S ix
_B IG
her d
_M u
_M eryl
_( on
_( all
_" j
_H ag
_H mm
_sh ares
_D iv
em ic
_all eg
_de pe
ist r
_L ight
_L iz
_R ang
ast ard
_F ast
_F ollow
_r ates
_G all
_G ame
au c
_N as
ort s
_good !
_had ,
ell o
_K ans
_end s.
_character .<br
_gu itar
iz ed.
ru p
_pr ince
_sur re
_ra ve
_ra ge
_cou n
_cou p
_inv ited
_aw aken
_ep it
_co ast
_happen ing.
_since re
sc reen
_gl ory
_gl oom
_minutes .<br
_follow .
_De N
_half ,
_song s.
_defin ed
_Will is
_guess .
_No .
_master ful
_prom ises
_decent ,
_effort ,
_/>N e
_Pet ers
_York .
_Tim on
_cartoon .
_convinc ing.
_Wood s
_recogn ition
_track ing
_embarrass ment
_rece iving
_(R obert
_system .
_bod y,
_surf ing
_fool ed
_quiet ly
_invent ive
anz a
_advert ising
_Bet ter
_Bet ty
_pit iful
_Lat er,
_Apparent ly,
_Inc red
_Person ally,
_Brid get
_lyric s
_Baksh i
_Pam ela
_Hist ory
_dysfunction al
- 19
b ast
i "
o qu
_s ixt
_w ander
_b reed
_c her
en ged
_d imin
ic ism
le ading
ct ic
_T ot
_T ok
_T ier
_S A
_S yl
_S now
_S weet
_S udden
_li bert
_M ajor
_C ong
_C ros
_" be
_H ust
_H omer
_W oo
_W alt
_su ic
ies '
_ab und
_ab used
_al ive.
ol in
est yle
_r ude
_G ere
_G yp
_N athan
_O the
_fe e
ite .
_qu it
_Ch and
_Ch ave
urn ed
_St uart
_2 :
_Al one
_cou ples
_girl s.
_kid ding
_expect ed.
_expect ations.
_hand ling
_abs ent
_bo om
_vis iting
_vis ited
_Christ y
_event s.
_Mar ion
ides creen
_light ,
_sw allow
_brother .
_par ad
_mor onic
_prom ote
_voice .
_murder ing
_attention ,
_ru ins
_"R e
_regard ed
_wild ly
_roll er
_roll ed
_awesome .
_revenge .
_pow er,
_threat ens
_genius .
.I .
_thank fully
_summ ar
_la unch
_cal iber
-1 3
_market ing
-to- video
_reflect s
_seve rely
_incor rect
_eleg ant
_conve ys
_Robb ins
_wack y
_rive ting
_Whoop i
# #
( the
- al
- ind
> >
B .
S t
V EN
b ow
d on
l ife
m i
m ith
p :
r imin
z ed
_t a
_s que
er man
_f ade
_m afia
_b ul
_b umbling
_c ream
ou ri
_p enn
br id
il ess
_re w
ay ed
_st im
_S ay
ri er
_B ug
ra cy
_( st
_( very
_" ex
_" you
_H E
_H K
_H alf
_W T
_D y
_D EAD
_do om
_v s
_v en
_P umb
_R ukh
_F oot
_G le
_E mpire
od dy
ab y
_other .<br
_qu ant
_over p
ne 's
ish .
_work er
_sp aces
_' 9
_year -old
_never theless
_little ,
_br own
ru ck
_here )
_ri v
_gr ass
_tra ff
_Jo el
li ed
_tri be
_thought -prov
_guy 's
_Br ons
ah ,
_conf ir
_audience .<br
atter ing
_So x
_Sc ors
_mar gin
_Cl iff
_top ,
_exam ination
_form s
_z oom
_Le ft
_dri ft
oil ed
_list .
_daughter 's
ern and
arth a
_const ructed
_/>H aving
_opin ions
_200 5
_Paul ie
_simple .
_War ri
_sent ence
_fill ing
_wait ress
_business man
_design s
_ment ality
_girlfriend .
inn ed
_histor ic
_histor ically
_positive ly
_cond uct
_desper ation
_trail ers
_fash ioned
_cold ,
_Ro ad
_(P aul
_nomin ation
_celebr ity
_WW E
_self- indul
_disaster .
_voic e,
_underst ated
_dro ve
_Dam on
_Sad ly
_formula ic
_aband on
-to- be
_Co hen
war f
_transl ation
TH ING
_redu nd
_Pre ming
_challeng ing
_wrest ling
_sympath ize
_Bac all
_co-st ar
_sket ch
_oblig atory
_unbear able
_incons ist
_reluct ant
_Est her
_Corb ett
_Scot land
_Sop ran
( D
- qu
F UL
H H
O Y
_ 
` t
c ase
d am
u eless
v oc
x ic
_t act
ing s,
en ger
_h ug
_d ies.
ed er
_/> 2.
le en
_e c
_T ele
_st are
_st age,
_for cing
_as yl
_S aint
_se ldom
_ha pless
_B ay
_M E
_( so
_C ris
_C ube
_sh oes
ul ation
us pect
_L as
_L ear
_R el
_F itz
_F onda
_r ings
_r ises
_int ro
_G ersh
_or g
_un imp
_E bert
_wat er,
_lo aded
_only .
ab les
_K i
_time )
_them ?
_qu otes
_great !
_pre ced
_ag ents
_direct ing.
_off ens
_He nd
_br ide
_under m
_/>A void
_may hem
_ra ck
_gen i
_che ated
ub ble
_bu gs
_expect ed,
-c ore
_said .
_together .<br
-f et
_Re id
_word .
_word s.
_Will ie
_coll ective
_mis s.
_trans pl
_success ,
_fair ,
_myster y.
_score .
**** *
_televis ion,
_compl ic
_air .
_herself ,
_flaw s,
_nature ,
_credit s.
EA SE
_earli er.
_Who ever
_fasc ination
_potential ,
_(D avid
_Qu aid
_complex ity
_amb ition
_romance .
_suit ably
_loud ,
_mistake .
tt p:
_Paris ,
_(p art
-th an
_wed d
_ic onic
_Camp bell
_bon us
_Flor ida
_Rep ublic
_Daw son
_diff icul
_chap ter
_Nic ole
_Sell ers
_abysm al
_Cour t
_Oll ie
_simplic ity
_Godz illa
_nonsens ical
_Eug ene
ttp: /
- it
- or
- action
D S
J .
c a
h o
j ay
z ing
_t v
he ll
in ity
_f ishing
_c aut
_I F
ic ing
ic ed
le ted
_n aught
al a
_re vers
_A ID
_an c
_movie ).
_( out
_( e.
_C ON
_H epburn
_W .
_W R
_P roduction
_r ant
_r ational
_r ising
ard om
os ition
ook ie
ight y
_en ig
ab led
_per man
_cl ass,
_over long
_po etic
_will .
per or
_/>I s
_off .<br
_sp ont
_fl im
_fl irt
_back st
_ri g
ever ly
_mus c
_gen res
_fact .
_tra v
oc aust
_young est
iss ance
_new com
_tri v
_ter min
_app all
_hard .
_Br un
_ins ists
_actor 's
_Sh ame
_co pe
_co -work
_art work
_happen ed,
_gl owing
_review s,
_understand able
_ph ony
_dist raction
_Christ ians
_Z one
_top -not
-b y
_mess ,
_ret ire
_ass ert
olog y.
_coll aps
_mis fortun
_strong est
_Har old
_dem ented
_prov oking
_par an
_mor ally
_myster ies
_consider ably
_pat ients
_weak .
_unc ertain
_doubt s
_Col onel
_nature .
_screenplay .
_sor ry,
_(B razil
_imm ature
_explo res
_store ,
_satisf ied
_jud ging
_rob ots
_western s
_purpose .
_pointless .
_Angel es
_hurt s
_lif eless
_lif estyle
_scare crow
_invent ed
_drag on
_knock ed
_passion ate
_desert ed
_Shakespeare 's
_cow ard
_strang e,
_pet ty
_/>That 's
_fif ty
.5 /10
_Univers ity
_Mont ana
_Ter rible
_emp ath
_emp athy
lo ad
_Sun shine
_Bern ard
_interact ions
_Cub a
_Alt man
berl ake
_Greg ory
_Ale c
_adolesc ent
_Polans ki
_Ow en
_WIT H
! '
- ex
- play
I t's
a ired
l ,
l ed.
o en
r ust
w orld
_t ip
in o's
_w ow
_w ire
_b ike
es ter
ou st
on ent
_to ys
_to mb
_p ound
_p ump
_d ate.
om ic
_e ats
im on
_you ?
_B ugs
_C ushing
_H an
_H ain
_H app
_sh orter
_sh oddy
_D anger
_su cc
el 's
_v ot
_P ink
_L ar
_L oy
_L enn
_F ans
_Th ing
_about .<br
ack ing
_char ged
_E in
The re
so ,
_them !
_pe oples
_think ing,
_ag es.
_Wh it
_St raight
_min us
_2 /10
_pr on
_sim ilarly
_enjoy able,
_exce ed
_person s
_music ian
_Sh ould
_both .
_aud ition
_cam c
_art ic
_let ters
_believe ,
inc arn
_hour .
_Be ast
sy mp
_Re ally,
_Z izek
_Ar iel
_defin itive
_ind ication
_light .
_viol ent,
_form ,
_piece ,
_Car re
_impress ive.
_mention ing
_relationship .
uc ing
_present ing
_psych ic
_room s
_sol ution
_phot o
_inde ed.
AR T
_swe at
_Am ong
_adapt ations
_Mac D
_clever ,
_marri es
_mod est
_(" The
_store .
_196 0s
_rad ical
_subtle ty
_prep are
_Ro h
_addition al
_Bel ieve
_witness ed
_Pal m
_Ey e
_mount ains
_der iv
_corrupt ion
_educ ation
_press ure
_report ed
_fle e
_activ ities
_tun es
_mann er,
_dinosaur s
_Det ective
_scr atch
_adop ted
_Brend a
_Veg as
_close-up s
_ambig uous
_Port ug
_patter n
_resur rect
_lackl uster
_exped ition
- I
/ com
0 )
H ER
O ,
f oot
s ay
u ation
_t unn
_s appy
_c os
_c od
es )
an )
_l ic
_l ux
_/> 3.
_mo ody
ver ,
_st ag
gh an
gh ter
_film ...
_with .<br
_se nding
ir lfriend
_B ird
_C amb
_C OM
_" sp
_H U
_H og
_W ol
_sc and
ist s,
_R .
_R itch
ast ed
_F IL
_out law
_G ram
_un m
res ent
_O s
_O lymp
_no -one
ci pl
_end ear
_pre quel
_real m
_part y,
ile .
ish a
_Y ok
_V ill
_V iew
_te a
_ent itled
_St ack
_U P
_under neath
_acting .<br
_Al ison
_comp rehe
az ing
-- it
_/>T itle
_sub plots
_years .<br
istic ,
ont o
_mind ed
-c o
_Not e
_De M
_sk it
_gener al,
_women 's
_/>It s
_Le v
_piece .
_trans formed
ik a
_unc ut
_feature .
_land s
_check ed
pend ing
_insp ire
_(a fter
_ideas ,
_/>G r
_est r
_circ le
_mod els
_impro b
_"c l
_soul .
_fash ion,
_sav age
_Ro om
_discuss ing
_ener get
.I t
_celebr ation
_attit udes
_block bust
_believ able,
_der anged
_WH AT
_prefer red
_Robin son
_experiment al
_unfold s
_Grant ed,
_Jr. ,
_valu es,
_valu es.
_Ash ley
_inevit ably
_kiss ing
_rend ered
_stumb les
_Gi ov
_blat antly
_ped est
_tempt ed
_infect ed
_vulner able
_minim um
_saf ety
_Mupp et
_dre ary
_disjoint ed
_Pur ple
_cul min
_non-st op
( M
- op
U ST
_ !!
c rack
g ate
g ian
i ors
v yn
w hen
in ction
er r
_b arrel
it able
at um
_d ressing
om ber
_is ...
ut ive
_re lev
_st ilted
_mov ing.
_S G
_an s
ro ad
_M ist
_M alt
_( it's
_( aka
_C any
_" ch
_W A
_W ing
_D rey
ess a
_so rely
us p
_P az
th ,
_R id
_out right
_N at
_N ap
_N ative
_O men
_per il
ink ing
_cl ueless
_qu e
_qu irk
_ro pe
for ce
_real ised
_ser ving
_rem akes
_rem ove
_feel .
_Al vin
_ra bb
_comp ris
_actually ,
_acc ent,
_kid 's
_far mer
_far -fet
_hand les
_care ers
_/>Th ough
_rest rict
_second ary
ork y
_night club
_Sc reen
_ey e.
_Mar ch
_exper iments
-b ad
_stud ying
_gener ated
-w inning
_ass ured
_"S p
_wa x
_cred ited
_pass eng
_ref use
_alread y,
_fem me
_val ue,
_contin ually
_prom inent
_Her o
_soon .
_viewer 's
_200 4
_colle ag
_forg iven
_gang sters
_Pr om
_accept s
_mil k
OU S
_business ,
_background s
_Sm all
_Gu in
_tast e.
_crime .
erm in
_Sim ply
_repe ating
_recogn izable
_claim ing
_remark s
_accident .
_mid night
_pace .
_Gl ob
_Mad onna
_uns uspect
_drug s,
_fash ion.
_"N ight
_hang s
_Day s
yl an
_lover ,
_nowhere .
_Pal ance
_intern al
_object ive
AM E
_appropri ately
_expos ition
_Cent ral
_distract ing
_screw ed
_Wr iter
_complain ing
_Wend y
_improve ment
_challeng es
_lift ed
_uniform ly
_amus ing.
_hipp ie
_firm ly
_Shar on
_Pick ford
_Marsh all
_befriend s
_Garb o
_bos s,
_cens ors
amil iar
_Belush i
_attor ney
_Cassave t
_ath let
_difficul ty
_(Brazil ):
d og
g ot
g ers
u .
v o
v as
_a while
in o,
_f res
es se
_h ides
ar ious
_d ow
_d well
_I V
_g lee
_e gg
_n atives
_T ap
_mo de
_re el
_st atic
_B arr
_B uff
_B eth
_B rilliant
_M au
_( e
_( re
_" 1
_H on
_H om
_do pe
_so ck
_by .
ag ain
_v ice
_v ign
_P oe
est in
_L ist
_R andy
ast ing
_F il
_J ar
_J ol
qu es
qu ire
_G iant
_me !
ard 's
_un em
_un leas
_E le
_O per
_en chant
_K now
_qu arter
ine "
_bad d
_ro oting
_dis reg
_/>I 'll
_fun .<br
ep ,
ty p
iv able
_rem ade
_St ock
_sl ip
_spe ec
_U t
_again !
_min iser
_old est
_didn't .
_start ling
_bit ch
_sm ell
_kid d
_ins omn
_bu zz
_hand s.
_last ,
_3 D
_worst ,
_lik able,
_/>S ee
_bo asts
_watched .
_creat ivity
_head ache
_else 's
_understand s
-f ash
-f aced
_Sc ary
_ph rase
_comment ing
_My ers
_Z h
_wrong .<br
_gener al.
_8 .
_Le e,
_live ly
_name ly
rop he
_cent ered
-s pe
_prov ocative
ung a
_inf ant
_shoot out
_musical ,
_sle az
_important ly,
_ve in
_above ,
_(S t
_(w hen
_Ex p
erm aid
_match .
_Bra in
_charm .
_di ed.
_terror ists
ID E
itz er
_traged y.
_frustr ating
_compan ies
-and -
_bi ography
_la un
_belief s
_nonsense .
uh ?
_Par ad
_Par amount
_propag and
_Up on
_surviv ors
_enh ance
_Tru e,
_Hy de
_Arm strong
_hous es
_cha os
_Lum et
_Rub y
_suburb an
ibl ical
_troop s
_Thunder bird
_Carrad ine
_halluc in
_Aff leck
_Kol chak
_astron aut
ttp:/ /
_anc est
_far-fet ched
/ C
/ th
Y .
g ling
l ined
u ccess
_s omed
_f iring
it ated
_c itiz
_h ij
_p ants
_l am
_/> --
_n iece
_it em
im es.
_wh ale
oo ,
_A M
_S a
_movie -m
_M ason
ra ble
_H um
ck ,
_ch orus
_D ent
_su gar
_sc rap
_act ive
_do ing.
ant h
ol er
_v oted
us ions
_P as
ist an
_L .A.
_R ent
_R ita
_G ang
_K line
_pe cul
ac y.
_ag on
_am used
_' K
_V ance
_ent ered
_spe cially
_dec ap
_view ing,
_cou pled
vent ures
_director s,
ub by
_new er
_sub text
ign ed
_ins pect
ord in
_rest .
_second ,
land s
_night mares
_Be yond
_Z or
_/>O h,
_remember ,
_Le o
_sw ing
_conv iction
_ref ers
_/>M any
_med ic
_foot age,
_War hol
ield ing
_dest ined
_parent s.
_apart .
_air port
_Any way
_land ing
_emb ark
_difficult ies
_/>E x
_wait ,
?" <br
_die -hard
_Lu k
_commun icate
_Gold bl
_Other wise
_control .
_ball et
_smart ,
_Steven s
_collection .
-for ward
_Win ter
_depart ure
_McC art
_WH O
_Lo is
_craz ed
_Haw ke
_complaint s
_demonstr ates
_method s
_Gill iam
_Gand hi
_irre levant
_Us ually
_adop t
_cere br
_"real "
_Atlant is
_stead y
_acknow led
_"film "
_exter ior
_Prest on
_recyc led
_misgu ided
_(e. g.
_FIL M
) ...
- but
/ 5
/ b
/ g
< <
F E
a ise
c ar
f ly
f lu
f ront
g io
k ish
r r
t own
_t urd
_w olf
_o min
_c em
_c urt
_th ug
_h ust
_h ires
_to ken
_I sh
_g ent
le ans
ot ic,
ut y
ow ulf
_st age.
ch air
_as set
_A y
_A uss
_B R
_B ry
_M ans
_M ask
_M AD
_we ather
_( v
_( be
_( com
_( where
_C ort
_C reat
_H ig
_H ell,
_W inc
ain ly
el "
_de em
_L oc
_R unning
ate "
os is
_un related
_un attract
ig ious
ud e.
_le nd
_cl in
ap se
irst y
_im pe
_im itation
_ad vis
_part ially
_made .<br
_In s
ip es
_sur g
the re
_why ?
_day .<br
_friend 's
_effect ,
_kind ,
_You 've
_role .<br
_lead s,
ann els
_stand out
_wasn't .
_short com
_review s.
-t oo
_Cl o
ott a
_sad ly,
_susp ension
yp her
_ste el
_important ly
_subject ,
_huge ly
_vict ory
_suggest ed
_wit ches
_los ers
_surv ives
_Mart y
_dog .
_destro ys
_regard less
_O' B
_humour ,
_prep aring
_spec ies
_fright ened
_represent ation
_den y
_eat en
_animal s,
_(d on't
_/>On ce
_cal cul
_African -American
_Hitler 's
_Beat les
_wound ed
_(b oth
_Domin o
_sho pping
_integr ity
_inj ured
_admir able
_vent ure
_resour ces
_greed y
_premie re
_Fortun ately,
_acclaim ed
_21 st
_Honest ly,
_simult aneously
_Math ieu
-dri ven
_hackney ed
_triv ial
- k
E P
_ .<br
b our
e a
g ud
m oil
p a
r im
r ings
v .
in ter
_s ou
_w art
_w itty,
_f oil
_m aking.
_b ree
_b arb
_b ulk
ing '
_d il
_d ies,
_in sec
_l ately
_g ained
_n arc
_T one
ve .
_re incarn
ow ed
_st ages
et ing
et ter
ch i
ch or
oo g
ce nds
_S leep
_B le
_B ri
_B uster
_" get
_" 10
_H opper
_ch annels
_D ID
em in
ain ted
ant s.
ag es.
_v ary
_P oll
ist ol
ist s.
_L ooking
_F iction
_F unny
_J oy
_J udd
_un it
_what s
_K ung
_per haps,
... this
_po ll
_pre y
way s.
_too !
_thr ust
_Ch in
_V ol
_He ad
_St ooges
ru g
_comed ies,
_/>T wo
ible .
_hard ,
_beaut y,
_hand ic
its ch
_mean s,
_del icate
uck er
_surpris ed.
_anyone 's
_Bl and
_Cl ay
_Cl ass
_event ,
_Mar ce
_ret rie
_light -hearted
_guess ,
_thrill ed
_relationship s,
_fem ales
_mor on
_told ,
_War .
_ill ness
_build ings
uri es
_adult s.
_exist .
_superb ,
_Tr ust
_post ed
_wood s,
_Frank ie
_Tim berlake
_IMD B
inn ear
_(R ichard
_Dead "
_/>J ohn
_Ro oney
_nowhere ,
_describ ing
_Pal ma
_million aire
_card s
_object s
_Walk er
_Ros en
_Les ter
_tur moil
_proceed ings
_rubbish .
_transl ated
_organ ized
_emer g
_contain ing
_compos er
_dress es
_Cinem at
full y.
_conce ived
_́ t
_Gill ian
_wand ers
_Amaz ing
_arr ang
_neighb our
_Ree ves
_non-ex istent
_inexplic ably
_Berg man
_ingen ious
_satir ical
_adul ter
_Kum ar
_pris on,
_parano ia
_Profess or
_Cassid y
_Dow ney
_housew ife
_mini-ser ies
( B
- ed
D ER
U E
W .
c ript
h al
l iest
m ind
u er
v ag
w are
in y,
_o l
nd rome
_c oc
_l az
ic y
_g or
_n it
st ood
ad ium
_he al
et ed
_A D
_A CT
am an
ro be
ur pris
_C L
_" hero
ul se
_j er
out hed
el ic
el ine
_ab du
_P oke
_de leted
_con j
_G ames
um ming
_Th ur
_has .
_just ice.
_N et
_N aked
_pro sec
_un sc
_O UT
ge ant
_scen ari
... or
int s
av ed
_say ing,
_sp ray
_' st
_V iol
_St ars
ens en
_should ers
_feel -good
_Al icia
_cr own
_down .<br
_sm ug
_sm iling
_Br as
_ins urance
_hel m
_sex y,
_since rely
anc he
_/>S he
_Bl unt
_head ing
_half .
_miss ed.
_Sp oilers
_Be hind
_Un ion
_event ual
_Mar x
_Mar lon
_5 0s
_flick s,
_Le g
_mis og
-p roduction
enn ett
_lost .
_Char lton
_prom is
_level s.
_room mate
_quick ly.
OR Y
_Richard s
enc ies
_pri ze
_twist s,
_land mark
_/>But ,
_Con rad
_met eor
OU N
_post ers
_disturb ing.
_Fl ash
_disappointed .<br
OO OO
_satisf act
_Hor rible
_squ ad
_Lond on,
_investig ating
_accur ately
_Adam s
_boyfriend ,
_Allen 's
_ride .
_lay ers
_rat ing,
_dro pping
_unexpected ly
_/>St ill,
_stink er
_convin ces
_earn est
_Hart ley
_confront ed
_Rom ero
_ban ter
_terrif ied
_emer ge
_emer ges
_harm less
_/>V ery
_Pict ures
_Ty ler
_reject ed
_underw ear
_fet ish
_tens ion.
_bird s
_stunn ed
_kung -f
_nowad ay
_Were wolf
_Kath ryn
_plac es,
_mudd led
uf act
_sag a
_inher it
_Ing rid
_punish ment
_ow es
_immort al
_Antw one
_unpredict able
_Fro st
_Bald win
-che ek
_Font aine
_depe nds
_Chave z
! ".
A LLY
b ury
f an
f ilm
m en,
p iece
u ary
w olves
_a kin
_o h,
_m ate
_m our
_m orn
it "
or st
_h oot
_h ott
_h itch
_p le
_p ion
_d ont
_d ashing
as e,
_l ens
_l oop
_be g
_T on
et c
oo s
_S ty
_S entin
ri en
_B ark
_B ottom
_M ouse
_M ah
_M artha
_C op
_C ool
_sh aky
_W ong
_W ish
_W ork
ood le
act ed
ag hett
_al as,
_v ital
_P ix
op ic
_F ight
_F ried
_J ared
_J af
_G O
_N ame
_pro ving
_un seen
_le ather
_she 'll
ick s
_cl ums
man )
_been ,
_over b
_over sh
_will ,
_dis respect
_part ies
_bl unt
ob er
_V isc
_In visible
_2 "
_ri pping
_inc apable
_cast s
_Al ways
the y
_che m
_sm ugg
_hand s,
_expl oring
_co hes
_entertain ed.
_dialog .
_gl ued
_nice .
_Sp ider
_Ste ele
_human ,
_sch ol
_4 th
_gener ations
-l ong
_pain ,
_often ,
_often .
_9 9
_brother 's
_Har rison
_deser ving
_late ,
_inf lict
_releas es
_prom ot
_/>D e
_Just ice
_dream s,
yp ical
_son 's
_Or der
ING :
_198 0
_decided ly
_Col or
_design ,
_"R ob
_sens ual
_stick ing
_lim its
unning ham
_marri age.
_ble ed
_mel anch
_imagin ation,
_element s,
_element s.
_compet e
_absurd ity
_demon st
_stunning ly
_commercial s
_youth ful
_sto pping
_bi as
_Pow ers
_employ ed
_Jackson 's
_Lind say
_court room
_Pac ific
_suicide .
_bill ed
_boo b
_Kid s
_tack y
_Aust in
_Aust en
_scar iest
_Sur v
_refer ring
_Domin ic
_category .
_cris p
_polic em
_polic eman
_Sor ry
_overwhel m
_demonstr ate
ww w
_vast ly
_incons istent
_fra ud
_PG -13
_Hop kins
_venge ance
_sub- plot
_audien ces.
_prompt ly
_Conner y
_propert y
_9/1 1
_grate ful
_undeni ably
_Dud ley
_McLagl en
_Scors ese
_trav esty
_comprehe nd
_ans wered
_Drey f
) !
A W
A CK
D I
H ow
I f
I VE
M y
c ut
e )
h .
m und
s ons
u i
x im
_s ought
_w idescreen
_f uel
_b itten
at hing
_c ities
on es,
_p oo
ar ia
_d uck
_l unch
ic o
_n un
_T IM
_re wr
_he ist
_st ardom
_y a
_film --
oo ke
_A RE
ke l
ke y,
_se edy
ro d
_B T
_B il
_B arn
ra ,
_( my
_( how
_C ard
_are a.
ul ations
_D er
_D ur
_k ar
_so -so
_P itch
_R aw
_F at
_J r
_her d
ire ,
_E astern
ore y
_K am
_K innear
_per cent
so red
ick .
are st
_end e
_qu int
_over bl
_pre -
_dis in
oll o
ace ,
ress es
_V oy
_ser ious,
_ser ious.
_ent ering
ber ry
_cont ribute
_feel ing.
ia "
_2 3
_old -fash
_cr ashing
old en
ram atic
ign ific
_need less
_bu ys
_beaut y.
_last ing
_co -wr
_family .<br
_/>S te
_place .<br
_boy 's
_Bl ob
_creat or
_ele phant
-b ased
_heart breaking
_7 5
_dem onic
_"I t
_sn ap
_Pet e
_disc ern
_plan et.
_Me nd
ograph ical
_gang st
_visual s,
_tre es
_comb ines
_suggest ion
_rating :
_weird ,
_iss ues,
_cur s
_fire ,
_Tw ilight
_Sim ple
_band s
_offic e,
_shame .
_langu age.
_prison er
_contr ary
_affect s
_threat ened
_mir acle
_lif esty
_traged y,
_Hol m
_disgust ed
_Bas inger
_Ber ke
_forgotten .
_eight ies
_Ford 's
_ens ure
itchc raft
_Ram ones
_expos ure
_existence .
_YOU R
_compos ition
_Sur pris
_contribut ion
_enthusi astic
_Sor ry,
_Off ice
_ignor ance
_/>4 /10
_tens ion,
_HA VE
_femin ist
_Stud ios
_concentr ate
_sevent ies
_neighb ors
_toss ed
_bes ide
_sam urai
_publ ished
_warri or
_Hind i
_Dix on
_amuse ment
_obv ious,
_"De ath
_glamor ous
_muse um
_sup reme
_Nicol as
_subl ime
_disast rous
_Lif etime
_hoke y
_DeN iro
_Tok y
_misfortun e
_pron oun
_unsuspect ing
! ",
- as
A P
C M
d an
h ist
u ild
y es
z er
_the ories
re es
_w imp
_b ure
_p ages
ot o
_T oy
_re -w
ow ell
_was hed
_as ,
_S ond
ke y.
_li qu
_M all
_C ond
_sh aring
_sh ips
_W ait
ul ent
_D oy
_D uch
_D iamond
_do or,
_by ,
_L ass
_R ush
_wor ship
_from ,
ation "
_me )
ard o
_no ises
ound ed
_K nox
pl aced
y, "
ap id
_great ness
_po ke
_ad vers
ass b
_direct ions
_' '
ors "
iv al,
_after ,
_back s
_br ooding
_happ y.
_point .<br
_pr ank
_res idents
_supp ly
_own s
_day light
ew is
_appe als
_laugh able,
_done .<br
_last s
_3 )
_co ff
_run ,
_Bl oom
_miss ing.
.... and
_Be ach
_mon ument
_Z ane
_exp ose
_Rob ot
_heart ed
_loc als
_sw itched
uc ci
_av id
_const it
_const ra
_Or leans
_break down
_"D o
_200 3
_dev ices
_"T hat
_detail ,
_respect .
_land ed
_er r
_197 0's
_stri k
_post -
_red neck
_design er
_appro aches
_dumb .
bor g
_tast e,
_Can 't
zz zz
_commun ic
_Mel issa
_O' C
_test ament
_refe ren
_chall enged
_process .
_comparis ons
_pra ised
_kidn app
_sentiment ality
_Zomb ies
_Er rol
_explos ions
_DO ES
_convent ions
_inspir ational
_Rom er
ugg ing
_Wat son
_Tor onto
_addict ed
_Fair b
_Eve lyn
_demand ing
_underw orld
_Enter tain
_amus ing,
_dub ious
_univers al
_depend ing
_Rand olph
-go ing
_PL EASE
_Aud rey
_flu id
_pseud o
_MU ST
_MU CH
_conclud e
_Event ually
_relent less
_croc odile
_hun ters
_motor cy
_Supp orting
_Joh ans
_vig il
_Pu erto
_Fredd y's
enez uel
_Chamberl ain
_insip id
_despic able
_pecul iar
' '
) is
* t
- all
G H
_ 
a cious
e at
e ople
l ord
m od
o is
s ...
w ing
_t rop
he y
in s,
re ens
_f ift
_th ie
_h ollow
an iel
_d ate,
_in sect
ic s,
_g asp
_/> **
_e .
_be ing.
_be lly
ie g
_y ard
am m
_B unny
_B erk
_M ast
_( we
_C os
_C unningham
_H annah
_ch imp
ers )
_D ance
_D 'A
out h,
_sc hem
_act ed.
_al ert
_al ive,
_F assb
_G os
_G overn
_or de
ous ing
_Th orn
_N iven
_N BC
_N etwork
_pro spect
_pro claim
pt ion
_un original
_E mm
_tr ump
ge nds
_them e.
ue .
_ag ency
ile y
_Ch ang
_somet imes,
_des ires
_sl am
_old er,
_cr ank
_view ings
_director /
_own ed
air s
ew orthy
_ins uff
_reason s,
arr ot
_expect ,
_expect ations,
_lead .
leas ed
_That s
_gl aring
_ac ademy
_boy .
omb ie
_ele ven
_Be gin
_Cl are
_sk its
_ending .<br
_fail ure.
amp ed
_loc ated
_emot ion.
_ind ifferent
-d o
-d ead
_itself .<br
_mis ery
_alread y.
_Har low
_Is ab
_Dan a
_Dan ish
_cult ure,
_sle aze
_ang els
rench ing
_Ad rian
iel gud
_subt ly
enc es.
_twist .
ett es
_bab ys
_und ead
_appro ached
_advent ure,
_disturb ing,
_premise .
_` The
_Mac y
_193 0's
_/>G ood
_extra vag
_charm ,
_di verse
_mid get
_lad der
_"O h
_assum ing
_Russ ia
_accur acy
that 's
_Em il
_Jon es,
_location s,
_Sar and
_Spe aking
_buff s
_industry .
_signific ance
_deg ener
_purs ue
_Ron ald
ruct ive
_ban al
_Mal one
_civil ization
_Hay worth
_nin et
_politic ian
_chuck le
_Phill ips
_disgu ised
_shout ing
_choo sing
_low- key
-he ld
_Harr iet
_Shep herd
_robber y
_rapid ly
_admitted ly
_Gil bert
_select ed
_Further more,
_sarc astic
_Pleas e,
_equip ment
_obst ac
_cho pped
_Duv all
_BS G
_Kans as
_camc order
_citiz ens
_impe cc
_demonst rated
_overbl own
( I
( and
I CK
W hat
c het
e chn
f lix
l ash
m all
m ath
n er,
o vers
p ing
r ish
r ash
s ky
w as
_s ib
at man
on "
_p add
_d rill
_d rew
_g ap
le m
_e er
al "
_T een
ad vert
_film ed.
_an gu
_B orn
_B reak
_B everly
_M ack
_( U
_C ze
_sh aking
_W ILL
_ch oppy
_D umb
em pl
ust y
un te
el ope
_all -
_ab ound
_P O
_L in
_F al
_F ors
_F ever
qu er
_G ay
_G ig
_G entle
_It urb
_N ik
_un n
_un symp
_O .
_O ak
_wat cher
ab re
_K ings
_per ception
ac y,
_play wright
_ro ots
_ro bb
_ad just
_/>I 'd
age "
_seem ing
_' J
_br at
_St upid
_sl opp
_feel ,
_such .
igh ters
_inc arn
_pr ote
_cr ashes
_cr ime,
_res ident
_ra ising
_ra iny
_tra ce
_tri als
_hard ship
_child 's
_read ,
_expect s
_help ,
ative .
_car s,
_Fr ances
_rather ,
ER T
_believe .
_follow -up
_Sp enc
_det erior
_mon k
ount y
_Ar qu
-b ack
_sy nt
-d irector
_form ed
_flick s.
_Le ague
_Se ym
_Se bast
_picture s,
_Mc N
_Mc Queen
_relationship ,
ik er
_chang e,
_sle e
AT H
_Ger ald
AR E
_var i
_zomb ies.
_fill s
_honest y
_remind er
_sequence .
_hell ,
_contro lled
lin ,
_Ph oen
_Pr ot
-g irl
_(J ames
_memor able,
_aver age,
kay ,
_credit ,
_sens ible
_advent ure.
_concept ,
_Mac M
kn ow
_aut obi
_deserves .
_IMDb ,
_phys ics
_explo its
_Other s
_rap ist
_mel ting
_196 0's
-n ight
_mach o
_earth ,
_squ ee
_O' Ne
_numb ers,
_climax .
_serv ant
_childhood ,
_Bur ke
_symbol ic
_ug ly,
_mut ual
_tend ency
_deb ate
_Out er
achel or
_floor .
_(m aybe
_Haw ai
_contribut ed
_Cas per
_Pri vate
_health y
_pac ed,
_Bog art
_yell ow
_co-st ars
_disgu ise
_Spring er
_poet ry
_Nol te
_T. V.
_centur y,
_elev ator
_Mass acre
_Cre ep
_torment ed
_gamb ling
_wheel chair
_excruci atingly
_bew ild
_analys is
emes is
_rhyth m
_Camb od
_estr anged
_Seym our
- grade
/ A
/ M
A .
F F
_ £
b uck
e ck
g ut
i y
l ma
r ide
_t ent
_t ire
_m ak
_m ales
_m ummy
_b ent
_b ible
_b ully
_p ause
_p ushes
_d warf
ic "
_n om
_be gging
_T ome
ie val
_re play
_y awn
_S W
_ha voc
_B oo
_M oh
ally )
_( 1
_( his
_" plot
_W arn
_D ylan
if ty
_fr amed
ess ential
_so .<br
ant ha
ant asm
_v otes
_P fe
_P rison
_L ance
_L ead
and ra
_F ost
_F ew
_out !
qu in
_G one
_G ielgud
um n
_has ,
_un ans
_story 's
_she 'd
_K ra
_K ing,
_cl erk
... not
_/>The se
aw s
_bl ob
_bl ues
_Ch ib
_fl ashes
_after wards
_somet ime
_sl aves
_inc on
_may be,
up ert
_cou ch
_comp rehens
aut iful
_music ians
_rev is
_performance .<br
_book s.
_3 00
_vers at
ah mer
_We 've
_stand -up
_audience 's
_else .<br
_comedy .<br
_vis ions
_ed ition
_comm its
_exp ense
_human ity.
alent ed
_disappoint ed,
ount ered
ier re
-w ith
_cop ,
_cop ied
_line :
olog ically
_reg ularly
_quest ion.
_(the re
_Mc Int
_adm ired
_master fully
_stra nded
_"A l
_"A ll
_pat ron
_boring .<br
_result ed
_sol o
_200 7
_cheap ly
_fast ,
_mix ing
_cat al
_199 6
_fire .
_cartoon ish
_Ex orc
_enc ountered
_minute .
-in -cheek
_Inst inct
_remake ,
_fear ,
_earth .
_suspect ed
_Tony 's
_obsess ive
_def ies
_Stewart ,
_pack age
_approach ing
_defe ated
_pun ches
_drive -in
ability .
_office .
_excit ing,
_chick s
_sett ing.
_knock s
_aim ing
_Roy al
_Fe in
_deb t
_fles hed
_Jew s
_hyp oc
_ner ve
_advert ised
_inex per
_folk s,
_convey ed
_stalk ing
_acqu ired
_tap ed
_distribut ion
_fantas ies
_fantas y,
_glass es
_Child ren
_Beck ins
fess ional
_Enter prise
_har ass
TA IN
_judg ment
_etern al
_Hug hes
_slim y
_reli able
_upd ated
_devast ating
_prej udic
_rif le
_FR OM
_upl ifting
_Elli ott
_exquis ite
_Sabr ina
_Siss y
_KN OW
_Wag ner
_Sopran os
_Brun o
_Guin ness
_Luk as
_omin ous
_Auss ie
_kung-f u
_Pfe iff
- ass
/ 4
/ D
/ her
C R
E Y
H O
P P
T h
_ ̈
b ourne
e on
f ers
j o
l ent
o '
r ans
u ber
_t urt
_w ider
_b ed,
_b ald
_p up
_p als
_p omp
as se
ot a
_be ing,
_re verse
ent ertain
se xual
_S ag
_an gr
_B in
_B au
_B rent
ur der
ur ray
_M ick
_M abel
_( more
_( because
_C ob
_C rist
_C head
_C itizen
_H ers
_H OR
_sh oe
_W E
_W izard
_j am
_sc ored
_ex empl
_who les
_so ber
_ab st
_v int
_P ass
s. )
_F E
_r anch
_some ,
_J ill
_int act
_her ?
_G ina
fe ld
_Th us
_It al
pt ical
_le an
reat ed
ity .<br
ick en
ap ut
_kn ight
ine a
_bad !
int ellig
_most ,
_tw ins
_dis order
_dis cipl
_off er.
ull er
ost erous
_after math
_He y
_He at
_here :
ath om
_min ister
_interest s
_something .<br
ail ing
the n
oc aly
_comed ies.
_comed ians
_now .<br
ash a
ons ci
_You 'd
_read ily
_come back
_Sh ot
_care t
_An il
_help ful
_away .<br
umb s
_/>S ince
_DVD 's
_Not orious
_inter ior
_left .
_/>B ottom
_mess y
_dra b
_dra ft
gr at
_pain ter
_black s
_gra vey
_reg ister
_close up
_prom oted
_etc ,
_sn ob
_soon er
_type ,
_result s.
ST ER
_season ed
_mark ed
_swe pt
_Am rit
_197 2
_attack ing
_Tr uman
_Col in
_dam aged
_sleep .
IS S
_achie ves
_skill ed
_complex ,
_Kell y's
_mass acre
_uns ure
_Victor ian
_ball s
_execut ed.
_insult s
_def ine
_climax ,
_pack s
arsh ip
_Den is
_soft -core
_(p robably
_chick en
_den ou
_Carl a
_confus ing.
_unw illing
_Spe ed
_insight ful
_intelligence .
_expert ly
_Jud ge
_strang ers
_crack ing
bur ne
_Kid man
RI BLE
_circumst ances.
_unbeliev able,
aa aa
_arch ae
_craz y,
_Rain es
_establ ishing
_peace ful
_Anton io
_Wat ers
_Sure ly
_assass ination
_neat ly
_admire r
_(that 's
_'c ause
_underw ater
_preview s
_Geor ges
_overact ing
_Tru ly
_Lore tta
_Friend s
_tongue -in-cheek
_Reg ard
_embr ace
_frag ile
_audien ces,
_Chic ago
_psy ched
_Py th
_stro ke
_Sold ier
_Stall one
_monot on
_dazz ling
_/>8 /10
_lun atic
_Ep isod
_Pose y
_oce an
-es quire
_Bes ides,
_neur otic
_guarante ed
_mast urb
_Patric ia
_Bost on
_cerebr al
_Visc ont
- K
K S
P .
S p
U RE
e ks
h as
m aster
p ons
r ice
w ic
_a ided
_s ale
_w are
_f ierce
_m im
or ous
_th irt
_h arr
_to .<br
_d ance,
ed uc
_in just
_in advert
ic iently
ut ing
_it "
_be gs
_T est
_he ,
_st ubb
_was h
_S em
am our
_B use
_M ess
_M iam
_( perhaps
_H ost
_H ob
_H idden
_H oly
_W a
_W right
ul ating
ul ously
_D uck
em is
_j et
_sc ant
_sc reens
_pl ate
ag ged
_al arm
_P av
_P orter
th ought
_ne o-
_F un
_r ides
_r ats
qu est
_G able
au ,
ort ant
_un l
_man if
_go ing,
_This ,
_she ll
pl ing
_ar che
... you
_po pping
_well -made
_real ities
_sp ree
_He ath
_sl ack
_sl apped
_U .
_U ma
_gr ie
_gr anted
_sur ge
_tra g
_long est
li er
-- s
_new .
_actors '
_Sh anghai
_An im
ov sk
_art sy
ok ing,
_pol ar
_inter tw
_perfect ion.
_ac ad
_recommend ation
_comment s.
_Cl aud
oon ,
_/>O h
_ret ain
_gra iny
_favor ites.
_wa ves
_pass age
_Le ave
com es
_impress ive,
_cent re
_dem ise
_inf o
_mot ive
AN G
_weak er
_pay check
_break .
_"D on't
_important ,
_Japan ,
_detail s.
_/>P lease
_none .
_cliché s,
_clear .
_accept ance
!) <br
-g en
_und e
oic ed
_masterp ieces
_bored .
_Scott 's
_id ol
_unlike able
_however .
_Jul es
ask et
_flash y
_/>G reat
_hom es
_hair .
_breat hing
_fat ale
_execut ives
_cross ing
_gem s
_90 %
_fre aking
_excit ing.
_celebr ated
_unus ually
_disappe ars
_gri p
_remem bers
_connection s
_Lau ren
_Keat on's
_separ ated
war ming
_popul ated
_Ter ror
_Cle arly
_cruel ty
_sink ing
_landsc apes
_wast es
_wast ed.
_Count ry
_Hope fully
_corp ses
_enh anced
_LOV ED
_Brend an
_caric atures
_parall els
_Nol an
_inexplic able
_pseud o-
_Hot el
_Imp act
_Bol iv
_miserably .
_psy che
_whim s
_assemb led
_Pars ons
_priv ile
_vibr ant
_intric ate
_claustroph obic
_lav ish
_/>10 /10
_bee f
_sixt ies
_Tier ney
_fee ble
_Cze ch
_Phoen ix
_unans wered
( R
- 8
- ad
A LL
C RE
S POILER
b ill
e nder
m id
m pt
p an
r uns
t ail
_s oup
re c
re et
_o rient
is ed,
_f i
_m asc
_b ounty
_c ue
_c ries
ar on
_l imp
_I ll
_/> 9
_/> Z
_/> and
il ,
_be gun
_T ara
_T ogether
_T &A
_T CM
_mo ld
_re -m
_that )
im b
id night
_S g
am er
ri gue
_B att
_B OR
_li ps
_M ust
ra wn
ill er
_C BS
_" 2
_sh ining
_at tending
_D J
_one )
_k udos
_v oc
_v oid
_P C
th ink
_L OL
_like wise
_out fits
_con co
_G OD
um i
fe ll
au f
_Th or
_me ch
_N OW
_N IGHT
_O k
_O ct
_up side
od ore
_K irst
_per m
_over st
way .
_ad ore
per ial
_part y.
_thing .<br
ob ile
_' w
_V ince
_V onne
_V enezuel
_He y,
_des cend
_cont ent.
_att ach
y. "
_inc lusion
_cast ing,
_Al b
_sim p
vent ional
_turn ,
_sm ash
_app ly
_As s
_lead s.
_3 ,
_ext ensive
orn bl
_less ,
_pol ice,
_De ep
_understand ,
_ed gy
_father s
_Be owulf
_ey e,
_Ste phan
_portray als
_top ics
_heart warming
_rep ressed
_/>O K,
_ret rospect
_black ,
_ind icate
_gra bbed
_pass able
_9 5
_/>M ean
_brother s,
_adm in
gu ard
_lost ,
_occ ult
off erson
_psych ology
_musical .
_sn uff
_Her bert
_hit .
_pay off
_Ed ith
_200 2
_shock ingly
_Richard son
_dest iny
-st ory
_sister .
_respect able
_fast -forward
_camp ,
_198 3
_accept ing
_Ben j
_prop ort
_Che 's
_background ,
_199 7
_sor row
_gone ,
_(w ell,
_/>R ating:
_public .
_cover ing
_sleep s
_Lu is
_dog ,
_Qu entin
_Jane 's
_cond itions
_delight ed
_mid st
_color s,
_continu ing
_concern ed.
_bizarre ,
_mer its
IT E
_ST ILL
_prep osterous
_Christian ity
_author ities
_outstand ing.
_mysterious ly
_rip off
?! ?!
_sett led
_confus ing,
_compan y.
_fict ion,
_wise ly
_whatso ever,
_comparis on.
_buff alo
_sell s
_mut ant
_anywhere .
_corn y,
_kidn ap
_purs ued
_tour ist
_Daniel s
RA P
_report s
_Fest ival.
_Laur ie
AA AA
_Cur ly
_Sal man
_guest s
_Det ro
_access ible
aret te
hrist opher
_Ire ne
_Gray son
_convict ed
_feed ing
_"Wh o
_Sav age
_Ree ve
_myst ical
_Cel est
_abrupt ly
_elsewhere .
_merc iless
_Tob y
_relent lessly
_Budd y
_prej ud
_Pot ter
_Block buster
_engross ing
_unexpl ained
_Ur ban
_max im
_Nas chy
_flim sy
_passeng ers
_miniser ies
- 3
/ 3
A l
S H
U D
d ict
l ass
p ah
r ary
t ing.
u rop
v ity
_o st
_b urd
it es,
at cher
at oes
at hered
_c ad
on ),
_d ates
ed y,
_n et
_n ak
_n ails
il ation
_T ER
_T iger
ly "
_on !
_st ating
_A de
_S ue
_B ed
_B ik
_B ox
_B iko
_M oe
_M urd
ra ges
_not -so
_C ed
_C ity.
_H ut
_H ooper
_sh rink
_W rest
_at tended
_D arth
un ks
_j oint
_fr antic
_do .<br
_all !
ol ved
_L ampoon
_wor m
ast y
_out ing
_r ic
_J ung
_con n
_G ue
um es
_me ?
_le nds
_man ic
_wat er.
The y
ab ilities
_K udos
_per ce
_cl ash
_did .<br
_qu as
... a
ue nd
for mer
for ming
_dis abled
av an
own ed
_V ien
urn ing
_hor ny
_rec ur
_2 8
_imp rison
_point ing
_doesn't .
_dec iding
_res erv
sh aw
_long ing
_/>T echn
_tri angle
_comple ted
_appe al.
_acc us
_laugh ing.
_read er
vious ly
_Sh o
_lead ers
_ext r
_beautif ull
_We b
ality ,
_dram atically
_war ming
land .
-t own
_sing ers
_Cl ive
_human s,
_small ,
_hero 's
IN D
_reg ion
_9 .
_9 0s
_Se ed
_present ,
_crit ique
_writ ers,
_sn ipp
_dream .
_/>H is
_Or ,
_experience .<br
_6 .
_"W hy
_"H ouse
_Me yer
che s.
_detail s,
_inn uend
_air ,
_fast .
_ca f
_writer 's
_spir ited
let 's
_Sam antha
_danc ing,
_weird .
_cat ast
_199 0
_aver age.
_avoid ing
_Gu ess
_liter al
_Ang els
_public ity
_powerful ,
_embarrass ingly
_hom ic
ipp er
_ident ical
_delight fully
_depth ,
_depth .
_196 8
_Act ress
_Tra in
_Afric a,
_Van essa
_ground s
OM B
_mer cy
_cute .
_Lond on.
_Cra zy
_Stewart 's
_Day -L
_door .
_(T h
_teacher s
_ham my
_virt ual
_grow th
_personality .
-A n
_ens ues
_boo st
_shallow ,
_princi ple
ym ph
_Had ley
_distract ed
_craz y.
_SH OW
_domin ated
_Whe never
_acqu aint
_nin ja
_evol ution
_Beck ham
bod y,
_EN D
_Obvious ly,
_Mitch um
_detect ives
_doct ors
_doct or,
==== ====
_uniqu e,
_reh ash
_clic hed
_Rat so
_Jord an
_Wed ding
_Natur ally,
_furn it
_wilder ness
_cripp led
_Origin al
_thought-prov oking
_Brons on
_(part icularly
_enig matic
_Net flix
aghett i
_Fors y
_Vonne gut
! ?
4 0
N Y
N 'T
d ad
g ob
h in
h ild
i ate
n ik
o an
o ak
o h,
t ing,
u an
y ard
_s inc
er otic
_h ttp://
_p iv
_in mates
_l ol
_it ),
_T oni
_re ar
_re ven
ad en
ent ly,
ent ered
_for bidden
oo z
_S el
_S ame
ro ,
_B ET
_B ennett
_li ghter
_M em
_" no
_H OW
_ch ron
_D iet
_fr ames
ess ed
act ing
ag gy
ag raph
_v ic
_P ak
_P olly
_de ft
_L ab
_R ena
_F ur
_out land
_J os
_G ov
_G arden
_Th in
ard ust
_can cer
_E is
ud ed
_good "
_up !
_up coming
_when ,
ab ol
_K ris
_scen ery.
_cl unk
_cl ient
_them )
_po se
_know .<br
_make .
_say ?
_Y e
_Y eah
ng er
_bl amed
_sp ies
_Ch ong
_Wh ilst
_V ader
_after .
ily n
_sl ide
_gr ay
_gr ind
_/>A dd
_pr ow
_dec line
_res ent
_ra unch
_produ ces
_bit ters
_script .<br
_ins anity
_person 's
_inv asion
_might y
_shot gun
_sound .
ition ally,
_3 0's
ative ly
_10 /10.
_mind -numb
-m ovies
sc ar
arent s
_review ing
_talk ,
_night s
_Sc are
_Sp ain
_excellent ly
_Christ ine
_Cl utter
_/>B as
_Z eal
_vide ot
_couple .
_worse .<br
_"B "
rodu c
_group .
_bus h
_(I n
_"D ark
_important .
_pos ing
_quick ly,
ered ith
_killer 's
_War ,
_gun s,
_zomb ies,
_air plane
_fast -paced
_box er
_"P lan
_emb od
_suggest ing
OU T
RE E
_introdu cing
_Frank enstein
_credit .
work s
_sens es
_anyway ?
_Sch war
_sick .
_project ,
_purp os
_193 6
_ign ores
_IMDb .
_cond u
_circ us
_week ,
_impro vis
_hy brid
_jud ged
_Mon ty
_depict ions
_II .
_choice .
_threat en
_painful .
_Luc ille
_okay .
_rip s
_nomin ations
abl anc
_Young ,
_correct ly
_underst at
_More over,
_resemb ling
_hint ed
_England ,
_explos ive
_opt ion
_transl ate
_park ing
-r idden
_fif th
_syn ch
_Bor is
_scar ce
_glimp ses
_Comm and
_Comp any
_Cindere ll
_worthwhile .
_isol ation
_divor ced
_bow l
_Person ally
_Az te
-sp ir
_lur king
-bl ood
_conven iently
_Iran ian
_fing ers
_verb al
_misunder stood
_Soph ie
_rebell ious
_pir ate
_delicious ly
_consci ence
_wip ed
_compell ing,
_sust ain
_exclus ively
_Gwyn eth
_substant ial
_Technicol or
_fres h,
_chem ical
_old-fash ioned
_Duch ov
_e. g.
_sib ling
ocaly ptic
$ $
- we
- set
F T
b orn
c ol
d on't
e ff
f are
i i
j or
l und
r itten
w er
y ll
z zy
_t aut
_s alt
_s aint
_f er
_m ail
it anic
_and ...
_p ink
ar ies,
_l ump
_I Q
al iforn
_it ems
ve re
_re pris
ver b
_wh ining
_as pir
_A B
_u pt
_movie "
_B oss
_B omb
_B rig
_li ving.
_" v
_" this
_H ale
_H ollow
_H awn
_H appy
_ch op
_D w
_D af
_D ahl
_j aded
_all :
ak ,
_al tered
_v ault
_P in
_L ie
_L up
_R oe
_ne ut
_F aw
ate red
_just ified
_N iel
_N ina
_char ms
_un ner
_no -n
od der
ab by
_K le
_K rue
oy lent
ink le
_look ing,
_ar ray
_po pped
_tw ent
per iment
_fun !
_' l
_fl our
_fl amb
iz oph
_V ad
_love .<br
_back ed
_back wards
_best .<br
_should er
_find .
_happ y,
alk ing
_ap es
ffect s
_tra it
-- as
-- not
_exce ll
_sub m
_sub -par
_rel ating
_between .
_inv ite
_Sh ining
_hand -held
_cinem as
_class y
_Fr ont
_"The y
_/>W here
_ty r
arent ly
_De bb
_someone ,
_exc uses
_ph ase
_comm itt
_Cl aude
_Z el
_Mar ilyn
_ret ard
_gener ate
_emot ion,
_couple ,
_remember ing
_mis lead
_mis leading
_live -action
het ically
_par ade
_med ieval
_releas ing
_God .
_fore most
_husband s
_"M an
how ,
_Ke ep
_crap .<br
_desc ent
_Pl enty
_unc anny
_Ad mitted
_age nda
_subt le,
_detail .
_feature ,
_contro lling
_theat ers.
_mark .
_flaw s.
_suff icient
_bar ,
_free .
_Don n
_dumb est
oop ers
_gone .
_"G ood
_oper a.
_(C har
_revol ving
_stat ue
_crew ,
oman iac
_depth s
_record ,
_record s
_critic ize
_Ir ons
_regard s
_mach in
_concern ed,
_purpose ,
IT Y
_heavy -handed
_warn s
_Ag ent
ploy ed
_quiet ,
_rout e
_rape ,
_resc ued
_round ed
_sto res
_clean ing
_Blood "
_employ ee
_possess es
_sill iness
_kidn apping
_England .
_Space y
_reflect ed
_North am
_Li u
_appl ies
_screw ball
_choic e,
_Rod rigue
_Second ,
_gig antic
_king dom
_Direct ed
_depress ion
_chill s
_Branagh 's
_/>4 .
_dump ed
_arr anged
_Bac on
_puzz le
_mas ks
_BL OOD
_Krist offerson
_Bach chan
_Israel i
_hung ry
_inhabit ants
_ward robe
_acknow ledge
_Revol ution
_Juliet te
_hospit al.
_instit ution
_/>7 /10
_Syd ney
-head ed
_sen ior
_Thomp son
_Eri ka
_"movie "
_Ern est
_maint ains
_aest hetic
_asyl um
_geni us,
_naught y
_AID S
_paran oid
_deriv ative
_speec hes
_Winc hester
_surg ery
_shortcom ings
_unsymp athetic
_vint age
_Gue v
_flamb oy
izoph ren
- less
- gr
- awful
A GE
N A
V IL
c y.
e ous
f est
g er,
h or
o ves
r s.
v d
v ous
w ill
_t ub
in son
_s ess
er ner
_m and
_m ute
_b er
_b ed.
_b ubble
en "
on ents
_d '
_d ated,
_in formed
_l ion
_/> 	
le y.
_n orth
_re ign
ver age
_he els
_A ch
_A wards
_B ou
_B ates
_M O
_M s
_M ead
_M aur
_M eredith
_( i
_( look
_C ro
_C hen
_C reek
_" we
_H o
_j ock
_fr uit
art s
_al ways.
_v ile
us "
th rough
_L ope
_F UN
_F aith
_out line
_J a
_G R
_G unga
_Th ail
ard ieu
_pro long
_un appe
_O wl
_go es.
_no is
_there by
_story ?
ell ow
_per verse
_per plex
_time ...
ment ed
ment s,
_them es,
_look s,
... s
_over .<br
_into .
_well -c
_ro yal
av our
_real ises
_real ization
_am ple
ian .
_bl oss
_sp an
_sp ine
_' 5
_fl avor
iz er
_seen !
_Wh o's
_V arg
_life 's
_interest ed.
oc he
oc umentary
_sub mar
_sm il
_actors .<br
_funny !
app reci
_Br ide
_expect ation
_An imal
_co at
_art -house
ros s.
_/>S p
_sense .<br
_gl ow
_imag es,
_review ed
_special ,
_night mar
_ph ras
_dist aste
_dist inction
_top s
-b ook
-w orld
_ass ure
_live .
_/>M uch
-s l
_pat hetic,
_sn akes
ton 's
ement ,
_told .
_pleas ing
_white .
_stre et,
_ang les,
_var ied
_forget ting
_fill er
_cinema .<br
_creep y.
_Although ,
_victim s.
_Ph antom
_/>C har
_(J ack
_* 1/2
_199 9
_Frank lin
_eye ball
_anyway .<br
_concept s
_lin ers
_invest ed
_space ,
_space .
_Gold ie
_trail er,
_di ed,
_Europe ans
_brain less
_Mr s
_spot light
_wall .
_ground ,
_pract ical
_display ing
_Indian a
_Cor man
_Earth ,
_pun ct
_tone ,
_subst ance.
_film-m aking.
_Part y
_Mill ion
_fault s
_bi ased
adow ed
_friendship ,
_vehic les
_bur nt
_paint s
_disp os
_tight ly
_Gar land
_Full er
_Wr ong
_extraord in
_unfor g
_Fer rell
_Mer c
_reject s
_McD onald
_vivid ly
_femin ine
_ske ptical
_gam es,
orig in
_nu ances
_Knight ley
_limit ations
_Wow !
_Charact er
_phenomen on
lest ar
_plac es.
_econom ic
_gee k
_Natal ie
_Mupp ets
_ech o
_anx ious
_shift s
_Pen elope
_optim istic
_Luck ily
_Vall ey
_legit imate
_warr ant
_Tarant ino
_tom orrow
_unlik able
develop ed
_lonel iness
_pock et
_meand ering
_Othe llo
_WR ONG
_MacD onald
_Ritch ie
_pedest rian
_Cassavet es
_dow nt
_Mau reen
_disreg ard
_Goldbl um
_deem ed
_narc iss
_Poke mon
_Bras he
_misog yn
www .
_Beckins ale
_simp ly,
_sinc er
" :
( S
( 19
) ?
, and
- 9
I 'm
V O
a is
a very
b ath
g es,
h anger
i hil
k o
n `t
r owing
in ently
_s way
_s ibl
_w itchcraft
er ve
_f ier
_f aux
_b astard
_c ath
_c ents
or ical
ou ching
_th under
_p ans
_p anic
_p istol
om y
_/> ****
_T ib
ver .
_st ake
_st umble
id an
_A ri
ce ,
_S OME
_B ody
_but ler
_not eworthy
_( '
_C ypher
_C orey
_H oo
_H ir
_H and
_ch at
_ch ock
_ch oir
_D ol
_j unior
_ex h
art ing
_al ot
us ic
_P ap
op ard
_de cept
_J ob
red it
_un co
ig s
_le ap
_tr y,
hing s
_K as
_K auf
_end s,
_end lessly
_over -d
_ro se
_seem s,
_thing :
_sp awn
_Ch ampionship
_fl ock
_V augh
ult ure
_St ate
_cont ent,
ath on
igh ly
_cast ing.
_point less,
_cr ushed
_ra pt
_fact ors
_fin ishing
_fin ishes
ute ur
_though .<br
_gi allo
_sub c
_sub way
_high ,
_must 've
_read ers
_saw .
_ext ract
_run n
umb o
_low .
_Christ ina
_/>B ecause
_human .
_4 ,
_stud ies
_remember .
_school s
_Le vin
_slow .
_Se attle
_live ,
tern al
_adm its
het to
_mag ic,
_col or,
_feeling s.
_/>N ever
_pos es
mb lance
AR S
_subject .
_mist ress
_subt let
_team s
_unf amiliar
_twist ,
_exist ential
_er upt
_198 0's
_ru ining
_/>C l
OU SE
IL D
_bab y.
_chees y.
_effective .
_Tim my
_sleep walk
_Lu z
_repe ats
_recent ly,
_requ est
_critic ized
_Mad h
_escape .
_arri ving
_incredible .
_lad y,
_trouble .
aus ibility
_House ,
_bother .
_awesome ,
_Mel vyn
_humour .
_somewhere .
_Boy s
_Boy le
_minor ity
_dad ,
_terrific .
_witness ing
_Em peror
_escap ing
_intense ly
_qual ify
_Go ing
_impact .
_mouth .
field ,
_channel .
_perspect ive,
_bene fits
_memory .
_Jenn a
_experien cing
_guard s
_Street "
_opposite .
_reun ite
_skin ny
_Cap ote
_Wild er
_Second ly,
_soph om
_vol unte
_Tri er
_activ ity
_arg uments
_betray al
_commit ment
_"Bl ack
_loyal ty
_partn ers
_Oliv ia
_(an other
ocal yp
_Mid night
_Jac ques
char acter
_inaccur ate
_conven ient
_unwatch able
heim er
_stabb ed
_photograph s
_enlight en
_fabr ic
_Ot to
_amid st
_gym n
_Theat re
_Schne ider
mary 's
_mac abre
_Follow ing
_quant um
_spaces hip
_DeM ille
/th riller
_Arqu ette
_Cob urn
_stubb orn
_Sg t.
_Ced ric
_Day-L ewis
_Varg as
( C
- fe
/ l
6 0
A IN
U B
_ ).
b on
b ound
d b
d ed
g rave
i ot
j ud
m ad
m un
r in
r at
r ate
u ire
z ene
_t .
_t ant
_t oned
_s oooo
is p
_b iol
it ous
_c rop
en )
or ters
on z
_p atch
_p imp
as qu
_g oo
ot hing
_n ymph
ut e,
ut ions
st ep
st ruck
_T ess
_T ash
_T rem
_mo lest
_film ),
_A way
ce nding
_S i
_S oul
_se mblance
_B ath
_M J
_M os
_( act
_( sh
_( about
_C ons
_" k
_" new
_H our
_W ins
ul pt
_ex it
_pl ug
ag le
_v ag
_P S
_P op
_L iam
_L aput
_R our
_F O
_F act
_F ido
one y,
_r ate,
_r oughly
_con fined
_G or
_G ET
au g
_N ope
_E sc
_good -looking
_man ufact
_there ?
_K ind
_K ins
_K athy
itt ingly
_pe as
_over wr
_pre st
_way )
_us ers
_sp it
_' 4
_fl ood
_V ers
_V era
_love ly,
_life ?
we igh
_sl avery
_i 'll
_here ?
ren n
_comp uls
_before .<br
-- with
_day s.<br
_app lied
_right ly
_str ings
_Sh at
_Sh adow
_cons iders
xt ap
_run .
apt ure
_different ly
_mind .<br
_Bl ade
_De anna
ident ally,
_ev okes
-f illed
_miss ile
_Sp inal
att oo
_mur ky
_Re iser
ott i
_Ar ch
_tit ular
_black -and-
_cra w
_cop y.
_flick .<br
-p roduced
_appear ance,
_novel ty
_history .<br
_col ored
ik i
_dream y
_mot if
_produc ed.
_produc er,
_"H ollywood
_deep ,
_hot ,
_forget s
_honest ly,
_William s,
_ear liest
_adult s,
ett e,
_197 1
_victim s,
_Con st
_198 4
_suck er
_suck ed.
_hate ful
_effective ,
_front al
_cap acity
_Mart ian
_emotion s,
_ign oring
_attract ive,
_marri ed,
_marri age,
_stat ements
_ine ffect
_tear s.
_mass es
_Mon ro
_stereotyp es,
_Dead ,
_Bro s.
_sum med
_leg acy
_numb ers.
_Sand ers
_Earth .
AS S
hol m
_18 9
-se c
_(W illiam
_voic ed
_insight s
_ver ge
_impl ied
_freak y
_Fre em
_Fre ud
_resol ved
_Coll ette
_junk .
_/>1 )
_Mil o
_Brown ,
_fac ility
_Hitchcock 's
_Wr itten
_Mir anda
_Care y
_pupp y
_hyster ically
_link ed
_Direct ion
_Cub an
_evident ly
_anticip ation
_stunn ing.
_horrif ied
_deliber ate
_Stud io
ifi ed.
_traum at
_Rick y
_explod ing
_styl ized
_Peck in
_drown ed
_eager ly
_sedu ce
_immigr ant
_characteristic s
_colon ial
_"good "
_sab ot
_Gam era
_Commun ist
_irres ist
_Recommend ed
_Antonion i
_seduct ive
-gu y
_forgett able.
_gh ast
_Gyp o
_Bug 's
_redund ant
_top-not ch
_Roh mer
_Portug ues
ermin ator
_quint essential
_psyched elic
- 5
- an
- ish
3 ),
A G
B e
C hrist
K ING
O n
b one
e ge
i ard
i ally,
l ings
m ers
n ity
p hen
u ates
u ana
x ,
è re
_a ven
_a pl
he rence
is le
is se
_f rog
_b art
_b um
at able
at hed
at er,
an "
an s,
ar ation
_d orm
_g hetto
le ine
ot e,
_re lying
ad or
im o
im bo
_wh iny
_st ab
_st ate,
am era
_se arched
_B ere
_B ee
_B attle
_M ond
ter s,
_C od
_" wh
_" de
_" sc
_H ou
_H un
_sh r
_ch amp
_ch ampion
_D ist
_D ia
_su ave
un a
_sc ulpt
_k ink
ood y
ak s
ol fin
_P ic
_P ere
_de ed
_L ed
_L ans
_L ars
_L anc
_L ives
_F arn
_F ernand
_r ay
_r ation
_J ude
_J abb
_int oler
_G ack
_G rend
ous es
_Th ief
_Th row
_about ?
ind ere
_N on
_K y
_K itty
_per vers
ci le
_great .<br
_over s
_over ton
_real istically
_off beat
ian a
ian n
ng el
_bl ink
_fl ashing
iz e.
omet own
_through .<br
ens ions
we e
_U rs
ris e
alk er
_fam ed
_cr am
_ra cing
_fact ual
_few .
_tra its
oc racy
-- he
_screen writers
_inst ances
_3 0s
_3 -D
_Fr itz
_10 1
-c ont
ann er
_conf irm
_second .
-f ace
_American ,
_comm itting
_Z en
ien ced
_Ar kin
-w ise
_pain s
_"S e
_pass ion,
_slow ly,
_next ,
_Se ems
_Car men
_trans cend
_pred ic
_cor rid
_par agraph
_stuff ed
-h aired
_stra w
_opp ress
_group ,
_writ er.
_hit ,
_hilar ity
_"M r.
_entertaining .<br
_Ed ge
_move .
_ant ic
_Paul a
_apparent ly,
_similar ity
_English .
_"H am
_treat .
_narr ated
_plan et,
_Me y
_apart ,
_Oscar .
_explain ed.
_forg iveness
_question ing
_Sam uel
_Sam urai
_mil it
_Tr oma
_(S h
_villain ous
_und ers
_Frank en
_somehow ,
_/>L et's
_oper ation
_concept .
_/>" W
_commun ist
_commun ity.
berg 's
_match ,
_remake .
_crew .
_accident ,
_amb iance
_hol es,
_Act ors
_Red ford
_Red grave
_mood .
_program s
_ST ORY
_clot hes,
_Way ans
_investig ator
_magic .
_"p ro
_gag s,
_Charlie 's
_notice able
_remain der
_flashback s,
_affair .
_Dou g
_serv ants
_difference .
_Sl o
_Tar z
_drink s
esc ent
_tem p
-e nd
_Ros ario
_/>On ly
_Ol sen
_craft s
_Rus so
_Sil ent
_Lynch 's
_uncon ventional
_safe ly
_ju xtap
_anti- hero
-D oo
........ ........
_Art emis
_stalk ed
_/>Un like
_pupp ets
_Bon ham
_tun ed
_tremend ously
_gam es.
_Dun st
_anal og
bod y.
_Ju ly
_widow ed
_fortun ate
_restra ined
_alike .
_Alexand re
_Ultim atum
_unwatch able.
_plat form
_neglect ed
_excruci ating
_tab oo
_sarc asm
_Tod ay
_reck less
_awa iting
_Kurosaw a
_memb ers,
_fro zen
_bord ers
_Pumb aa
_lic ense
_HU GE
_scand al
_energet ic
_Pfeiff er
_ware house
_inadvert ently
_piv otal
_Diet rich
! ).<br
* <br
- N
- ra
A CT
T oo
U LL
b il
b ly
b out
b ach
b y's
c if
c ies
c ott
f ,
j i
m oon
p ow
u a
y man
 .
_a venge
_m um
at rick
es erved
_th ree,
on es.
_h ob
_h ars
an u
an ke
ar s,
ar ound
ar ming
as ily
_in finitely
om an,
_g adget
ut ure
st op
_it `s
_T ales
_he ir
_st adium
et le
et ery
_y arn
_for .<br
_A S
_A ven
_S up
am o
am ber
_se vered
ur ous
_M P
_M ald
_( her
_C ly
_H im
_H ines
_H ulk
_sh ades
_D ern
_D AY
_D ustin
_D ahmer
.. and
un ge
_j arring
_who 've
ood oo
ol ice
_P E
_P ert
_P ia
_L ill
_L ub
_L uth
_L oved
_out -of
_J en
_J aff
_con grat
_G us
_or ange
red ited
_N ad
pt on
_un av
_O mar
_fe ver
_were wolves
_K ILL
_per cept
_cl ad
our se
_bad ly.
... well,
_could .
_im pending
_pre tends
_dis ill
_work ed.
_sp rink
_Wh ale
_But t
_V ig
_ever !
_St and
_i 'd
_inc idents
_may or
_cr ashed
_ra ces
_start ed.
_before hand
_long er.
_going s
_bit ing
_sub du
_need ing
_str ung
_high .
_must ache
_whole .
_bas hing
_An ist
_let down
_interesting .<br
_conf use
_sit e,
iter ate
_ev oke
_entire ty
_Re venge
_Cl ock
_Cl ara
_Ste in
_sk imp
_Z od
_men 's
_fight ,
_portray ed.
_death .<br
_Ar k
_4 0s
_stud ied
-w ife
_pain .
_count ri
_8 /10.
_Man ch
_trans f
_appear ance.
_Eng lund
ger ald
_blood s
_present .
_dr um
ik ing
_favorite .
_Her man
ives ,
_techn ology,
AT ION
_"D ead
_tele g
_esc al
_Gr ant,
_produc ed,
AR K
_gun .
_deep est
by e
_cool est
_remind ing
_touch ing,
head s
_apart ment.
_romantic ,
_Any thing
_/>P aul
_box ,
_First ly,
_bab ies
_King dom
_bar .
_avoid s
_bored ,
_emotion s.
_convinc ing,
_sick ening
_195 0
_Christmas .
_ideas .
_Stre ets
_Bra ve
_prison .
_Ser bian
_Ser gio
_explo ited
_control ,
OW N
_uns uccess
IT T
_street .
_otherwise .
_artist ry
_road .
_Den ise
_ur g
_80's .
_medioc r
_island .
_student s.
_mir rors
kin s,
_Phil o
_(H e
_confus ed,
_manner isms
_lay ing
_(d espite
_intelligence ,
_tem ple
_club ,
-e ating
_necessary .
_pen al
_target ed
_behavior .
_Girl s
bur gh
_sal oon
_mob ile
_ner ves
_Sund ance
_Cind y
_window .
_Cap ric
_unrealistic .
_Welles '
_particip ants
_Does n't
_Vinc en
_command ing
_Fair y
_Ty r
_argu ing
_anticip ated
amor ph
_Mean while
_'7 0s
_tax i
_bik ini
_ingred ient
_resour ce
_Log an
_restra int
_Att ack
_(un less
_Norm ally
_Tur kish
yr in
_mesmer izing
_cig arette
_obv ious.
_interrupt ed
_Hack man
_filth y
_substit ute
_/>3 /10
_suspic ion
_Brazil ian
_O'H ara
_Miyazak i
_Therefore ,
_Bron te
_lect ure
_esp ion
_unnecess arily
_Paxt on
_Jod ie
_Rang ers
_gloom y
_Incred ible
_improb able
_relev ance
_SG -1
_Cany on
_somed ay
_wart ime
_ol '
_prote ction
_Spenc er
_Amrit a
_harr owing
_admin istr
ocalyp se
/ t
A ll
T S
b y,
c il
c ett
e very
e vil
h ard
k i's
m aybe
t rap
_s ang
re k
re ne
_w itt
_w ars
is '
_f ades
_m aj
_b ubb
_b iblical
at ches
_c ro
_c ub
_c aps
_c able.
en ry
en sored
es on
es ar
_h ometown
ar zan
ic ian
_g ate
_g own
_g aps
_n ick
al though
_be aring
_st agger
et ch
ce mber
_S oc
_S oylent
am 's
_ha ird
_B ag
_B usb
_B asket
ur se
_not e.
_( !)
_( only
_C arn
_ch au
pe ak
_D all
_D est
_D ouble
_D andy
_one ?
_so cially
art ,
ol es
_v ain
us ch
_P ant
_P ress
_P OW
_R ook
_F ag
_F ab
_F ry
_out set
_J unior
_Th us,
_N a
_N an
_N anc
_N ove
_N AS
_pro s
_un just
_un cover
_E gg
_E aling
_any time
e, "
_story :
_K ilm
_per vert
_end uring
... The
_think ing.
for man
_ad vised
_dis e
_ag ent,
_first -rate
_off ense
aw d
ian e
_Y v
ial ,
_fl ip
_But ter
_V e
_V ic
_back ward
_des ol
_hor n
ens ibly
_rec onc
_should .
_U g
_here ;
_ri ff
_under p
_gr oo
me aning
_inc lined
_cast .<br
up ,
_res erved
_ra z
_watching .<br
_pret ty,
_own .<br
_sm iles
_day time
_hard -b
_ins ignific
_sec ure
_action s.
icul ous
_put ,
ov sky
_Fr ance,
_add ressed
_rest ,
-c ent
_stand point
_super -
_DVD s
_inter rog
-m ill
-m outhed
-f ive
-f ight
.... ...
_det ached
_sk irt
_Mar vin
_heart break
_open ly
_eas y.
-w ing
ove red
_light ning
ax y
_Se a
_No ble
_Dav is,
_master s
_mag ically
_stuff .<br
_With in
_behind .
ik es
_ir r
_psych ologist
_decent .
_Ge off
_predict ably
_leave .
_"W here
_phot ography.
_colle ague
_build ing.
_air craft
_/>P .S.
_Con an
_adapt ion
_clear ,
_comb in
_Tr uth
_spoil ing
_cat ,
_wood en,
_bab y,
_rese ar
_law n
_appro xim
_dumb ,
_wind ows
_nud ity.
_$ 10
_spirit .
inn ie
_step mother
_Af ghan
_Star gate
_skill s.
_Gl ad
_week ly
_Bar bra
_inside .
_Europe ,
_/>What 's
_ghost ly
-n atured
_imagin able
_luck .
_ground .
_tough ,
_assum es
_fake .
-y our
_mistake ,
_finish ,
tt es
_fre e,
_80's ,
_island ,
_discuss ed
_Pal estin
_qual ifies
_"h orror
_/>Wh o
_celebr ate
_youth .
_Nor ris
_"J ane
_spectac le
_wond er,
_friendship .
_perspect ive.
_bene f
_debut ,
_progress es
_church ,
_court esy
_hyp ed
_desp ise
bur st
_dism al
_folk s.
_colour s
_domin ate
walk er
_batt ling
_Pri y
_Off ic
_politic s,
_pac ing,
_Bog dan
_Gand olfin
_Dep ardieu
_outd ated
_univers ity
_cy cle
_Vamp ires
_accompan ying
_Ju an
_Carpent er's
_gather ing
_switch ing
_weakness es
_Baksh i's
_self-c entered
_patri arch
_Kubrick 's
_labor atory
_fo resh
_Pan ah
_gro an
_unsatisf ying
eric an
_transp arent
_intim id
_incest uous
_woe fully
_Morm on
_dur ation
_epit ome
_penn ed
_Fitz gerald
_Zor ro
_McCart hy
_Clo oney
_Sond ra
_synt hes
_wholes ome
_masc ul
_outland ish
_nightmar ish
- era
/ 0
A s
B Y
P al
S o
T T
l os
m a,
o .<br
u ction
w est
y alt
_t in
_t iss
_a er
in feld
er iously,
_f aded
_m ud
it arian
_c itizen
on ster
_p y
_p ic
_p ond
ar a,
_d inn
_d umber
_g au
_g rey
al ter
_re work
_re ception
ent ions
_he ter
_this ...
_st al
_A G
_A h,
_A jay
_S ara
_an ach
am en
_movie go
_B ank
_B ret
_B OO
ur rent
_li ving,
_M ain
_M aj
_( ?)
_C ul
_" fe
_" old
_H ER
_H IS
_are :
_sh aped
_W OW
_W ARN
ul u
ul es
_D om
_D ak
_do ck
_do ing,
el er
el ed
act ive
art y
art ed
ol o
ol is
_P ull
_L augh
_R ating:
_like :
_out burst
_J ourney
_G ris
_G ree
ich i
os "
_un rem
_O dys
_lo b
_lo v
_up br
od ox
ide .
_K it
_K ust
_K el
... so
_over board
_po ker
_play er,
_well ...
_know s,
_tw ice,
av in
_part .<br
ish op
_don't ,
_bl ames
_sp out
_sp ice
cc a
iv ed.
_te nded
_He w
_back .<br
_rem ov
_St ella
_sl ower
_feel ing,
_/>A m
ren al
ars on
_che ering
vent ion
az ard
_supp l
-- even
oss ip
_hard ened
ness .<br
_rev ival
_last .
_An ita
_co ke
_art if
_mean .
_mean ing.
_lik able.
_job .<br
_follow ,
_De bra
_himself .<br
_imag es.
_low ,
_ev al
_Sp y
_Un i
_fight ing,
_Ar cher
_dra gging
_fail ed.
-l ook
_light hearted
_5 ,
_moment um
_develop ed.
_line ar
_(wh y
_mother s
_Jack 's
_dark .
_New man
_Mc B
_Har il
_list ened
_dr ool
_genre .<br
_par as
_novel ist
-h op
_foot age.
_Ed mund
_ste er
_shock s
_Pl ummer
_gun fight
_usual .
_dest in
_build ing,
!!!! !!
_compl ained
_ve t
_camp .
_camp ing
_odd ,
_cliché s.
_197 0
_197 8
_"L ove
_Sam mo
_danc ing.
_Che ech
_199 5
_cas ino
_sens it
_sens ation
_sens ibilities
_Scott ,
_By ron
_Ang ie
_sick ,
_193 3
_aut o
_commun ication
_relig ion,
_relig ion.
_draw back
_comput ers
_Tra vis
_Tra vol
_194 0s
_accur ate.
_defe nding
_soldi ers,
_presence .
_Angel ina
_Cr imin
_influ ential
_sight s
_Sl ater
_X -F
_rout ines
_Carl it
ium ,
_wise crack
_explan ation.
_intention al
_budd ing
_/>How ever
_possess ion
_Zomb i
_account s
_elect roc
_bal anced
-sh irt
bur g
_Washing ton,
_relief .
_tack ed
ugos lav
_natur ally,
_veter ans
_uninterest ing.
_polic y
_Add itionally,
_nin j
_captiv ated
_outrage ously
_surviv or
_contest ant
_Sher lock
_stunn ing,
_Inde pend
_reward ing
_reward ed
_gentle man
_subsequ ently
_autom atic
_Son ny
_resist ance
_LI KE
_announ ced
_Lion el
_phenomen al
_well-d one
_observ ations
_Kaz an
_detect ive,
_Event ually,
_Shah id
_insert ed
_hospit al,
_Pegg y
_aggress ive
_stabb ing
_recru it
_anth ology
_Myr tle
_compens ate
_salv age
_label ed
SPOILERS ***
_repuls ive
_atroci ous.
_ramb ling
_render ing
_Gret chen
_Tak ashi
_vom it
_compar able
_Cros by
-ind ucing
_Preming er
-or ient
_colleag ues
_Thunderbird s
_Bland ings
_kar ate
pons ible
ornbl uth
_homic idal
_bitters weet
_synch ron
_Azte c
_Daf oe
_Rodrigue z
_Thail and
_sibl ings
_Peckin pah
_bart ender
' n
- 4
/ B
E M
K A
P D
Y ,
_ >
a ft
b les
f ighter
g one
i ator
j ar
l oe
p .
r ud
z a
in i,
_s ane
_w izard
_o oz
er ies
_f old
_f oster
_m ism
ing o
_h unted
an 't
_p udd
ar o
_d awn
as per
_in forms
_l us
_g ard
_/> this
le te
_n ic
ut en
st age
_T in
_on ?
ad el
ad ly,
_he ap
's "
_st ern
_film ed,
oo o
_A ld
_S uff
_S ounds
_S ervice
ke eper
ir ious
_movie ..
_M augh
_M aking
_M ee
_M afia
_M ORE
_( 3
_( sp
_C rit
_C opp
_" al
_" not
_H em
_H ark
_H ilar
_sh amb
_W ant
ers erk
em ons
ak i
_al as
_v aude
_P ed
_P ossibly
_de ck
_L on
_L ock
_L ib
_R abb
_R upert
_ne arest
_F L
_F a
_F ond
_out er
_out cast
_just ice,
_pro verb
_un ion
_E urop
ig ning
_O m
_go als
_fe ast
_she ep
_K ram
_K ornbluth
_time ?
man ship
_ar bit
ice "
_dis d
_ag ony
_say :
_sp r
_V ick
_In f
_br un
_br ick
_ever .<br
_St ri
_St ates.
_sl ug
_U sing
_2 6
_2 7
_under -
_mus cle
_ra vis
_gen ie
_own ers
_tri via
_sub vers
_app et
_Br ooke
_tell .
gg y
_An imated
_/>Th rough
_happen .<br
_found ation
osed ly
_del ic
_super l
_super mark
lud ed
_inter play
_Bl ank
_Bl aise
_conf ines
_creat ed.
_half -b
_talk ing,
_vis cer
sp iring
-f riend
-f iction
_Sc enes
_Sc orp
_ph ones
att on
_comment .
_Re view
_/>B est
_/>B oth
_completely .
_rep air
_money .<br
-w orthy
_"S l
_hope ,
_later .<br
_except ions
_z er
_sw inging
_Man .
_ref us
_trans forms
_Mc M
_relationship s.
_cent uries
_manag ing
_late .
_shoot ing,
_/>D avid
ives .
_Robert son
_sle pt
_Japan .
_ill umin
_forget .
_David 's
che red
_modern -day
enc ing
_feature s.
_apart ment,
_police .
_ten .
_unf unny,
_prot ot
_theat ers,
_land ,
_box .
_197 6
_speak ing,
_/>C h
_villain s,
_figure .
_surv ive.
_roles .<br
_Che ung
_bab e
_setting s,
_cover ,
_(C l
-in -the
_powerful .
_Com plete
_cond es
_cry .
_further .
_charm ing.
_Bar ney
_Mad sen
_Rock y
_continu ous
_fascin ating,
_lad y.
_tort ure.
_Hor se
_western ,
rid ge
_faith ,
_squ ir
_cross ed
_Boy er
_god ,
_lover s,
_Bru ck
_presence ,
_jo ining
_avail able.
_interview ed
_burn s
_Where as
_ast ound
_Hard ly
_du plic
_(W h
_mediocre .
_(G eorge
_Carl os
_compan y,
_sun ny
_"t w
_summ ary,
_depart ment.
_mut il
_Tayl or,
_Did n't
-cl im
_surprising ly,
_explos ions,
_categ ories
_Life "
_bill ion
_finale .
_resol ve
_organ ization
_satire ,
_gru ff
_Gar field
_fac es.
_decade .
_pal ace
_Ha unting
_flo or,
_vol ume
_Bern sen
_particip ate
_cares ?
_sink s
...the y
_everywhere .
_Devil 's
_ANY THING
_Gand h
_distinct ive
_Atl antic
_cook ie
_cheer ful
_Wes ley
_Far rah
_Rand all
_mas och
_pap ers
_traum atic
_Bu y
_Wow .
_occup ied
_ambig u
_engag ing.
_newsp ap
_Jac ob
_Kath leen
_Cry stal
_monst er,
_observ ation
_conve ying
_Silver man
_absorb ing
_Rome o
_mic ro
_Ext reme
_rein for
_Myr na
_Fish burne
_Egypt ian
_Cab in
_Duk es
_Duk ak
_entr ance
_Ew ok
_Nort hern
_Cou ple
_dile mma
_artic le
_Loc ke
_Pix ar
_cohes ive
_thie ves
_angr y,
_abst ract
_/>Mean while,
_maxim um
_Schwar zene
_upt ight
_Debb ie
_Rour ke
& M
2 ),
W AY
Z Z
_ ),
d a
f ty
g y,
h r
h uman
i able
l .
l en
l ad
p al
r ion
t ick
v ation
w ed
z 's
_t ube
_a .
_a uteur
in ating
re ally
_w all,
er rill
_m atur
_m aking,
_b en
it ness
_h ollywood
ll i
_p ier
_p ounds
_p arrot
_d ar
_d iving
_I v
_g athered
_it !!
_T N
_T omb
_re plic
ow .
ow itz
se y,
_st ation,
_st oop
id es.
_A aron
_S ig
_with d
_B unch
_B abb
_B rett
ur assic
_li z
_but chered
_M o
_M ul
_M ob
_( *
_( app
_C ody
_C ena
_" just
_sh ud
_sh rill
_sh rew
_ch im
_j ury
_ex uber
_one -s
_P hy
_P ope
th ood
_L is
_L omb
_R an
_R izz
_wor ms
_F an
_int est
_con vert
_G ir
_me ga
_pro ced
_O ce
_O ften
_tr ite,
_get s.
_fe ud
_would .
_there of
_story -t
nt on
hing ed
itt e
_him !
_even ing.
_per verted
ci er
_cl ut
_cl oth
are ly
_qu aint
... it's
_people ?
_ro bbed
_direct ed.
_us ed,
_off -screen
ob ia
_fl ower
_fl ows
_Wh y,
_But ch
_life !
_ent ries
ip ed
_br ush
_St ro
_hor iz
_sl ob
_gr itty,
_inc ess
_/>A side
ail ed
_set -p
_enjoy ,
oc key
_young er,
-- this
_/>T HE
_turn s,
_around .<br
_funny ?
_high -school
_cons p
_co al
_co aster
_el ite
ret ooth
_TV 's
ec utive
_add iction
_mind set
ph one
_super flu
_inter lud
_boy s.
_De f
_half -hour
_For b
_left ,
-f est
att i
_comment ary,
_Re gin
_mon str
_dra in
_tit ill
_/>O kay,
_ret reat
-w ord
-d ep
_7 /10.
_hero ine,
_humor ous,
_talent s.
_sw ift
_sw itches
_THE Y
_dr ummer
_moments .<br
_"B ig
_bra v
_deal .
_fig ure,
_inf idel
_"I 'll
_Brit ney
_"A t
_sn iper
_fore bod
_prof anity
_move ment,
_Gr udge
_var iation
_Pl ace
_gun ,
_possible .<br
_Tom atoes
_sign ature
_middle -class
_Dis ney,
_land .
_camp us
_German y,
_Con nie
_"L ittle
_suff ice
_mix es
_(s omething
_Most ly
_law ,
bor ah
_sens ibility
_Mart in,
_"G od
_/>R ichard
_grand p
_occas ions
_di abol
_Gl oria
_solid ,
_idi oc
_brain w
_escape ,
_breat he
_Mon keys
_rob otic
_encou raged
rel k
_Smith 's
_execut ion.
_program me
_Movie "
_test ing
_Ro ach
_artist ,
_Boy ,
_magic ian
_mult i-
_immediately .
_bomb s
_affair s
_lif el
_Part icularly
_sport ing
_damn ed
_Hol ocaust
_childhood .
_irrit ated
_youth ,
_den ying
_notic es
_sun k
_animal s.
_round s
_anymore ,
_lay s
oney moon
_kidn aps
_pen et
_elect ronic
_Er nie
_Te am
_freak s
_rul ed
_stink s
_struct ured
_Jan et
_necess ity
_unfold ing
_fac es,
_environ ment.
_Master son
_log ic,
_contribut es
_uncle ar
_/>First ,
_Bon nie
_controvers y
_Comp ared
_Wend igo
_fantas y.
IR L
_Flor id
_scr atching
_lift s
_fet ched
_Amaz on
_showc ases
_vi be
_partn er,
_Simp sons
fall s
_cha otic
_Cann es
_Shep ard
_plague .
_absorb ed
_mort al
_pa ired
_climb ing
_transport ed
_AW AY
_Soph ia
_instinct s
olit ical
_prol ogue
_unst able
_monolog ue
_clic hes
_Burg ess
_ludicr ous.
_Interest ing
_plod ding
_TW O
_/>Ne xt
_Tot ally
_tact ics
_Tele vision
_Hend erson
_perman ent
_cos m
_rabb it
_Screen play
_censors hip
_laun ched
_handic apped
_overb earing
_TIM E
_Berke ley
_Doy le
_Fassb inder
_Clare nce
_Sarand on
_obstac les
_Iturb i
_Sebast ian
_MacM urray
_catal og
_beautifull y.
gob lins
_Rena issance
_Dw ight
_Faw cett
_Krue ger
VO ID
_fier y
asqu atch
_overwr ought
_Farn sworth
_resear cher
_Bogdan ovich
_anach ron
_Kust ur
_ravis hing
( s)
- at
/ H
C A
D Y
E :
H .
K O
P T
b eth
c al
d aughter
f ig
f ting
h t
m y,
o ard
o pping
p ond
r iter
r ano
w an
w ind
_t id
_s plic
re ep
_w ielding
_o we
_f ile
_f urious
_b ars
_b ones
_b achelor
it he
ing )
_c g
_c age
_th wart
_h oly
_p ressed
ar ie
ed ge
om ,
_I R
_g ust
_g olf
ot .
_be ard
_T el
_T urt
_T otal
_re ass
_re new
ion "
_st oic
et ween
_for ?
_A H
_The lma
ri age
_B ul
_B ishop
_M ut
_M akes
_M ik
_not ?
_( rem
_C ross
_C AR
_C OULD
_" my
_H AS
_sh ack
_sh oved
_sh rie
_ch alk
_ch ampionship
em on
em ale
_sc ru
_sc attered
el come
ies .<br
ak in
us sy
_P ure
_P ry
_L one
_J O
_N ab
_N av
_pro jection
_char ges
_un he
_E at
ig ans
_tr amp
_see .<br
_see ing,
_K os
_K ats
_watch able,
_other s.<br
_other wise,
ink s
_cl an
_cl ay
ment s.
ade qu
_im ple
_will ingly
_play ful
_play ers.
_play boy
_ad renal
_Y am
_Ch ance
_Ch ainsaw
_' 3
iz ation.
_plot ting
_te ch
_where ver
ip her
_St iles
_sl aught
_min e,
_under cover
_Al as,
_actually .
_origin s
_own er,
_ke ys
_sub -gen
ically .
_screen ed
ib be
ons ense
_Sh ield
_/>Th ose
ism .<br
_happen ing,
_happen ings
ah an
_We aver
fin ished
_port ions
_follow ers
land o
_For bidden
_So on,
_Re ve
_sch izophren
_4 0's
_mess ing
_loc ation,
-l ist
_given .
_cra wl
_cop s,
_7 4
_develop ed,
_reg ime
_mention ,
_picture s.
_trans vest
_kids '
enn ifer
-s ized
_fine ly
_Is n't
_Is lam
_actress es,
_inf uri
-h orror
_etc ...
_sn iff
_effort s.
_break through
_Ke it
_produc ers,
_shown .
_dev otion
_season s,
_touch .
_respect ,
_ve get
lin 's
_none x
_Con ne
_question s,
_"L ost
_Sam my
_Ben o
RE AM
_express es
_tast es
_cartoon ,
_/>R ec
_Ex periment
_$ 5
angu age
_Mac L
erm ott
_Mat te
_offic ially
_commun ity,
_rich ly
_symp at
_further ,
_control s
_Ir ving
_satisf action
_recently .
_auth ors
_Tra il
_fascin ating.
_imagin ary
_luck ily
_bother s
_194 5
_cru ise
_sci -f
_(al beit
_cross es
_def y
_Earth "
_absurd .
_dad dy
_"b ig
yl on
_"E l
_pil ots
_Phil ipp
_key board
_du el
_represent ing
_scare s,
_Bas ic
_invent ion
_host ile
_div ided
_mouth s
_contem por
osh i
vol ent
ste in,
_Win ner
_aware ness
_contrast ,
_purs uing
_bland ,
_progress ion
_'S t
_belief .
_tick ets
_earn s
_incre ase
_mob ster
_Hart ley's
_confront s
_sword s
_tack le
_obsc ene
_fare .
_Hay es
_Long oria
_Ev ans
_fund ing
_myth ical
_gross ly
_cand le
_laughter .
_tap es
_nin ety
_surface ,
_contest ants
OP LE
_distinct ly
_painting s
_outd oor
_Alt man's
_princip als
_Ma e
_announ ce
_enorm ously
_tow er
_explod es
_preach y
_boredom .
_maintain ing
_Brid ges
_Miike 's
_Cre asy
_Gabr ie
avor ite
_Made leine
_premie red
_upd ate
_/>Every thing
_(most ly
_winn er.
_misunder stand
_Fore st
_crook ed
_"com edy
olk ien
_plag ued
roy d
_divers ity
_voy eur
_gloss y
_Rad io
_hench men
_condem ned
_energ y.
_formul a.
_unimagin ative
_Jed i
_memb ers.
_/>Act ing
_self-d est
_nam es,
_Minn elli
_WT F
_traff ic
_self-indul gent
_caut ion
_newcom er
_Palm a's
_Yok ai
_unleas hed
_cem etery
_vary ing
_coc aine
_Thur man
_Surv iv
_Isab elle
_nom ine
_Fein stone
_Episod e
_manif est
_re-m ake
_mech anic
_Forsy the
-spir ited
_Duchov ny
_Zel ah
_t. v.
_Kins ki
_PE OPLE
_Zod iac
_Busb y
_stal wart
_slaught ered
- 10
? ,
? ".
F i
O S
S ulliv
W e
b ling
f rom
g re
i ated
r us
x y
y ing.
z es
z e.
_t attoo
_a )
in i's
_the sp
_s ack
_w oo
is s,
is ed.
is on's
is cher
_f uss
_m ine.
_b io
_b imbo
at ical
_c unning
_c ooper
or gan
_th in,
_h arb
_p awn
_p izz
ar a's
ar ters
_in b
_l ure
_l aser
om as
_is !
_g ris
_e ast
ot ch
st er,
_be ?
_T all
_T aking
_T olkien
ie th
_re -c
_on going
se nd
_st ance
_st omp
_S aur
_ha ph
ur st
_M ot
_M and
_M andy
_( is
_( br
ter 's
_C ah
_" br
_" action
_H anz
_W ANT
_W ords
_D h
_D ann
_D uc
_D urb
un ct
un ce
_fr at
_sc am
_sc ra
_who re
_one ...
_k ib
_so re
_com ing.
_pl acing
_v apid
_de er
ist ered
_L ange
_R est
_R aid
_R udd
ast le
_F RE
_F inn
_out f
_r idd
_J UST
_her s
ory "
_N oon
ig e
ig ator
ig an's
_le gends
_up ro
od a
_K or
_K ord
_show !
pl us
_cl one
_cl oak
ap art
_look ing.
_over se
_im b
_pre acher
_pre fers
_movies !
_Y ak
_bl oke
_fl ame
_fl ames
_fl owing
iz e,
_year .<br
_back wood
_des k
_St ay
ens on
ens itive
_sl ugs
ru ce
_spe lled
_kill ers.
_Al i
_sur rog
_res um
_ra id
_ra pp
_few er
az i
_tra ve
sh oot
_exce ls
_original .<br
_need ed.
_enough .<br
ib ly,
ash buck
_laugh ter,
_sex ist
_Sh op
_/>Th ank
ov ies,
_el oqu
_mean s.
_/>S e
ither sp
_inter ven
_second s.
_talk .
_vis ion,
_star let
-t w
_bor rows
-f oot
_Sc he
_ele ction
_ele cted
_dist rict
_Christ ie
_Re ese
_Re agan
_event .
_Mar isa
_hist rion
_stud io,
_loc ate
_exam ine
_count s
_count ing
_favor ,
_hope ful
_viol ently
_awful .<br
_budget s
ax i
right ,
_Se uss
_Se gal
_mis fire
_Car m
_(wh ose
-p oint
lish a
enn ium
_dem ol
_dr astically
arb ara
_stra in
_win .
_famil ies.
_Or well
-up s
_break fast
_prof it
_200 8
_cheap .
_Pet erson
_ang er,
_treat ment.
_pot ent
_plan es
_Me "
_sister 's
_intellig ently
_Oscar -winning
_prot ective
_adult ,
_/>P lot
_cliché ,
_spir al
_197 3
_question s.
_198 7
_speak ,
_Pr ide
_standard .
_Ben ny
_199 4
_199 0s
_"R eturn
_cartoon s,
_/>L ast
_dramatic ,
_Sim on's
_offic er,
_purp oses
_193 9
berg ,
_jour ney.
_circ a
_"s pecial
_Bra vo
_hom oph
_ident ified
_di pl
_Ser iously
_Kell y,
_incredible ,
_encou rages
_tort uring
_tort ure,
_monster .
_Afric a.
_"O h,
_Mel ody
_affect ing
_194 4
_fake ,
_Fin ney
_ST R
_intrigu ing.
_pie ces.
_Mur iel
_doctor 's
_lover .
_narrative ,
_warn ed.
_outstand ing,
_Ag ath
_proper ly.
_protagon ist,
_trick ed
?! ?
_location s.
_forever ,
_knock ing
_fest ival.
_path s
_bi opic
_tem por
_motiv ated
_crowd ed
.A nd
CT ION
_(K e
_Sus p
_interpret ations
_struct ure,
_theatre ,
_proceed ings.
zan ne
_determ ination
_Jan e,
_manipul ation
_manipul ate
_/>Y et
_appl ause
rie m
_bond age
_bound aries
_myth ology
_Rod ney
_spin -off
_# 2
_increas ing
_surface .
_dynam ics
_everywhere ,
_ade pt
_McD ermott
_hip -hop
_chuck les
_Geor gia
_environment al
_AL ERT
_trap s
_arrog ance
_hipp ies
_consum ed
_Scar face
_drown ing
_engag ing,
_cere mon
_Jer sey
_ramp ant
_Muslim s
_Verhoeven 's
_Scooby -Doo
_uniqu e.
_Aw ful
_half- way
_Valent ine
_Fant astic
_ax e
_Kn owing
_prol ific
_energ y,
_obliv ious
-le vel
_ling ering
_soci opath
_riv als
_compris ed
_Jol ie
_Zh ang
_curt ain
_unattract ive
_retrie ve
_Sentin el
_Dreyf uss
_Romer o's
_Fairb anks
_vigil ante
_Mast ro
_orde al
_inexper ienced
_Pyth on
_thirt ies
_Pav ar
_Ade le
_Zeal and
_black-and- white
_ghast ly
_Gack t
_hars h,
_bloods hed
" ).<br
( s
- Y
- en
- it's
. 00
/ W
1 ),
8 ),
A ,
A K
E E
P ER
T Y
_ !!!
a unt
b ie
g ood
h ou
i ates
j ack
p en
y ing,
_t ones
he ther
in qu
in ous
is "
_f ires
_f ias
_b )
_b ats
it ors
at s,
_c aval
es h
es e,
_d ense
_d vd
_l ous
_l ap
_l ull
_I zz
_is )
_g yp
_g ossip
_/> 2)
_/> 5.
le man
ot hel
_n ifty
il .
_T un
_T OO
_re j
_that :
ow 's
ent ing
_wh ip
_st ature
_st reak
id er,
_for ced.
_film ing.
_se as
_The odore
_ha irc
ri o
_B Y
ur v
_M is
_M ull
_M oney
_we ary
_C ause
_H orn
_are .<br
_sh iny
_W ithersp
_ch ops
_ch ocol
ul ars
_D ialog
_D aughter
_D ressed
_D ynam
_who 'd
_all ey
_v it
_P ir
_P oir
_L DS
_R it
_R ou
_R ating
_F ed
_r ousing
_G y
_G ert
_G arner
ate ll
_E ight
ig en
_O VER
_fe ared
_there after
_per me
_per sec
ci pe
_cl unky
man u
man y
our ge
ap hys
og en
_play ed.
_ro d
_ad or
_dis par
per ing
ry ing
_am ,
_character isation
_sp or
_want .
_V ac
iv ed,
_He ight
_br anch
_here ).
_Al m
_pr one
ock et
_fact or.
_down ward
_belie ver
_ob jection
_got .
-- it's
_rel ates
_comple ment
_need lessly
ash ,
_kind ly
_action s,
_role )
_tell ,
", '
_come ,
_Sh awn
_Sh annon
_book .<br
ov 's
_since ,
_Fr anch
_mean ing,
umb led
_course )
ex cept
_DVD .<br
-m odern
_All en,
_ev ac
sp ersed
-t urned
-f ree
_Sc ript
_sing ing,
_mar ij
_mar vell
_mon aster
_/>B r
_Z u
_Mar jor
_disappoint ment,
_beh alf
_beh aves
_mess .<br
_ret ro
-w ise,
-l oving
_ass ort
/10 )
_gra in
_rom ances
-d ro
_reg ain
com ed
_strong .
ump y
_New com
_/>M ore
_support s
_example :
-s m
_list ,
_deser ved.
_today s
_prom oting
_effort s,
_effort lessly
_dream ,
_mot ions
_"M oon
_result .
_Ke y
_Ke anu
_ste aming
_sequel s,
_pleas ure.
_sent ences
_age nd
_order .
_suspense ful,
_comic -book
_country 's
_mark et.
_odd ball
_197 7
let t
_question :
_above .
_adapt ation,
_Ph antasm
_met aphys
_comb ining
_prop os
_US .
_post -war
_iss ues.
_free ze
_murd ers,
bor ig
_/>L et
_oper ating
_oper a,
_Mac G
_Fl av
_Christmas ,
IS H
_: -)
_neg ot
_circ les
_accident al
_Great est
_196 9
_brain .
_Pro blem
_believable .<br
_stereotyp es.
_sweet heart
_Bro ken
_II ,
_drug s.
_ball oon
_doll s
appe ar
_Mel bourne
_suc ce
_"N o
_Movie ,
_Fin lay
str asse
_pow ers.
_(al most
_somewhere ,
_accur ate,
_college .
_repl acing
_(P eter
_Em my
_drunk ,
_ast ounding
_noir ,
ss ession
_represent ative
_fault .
_melodram a,
_hook er
_race ,
_desert ,
ste in's
_gri pp
_(d id
_buff oon
_McC l
_der ived
_product .
_chas es,
_pretent ious,
_Lind sey
iver ance
_Western s
_ic y
_determ ine
_ner dy
OL D
_Coll ins
_educ ated
_therefore ,
_inh uman
_shop ,
_Thank fully
_associ ate
_reun ited
_Cast ro
_unrealistic ,
_Kh ouri
_rot ting
_ideal istic
_distribut ed
_unconvinc ing.
_emphas ize
_Kore a
_incident al
_concent rated
_Wor se
IR ST
_scale .
_hill s
_toler ate
_Gi allo
_*** SPOILERS***
_fu zzy
_Mic hel
_Dep ression
_assign ment
_relax ed
_illustr ate
_cance led
_filmmak er,
_mas quer
_sket ches
_alright ,
_admir ation
_imit ate
_imit ating
_bik er
_Eastwood 's
_lur id
_dang er,
_Tob e
_reluct antly
_Ten ant
_tool s
_rebel s
_ech oes
_Ext ras
aith ful
_candid ate
HA HA
omm el
_overt ly
_atroci ous,
_Scarlet t
_/>Second ,
_Ts ui
_Und ert
_Hust on
_transpl ant
_lux ury
got ten
_dope y
_Dent ist
_inspect or
_Marce l
_helm et
_oversh adowed
_Toky o
_bure au
_Govern ment
_"plot "
_Chib a
_whims ical
_Kirst en
_recur ring
_imprison ed
_/>Techn ically
_reven ge,
_Scare crow
-blood ed
_Lope z
_prolong ed
_exh ilar
_Portugues e
_Slo ane
_Vincen zo
_espion age
riem hild
_fias co
( A
- art
- way
I X
I Z
L .
M .
M E
O G
P E
P LE
j an
p ool
r ame
t ub
u ating
v ice
w ord
w arm
_s au
_s ession
_w ings
_f isher
_b ench
ing e
_h ick
_p od
ar "
_d ia
ed ited
as ks
_l ac
_g ently
ot ism
ut t
_T am
_T rist
ie re
ad le
im my
_st abs
ch and
ch anted
_film ing,
_A ie
_A borig
_S ort
_se min
ir i
_movie ....
_B av
_B ann
_B EA
_B alt
_B -M
ur able
_M oss
ra zy
_not ing
_not ions
_( 4
_( Z
_C ame
_C oop
_H opp
_H OUSE
_sh ar
_W ent
pe lled
ul ed
_D ue
_j an
ain "
_one :
_all )
ant i
_ab ort
ak er,
ag s
ag ging
ol ini
_v .
us '
_P im
_P ublic
_P rem
op old
_L '
_L E
_L iv
_L ola
_F reedom
_r ar
_r idden
_con tend
_G h
_G oes
um acher
_me al
ive "
_N ir
os ity
_un intellig
res pond
_up beat
_go dd
ore .
_K ing.
_K ING
_per ceived
pl an
pl es,
_them es.
_kn ack
are ,
_pe e
_pe ek
_qu ib
_ar row
_play ing.
_dis gr
_seem s.
_Y u
_Ch an's
iz ation,
_plot s,
_want ,
_V ide
_V CR
_He avy
_He ck,
_back !
ult ural
_somet imes.
_sl ips
_under c
er, "
be zz
_cr ass
_gen etic
_supp orter
_director s.
-- which
** t
_right .<br
_script ing
_action .<br
_As ia
_reason .<br
_cons umm
_rev ive
_care ,
_3 :
_art icul
_found .
_Fr an
_let hal
a. "
_We iss
ality .
_boy s,
_All y
-t im
_American s,
_Sp ade
_sing er,
_mar red
_home .<br
_mon ks
_mon keys
_Z eta
_human ity,
_Ar nie
_wrong ly
_idea .<br
_loc ale
_8 5
_8 0s,
_light weight
_cop y,
_hope .
_5 00
-d rama
_z one
_sw earing
_sw ashbuck
_face .<br
_Car us
_name )
_Jack ,
_ref und
_waste .
_success ion
ows ki
_tou g
_self ,
_self -p
_pur ple
_master mind
_eff icient
_side walk
_mor als
_bra wl
_deal er
_inf at
_contin ent
_cinemat ographic
omin ated
apan ese
ON D
_Paul ine
_shock ,
AR Y
OR T
_unc onscious
_ill usion
_lar gest
_moder ately
_disc onne
_Ad ventures
_"T itanic
_parent s'
enc y.
_feature -length
_Oscar ,
oe b
_check .
_/>P eople
iest ,
_German y.
_"L ook
_198 6
_198 9
_secret .
_suck .
_ru gged
_/>C he
_prop he
_clim bs
_(J on
_dru gged
_express ing
_murd ers.
_Night "
_(w ell
_overall .
_Good ing
_forward .
?) <br
_cover .
_cover age
_195 9
_spirit ,
_Film ed
_rich ,
_requ is
_Mad onn
_(R e
_travel ed
_Rock ,
_trip .
_continu ously
_Mon a
_Park ,
_trouble ,
_"O ne
_fat ,
_194 0
_Cor le
_deliver .
_O' Too
_loud .
reg or
_accent s,
_camer aman
_god -awful
_well- acted
_lover s.
_serial s
_bomb ed
_ord in
_Cr ouse
_subst ance,
_student s,
_ship ,
_ast ute
_re- re
_Story "
_spl ash
_Hol t
_WW 2
_WW I
_award ed
_Mexic o.
_/>U ltim
_oppos ition
_fest iv
_fict ion.
_race .
_personality ,
_rat io
_desert .
_boss es
_70's .
abr isk
_strength s
_pair ing
_food ,
_11 ,
_ted ious,
_smile .
_Lind y
_freak ed
_Columb ia
_context .
_contri ved,
_deserved ly
_manipul ated
_/>Not hing
_marry ing
_spectacular .
_subtit les.
_/>Then ,
_mask ed
_Tri ple
_Dem on
_Dem ons
_trilog y.
aver ick
_fairy t
_betray ed
_authentic ity
isco vered
_mock ery
_dollar s.
_profound ly
ethe less,
_enh ances
_irre ve
_dent al
!!!!!!!! !!!!!!!!
_concentr ates
_ped oph
_worry ing
_filmmak er.
_puzz led
_BL ACK
_outs ide,
iffe rence
ocr atic
_ambig uity
_rhy me
_sche ming
_Hug o
_carn age
_/>Be fore
_replace ment
_Res ident
_Craven 's
_Low e
_reli ed
_/>Unfortun ately
_stair s
_afterward s.
_Try ing
_sales man
_prev alent
_Op rah
_Blond ell
_upl ift
_Viv ian
_gest ure
_gest ures
_distingu ished
_condem n
_Dill inger
_Miyazak i's
child ren
_non-exist ent.
_tomat oes
_Syl via
_libert ies
_confir med
_complic ations
_flee ing
_Cort ez
_Cinemat ography
_scenari os
_morn ing,
_/>De finitely
_constra ints
_motorcy cle
_robb ers
_O'Ne ill
_turt le
_pomp ous
_Bau er
_Chead le
_gravey ard
_monoton ous
_Buse y
_Batt lestar
_furnit ure
_Admitted ly,
_extraordin arily
_sincer ity
_Hoo ver
_Lub itsch
_urg ency
_"horror "
_Cul kin
_Haril al
adel ph
_brun ette
_Phy ll
_assort ment
_disgr unt
abrisk ie
' nt
( L
( ?)
- li
/ G
2 00
E l
I CE
I OUS
O r
O ne
U n
_ 00
c ogn
f olk
l ene
m aking
m ony
n ames
r é
r ine
r anc
r unk
s mith
u ros
z e,
_s ap
_s atur
_s omber
_w ine
_w aking
er able
nd e
_f odder
_m a
_m ates
_b ash
at rix
ing le
_c ert
_c ooking
en ne
es que
or is
or ry,
on .<br
_h ast
_h unky
an im
_p inn
ar ad
ar my
_d ial
_in adequ
_l ists
_g room
_it !<br
_T ol
_T erminator
ve t
_mo le
_re cipe
ow a
im ony
_st u
et "
et e
et ers
_A x
_A VOID
_S way
_S we
_S ense
_se at.
_ha b
_B h
_B amb
_M ich
_M ER
_not or
ill es
_( now
_C irc
_C BC
_" sex
_H il
_H ul
_H ess
_H osp
_H IV
_sh ady
_sh *t
_his /her
_ch ip
_ch ainsaw
_ch amber
_D uff
_D ury
_who d
_all ?
ant a
ant ine
ag ers
_P P
_P opp
_P enny
op ular
_L ara
_R ath
_like able
_r ust
_G ino
_G onz
um ing
_N ell
os yn
_pro d
_un quest
_E lean
_le aps
_good -natured
_any .
_man .<br
_fe et.
_1 :
_1 000
_K iss
_K rish
itt o
oy ,
ick ering
our s
_end ed.
ing, "
_ar ty
ac ed,
... what
... well
ear s
_dis rupt
per ate
_direct -to-video
_real ism.
_us ed.
ish i
ng lish
_sp otted
_sp arse
_Ch ill
_Ch loe
_' V
_fl ipping
_plot ?
_V ar
_V ern
_ser um
), "
_In v
_He ather
_br ink
_br ides
_it. "
_St op
_St olt
ia )
_kill ,
_fam e,
_cr ud
_dec onst
_ra ging
_comp ound
_long .<br
_tri ple
_turn .
_app oint
_script writer
ness "
app ro
app y,
_kid die
_mom ,
_Sh ol
_Sh ock
_begin s.
_sound s,
_inst ruction
ros s,
_/>S ure,
_place ment
_surpris es.
_inter min
_gl amour
_recommend .
_De cember
_All an
ix ed
_Sp oiler
_ele vate
_dist orted
_comm ander
_comment ,
_Re b
_Ste fan
_/>B esides
_Z ER
_fight .
_fight s,
_fight ing.
_lack ing.
_sch m
_beh aving
_Ar ound
_version .<br
-b ox
_4 )
_defin ing
_/>O r
_stud ent,
_Well ing
ug itive
_form id
_form at.
_(and ,
_slow s
_cut ,
_mis chie
com pass
_impress ed.
_impress ions
_mention ed.
_dark ly
_Some body
_pur se
_/>F inal
OT HER
_today .<br
_stars .<br
_cult ures
_opp onent
_consider ation
_others )
_May or
_predict ed
_"M idnight
_ste pped
_pos it
rack er
udd y
_treat ing
_unc ont
_disc ount
_narr ation,
_dest ructive
_girls '
_colle ge,
ron ting
_mad man
enc es,
_straight ,
_straight -to-video
_eyes .<br
_adv ances
_victim ,
_period s
_198 8
_adapt ation.
_suck ing
_(M ar
_villain s.
sw orthy
_wood s.
_Che vy
_eye -c
_cas ually
_Gu ys
_ment or
_Sch mid
_$ 7
_` A
_(C hristopher
_battle .
_(D e
_gay .
_invest ment
_cry stal
_shame ful
ipp y
_scient ist,
_di ver
_scream ing,
_Pat ty
_Bar on
_Mad ison
_slasher s
_stereotyp ed
_suit .
_opportun ity.
_encou rag
_roll s
_ground breaking
_mood ,
_bother ing
_squ and
_clot hes.
wr itten
_approach ,
_seg ment,
_dig ging
_force .
_conflict ,
_repl ies
_Ab u
_18 th
_boyfriend .
_West .
_Sl ow
_teacher ,
_/>Wh ich
_gorge ous,
_Ap ollo
_era .<br
_dread fully
_din er
_edge .
/2 00
_consist ed
_lay ered
AL K
_bank rupt
_ver dict
_grad uate
_product s
,000 ,000
_target s
_ted ium
_impl ies
_/>St ory
_chore ographer
_struct ure.
_Co ast
_convent ion
_unnecessary .
_safe ,
_Harris ,
_Gord on,
_protect ing
_section s
_syn c
_Hay ward
_Moore 's
_term s.
_/>Un less
_emp ire
_pal p
_BE ST
_da ft
_Sn ipes
_Victoria 's
_rival ry
_cring ing
_betray s
_presum e
_fame .
_toler able
_weekend .
_stumb ling
_politic ians
_Beaut y
_Sher ry
_libr arian
_(l iter
_happiness .
_Die go
_psychiat ric
_iron ically
_pap er,
_traum a
_border line
_DE ATH
_cock tail
_styl istic
_Book er
_Bros n
_Fay e
_perpet r
_dang ers
_satisfy ing.
_Run ner
_monst ros
_inaccur acies
_sacrific es
_gar nered
_Mach ine
_obser ve
_Four th
_Ultim ately,
_Chic ag
_tab les
_mirac ulously
_Hung arian
_bew are
_"He y,
_stir ring
_surpass es
_shameless ly
_Shin -a
_sched ule
_recre ate
_surre nder
_abund ance
_Gersh win
_Hain es
_tunn el
_Wol ver
_Olymp ic
_/>Gr ade:
_Giov ann
_Nap ole
_vign ettes
_discern ible
_coff in
_O'C onn
_Entertain ment
onsci ously
_Miam i
_acad emic
_unde velop
_/>9 /10
_Stephan ie
_prejud ice
_raunch y
_mand atory
_Mead ows
appreci ated
_Vaugh n
yrin th
_Soc iety
_raz or
_unrem ark
_viscer al
_gris ly
_dipl om
_spor ad
_mischie vous
( !)
- ro
- per
- age
- known
/ P
9 ),
F O
I EN
W ,
W h
b ber
c y,
e y,
f le
f ish
h off
h ole
i h
m ade
o i
r ance
s ide,
w ich
w ick
w atch
w ald
z omb
in a's
_the ft
_w /
_w oven
_f ate.
_m ice
_b out
at ten
_c ine
_c ater
_c ulp
en z
es sel
_th ri
_h id
_h ats
_h alt
_h obb
_d ive
_d ual
as "
as ic
ic es,
_g oth
_/> h
ut ting
il es,
_T ale
_T rent
_T iny
ad venture
ith g
_S it
_S le
am ple
_se ed
_se ats
_movie -
_movie ),
_movie !!
_B U
_B ing
_B erry
_B AS
_but ter
_but ...
_M ister
_we ep
_C R
_H az
_H ands
_H ELL
_W ave
_D ex
_fr am
_sc ree
act ica
ant ically
_ab oard
ak ens
_by -the
us ed,
_P ulp
ist a
ist y
_L ot
_R ig
_R hys
_R IP
_F light
_F och
_out look
_out ta
_r anc
_int rospect
_G ena
_me "
_un rel
_un natural
_un origin
_O cc
_man "
_man g
ong ru
_tr ou
_up :
_she ,
ure ly
_K ud
_K ab
_time ;
_cl ick
_did nt
are n
_end ured
ade .
_over l
_play s,
ing. "
_pre -c
_ro gue
_ro bbing
ne g
ne ed
_know led
_tw ice.
_dis fig
_ag g
_first -time
_am ok
ile en
_fun ky
_wr ath
aw a
_say ing.
_sp oon
_sp ider
_sp itting
_sp aghetti
_Ch ina,
_' in
_V ert
_year ning
_two -dimensional
_He ctor
_many .
_br othel
_St ra
ens ed
we gian
_find ,
_sl ipped
ia o
_imp ly
_point ?
_cr us
_mus h
_che at
ock ,
_em bezz
_/>T om
ub tle
_sub mit
_sm itten
_sm arter
_actors /act
_original s
_can't .
_world w
_She ets
_high way
_You T
_things :
_things .<br
_ep ics
_ep ic,
_minut e,
_Fr ance.
_10 .<br
_John 's
_del ve
_We ird
_rest s
read y
-m aking
-m otion
_gl ance
_second s,
_imag ery,
_vis ion.
-f act
_exc re
_nice ly.
.... .<br
_ele ph
_Be etle
_sk ipping
_Z ato
_human s.
_stupid .<br
_stupid ity.
-b reaking
ier 's
_fail s.
-w all
_count ed
_gra vity
_favor ite,
_7 3
_7 00
_7 0s.
_full -length
_Le opold
_sw amp
_cut .
_close ,
_Car on
_Car face
_No am
_No ir
_trans m
_adm ission
_performances .<br
_Har p
_cor respond
gu in
unt il
_Michael 's
_myster ious,
-h uman
_Dan ie
_prom ise,
_"A ir
_"A li
_/>D irected
_sn ail
_mot el
_famil ies,
_Or lando
_prof an
_thinking ?
_Gr ade
_shock ing,
_"H ome
_alone .<br
_known .
_filmm aking
_Me at
_Tom lin
_"T w
light s
_twist s.
_swe eping
_exist ing
_sexual ity,
_adv ice,
_victim .
_Pr ime
_attack .
_Su zanne
_tre acher
_wit ,
_(J ul
_/>E ye
_los s.
_bab es
ES ,
_screenplay s
_sudden ly,
bor gs
_meant ime,
_oper ate
_fasc ist
_grand daughter
_lim b
_appeal ing.
_band ,
_imm ersed
_imagine .
_jour ney,
_marri ed.
_Gold sworth
_Gold sworthy
upp et
_porn .
_idi osyn
_successful .
_conclus ions
-n oir
_Big foot
_Dead ly
_soul ,
_Van illa
_pract icing
_Cor p
_Cor por
_O' Sulliv
_artist .
_govern ment,
wr iting
_author 's
_road ,
_note :
_dig est
_teenag er.
_narrative .
_curi ously
_conflict ed
_Sw itzer
_system ,
AD Y
_Harry 's
_(T his
_bod ies,
_influ ences
_Where 's
_sight .
_film-m aking,
_thank ful
_thor ough
_Mus ical
aly st
_vampire s,
_gorge ous.
_disgust ing.
_Bas il
-sc enes
_host age
_div ine
_achieve ments
_disaster ,
_hook ed.
-M art
_gri ps
_Shakespeare an
_believ ability
_deg rees
_crack s
_ic ons
_memories .
_finale ,
_circumst ances,
_sake ,
_Lew is,
_Bet ween
_Lat ino
.5 0
_altern ately
_SH OULD
_Sinatra 's
_recall s
_tape ,
_"l ove
_handsome ,
_flow ers
_pal m
_prevent ed
_Mir a
_sharp ,
_Clark ,
_spin ning
_Dar ius
_amateurish .
_Cle vel
_enthusi ast
_NE W
_anti -clim
_Mod ern
_overwhel med
_ly rical
_fix ed
_Wall ach
_spark s
_jeal ousy
_toler ance
_"You 're
_yell s
_network s
_wrest ler
_gam ut
_nu anced
_Under ground
_concentr ation
_illustr ates
_fulf illing
_function s
_Spielberg 's
_Veg a
_adequ ately
_preach ing
_official s
_decl are
_burst s
_Conn or
_jack et
_Harr on
_wann ab
_collabor ation
_Row lands
_astonishing ly
_bless ed
rave heart
_gall ery
_contempl ate
_"bad "
_Fant asy
_salv ation
_voy age
_desired .
_hench man
_distingu ish
_Ah mad
_'6 0s
_irres ponsible
_towns people
_dod gy
_expand ed
_Cart wright
cip her
_dile mm
_Comb s
_hesit ate
_chronic les
_tomat o
_AF TER
auc as
_awaken ing
_inconsist encies
_hug e,
_spont aneous
_empath ize
usp ense
_quirk y,
_enchant ing
_gor illa
_hitch h
_fift ies
_scant ily
_Benj amin
_ost ensibly
_perce ive
_Vien n
_Gov inda
_flamboy ant
_Ari z
_Cly de
ITT LE
_Nove mber
_Kilm er
_irr ational
_artif act
_Suff ice
_proverb ial
_disd ain
_shud der
manu elle
_dia lect
_requis ite
' <br
( P
* ,
- room
- related
- perfect
/ R
/ st
5 ),
6 ),
C ,
C h
M ENT
P S
T ING
_ ...<br
g am
g ang
m ovie
n y,
p anic
_t ep
_t read
_t able,
_t urb
_a ce
in a.
_w reak
_w atered
_o unce
is ney
er g
er ious
_m ermaid
_b ark
_b ury
_b -movie
at uring
en act
_h uh?
ll ess
_d ime
_l ament
_l oner
_I g
_g roc
_n av
al ong
al anced
st orm
st asy
_it ?<br
_T amb
_that ...
ad der
ent ious
im il
_this ;
_wh ist
_st ap
_st ate.
_st ares
et ary
ch al
_was hing
_A ut
_A ra
_u ber
_S M
_S ug
_S aving
_se ar
_ha ired
_B ake
ur f
ur y,
_M ant
_M az
_M ord
_M unch
_M ummy
_we aves
ra f
ally .
_( other
_( here
_C oc
_C illian
_" look
_H ed
_H azz
_H umph
_are a,
_sh uff
_W ray
_ch rist
pe nded
_D od
_D ress
_D ane
.. I
ust ache
_fr aming
_ex udes
el and
_pl anted
art ment
ol and
_v oodoo
us k
_P ER
_P ierre
_L OO
_L ili
_R ide
_R iff
_R KO
ast ered
_F ort
_F anning
_F uture
_r ans
_r ushes
qu al
_G IRL
um ably
_just ification
_N ath
_N early
_E pp
res a
ight ,
_O ber
_wat ers
ge red
_only ,
_K erm
_him ;
_per t
_end ed,
_po kes
_pre hist
_most .
_ad s
_dis ple
_ag es,
_real .<br
_off sp
_am oral
_am erican
_its '
ian g
_work ed,
_bl iss
_characters ;
_fl ed
_V ent
_V id
_where ,
_rem orse
_br u
_rec oll
_U l
_under whel
_gr in
_gr ating
_inc ongru
_these ,
_cast le,
_cr y,
up .
_res ume
_down beat
_down load
_ob t
_tra ins
-- in
-- especially
_bit chy
les h
_tri gger
_sm ok
_screen writ
_appe al,
_bu rial
_saw ,
oot s
_Sh aggy
_They 've
_both ,
_class room
_An chor
_entertain ed,
_run -of-the
_mean ings
_John son,
ah .
_/>W atching
_add ,
dd ing
_super n
_super st
-m illion
_TH REE
_conf ronting
_De borah
_someone .
_So f
_anim e,
_ph on
_sing ing.
_ele ment,
_use .
_Be nd
_Re bel
_Mar y,
_disappoint ing,
play ing
_stupid est
_4 2
_4 8
_wrong ?
_ret elling
_sy rup
-l oud
_cra pp
_ind ifference
_"S il
_cop .
_hero es,
ote :
_talent ed,
_sw ell
_dri fter
_9 8
_9 /10.
_coll apse
_(wh om
_trans cends
_thrill s,
_Some where
_matter s.
-s uff
_town 's
_annoy ingly
_/>F ilm
unk er
_doc uments
_mor ons
_psych ologically
_/>D id
_feeling s,
_heard .
_chang es.
_type cast
mm mm
_/>In stead
_leave ,
_ste alth
_"C hrist
_"C indere
_Gr oo
_shown ,
_Paul 's
_number ,
_yourself .<br
utter ing
_sent enced
_honest y,
_middle ,
_"T o
head ,
_feature s,
_ten ,
_ear ning
_swe ep
_198 5
_suck s,
_prop het
_US ,
_truth s
_stri pper
_weird ness
_chees iness
_Col man
_Frank ly,
_(which ,
_avoid .
rom antic
rom ising
_By r
_dam sel
_Ex c
_(D aniel
_Com ing
_Com ed
_dance .
_embarrass ing.
_achie ving
_trash ,
_answ ering
_draw ings
_color .
_ble nds
_"f amily
_"c ool
_successful ,
_"m ust
_mach ine,
_Tra ce
_glad ly
_brut al,
_/>J ack
_studio .
_Cor in
-y ou
_approach .
_Mur ph
_dig it
_tone .
_jo hn
_People "
_(T om
_Sci Fi
_celebr ities
_nast y,
_virt ue
_dread ful,
_rout ine.
_Mag uire
_self- abs
_confus ed.
_sun set
_process ,
-A meric
AM P
_"g reat
_Walk en,
_sour ces
_believ ed.
_purs ues
_Yet i
_crowd .
_stret ches
_Jones '
_loving ly
_categ or
_Lynch ,
_theatre .
_intellect ually
_tur key.
_Sy kes
_field s
_assist ance
_Capt .
_uncom p
_/>1 /10
_Mil itary
_bot ched
_bat hing
_pit ched
_van ity
_natur al.
_stalk s
_stalk er
_(F rank
_fle eting
_prevent s
_asleep .
_spell s
_qualities .
_Dar ia
_Cas sel
_rot osc
_sitcom s
_wid ower
_reput ation.
_capital ize
_brave ,
_Californ ia,
_connect ing
_mock ing
_presum ed
_simpl er
_(y es
_collect ing
_integr ated
_gain ing
_libr ary.
_homosexual ity
_comical .
_exploit ative
_LI FE
-G irl
_societ al
-com edy
_hur ting
_nail ed
_exch ang
_ramp age
_une asy
_self-c onscious
-war ming
_respective ly.
_dict ator
_transfer red
_venge ful
_inher ited
_patri otic
_respond s
_Fortun ately
_sadd est
_Luci o
_shel ter
_Sop rano
_steam y
/h orror
_Town send
_elimin ate
_/>Here 's
_treas ure.
_recover ing
_advertis ement
_Dais y
_Holl and
_Eri k
_jewel ry
_om n
_slow-m otion
_antagon ist
_suic ide,
_Dy ke
_Gle nda
_Warri ors
_offens ive,
_wedd ing.
_co-work er
_retire ment
_Ein stein
/com edy
_culmin ating
_unem ployed
_Exp ress
_Parad ise
_Sa if
_Bry an
_(v oiced
_O'B rien
_calcul ated
_clums ily
_padd ed
_Tome i
_denou ement
_Viscont i
_Detro it
_Jung le
_conn iving
_snipp ets
_catast rophe
col m
_neut ral
_unner ving
_Maur ice
_Tib et
igs aw
_Tash an
_Sup rem
_Luth or
_skimp y
_hard-b oiled
_Geoff rey
_heter osexual
_Uni verse
_mism atched
_Dukak is
_Forb es
_AH EAD
_Beno it
_Withersp oon
_disgrunt led
_unquest ion
- 7
1 1
7 ),
A CE
C C
E VER
I BLE
N o
O CK
S ON
T hat
U P
W hen
_ il
a !
a o
a ime
h orn
k h
m ...
m ph
p y
p ath
r ant
r ime
r uth
r ude
y y
z y,
_t asks
in o.
_s ly
_s ir
_s ard
_s ord
_w oke
_f iend
_f anc
_m amm
_b rew
at "
an a,
_to pped
_of .<br
_d ung
_l as
_l ent
_l uc
om .
_I van
_g os
_g oose
_/> Qu
ot iv
_n ations
st eps
_T ad
_T ag
_T ets
_T RI
_T relk
ie ces,
_on ...
ent on
_st ation.
_st aging
_y ach
_A ck
_S ed
_S ic
_S ke
_S ull
_S ale
_S umm
_S ieg
ke red
ro se
ro ach
_B &
_B re
_B ang
_B ax
_B ooge
her ,
_M anc
_M IN
ra ined
ra ught
_not ed,
ill s
_( again
_C arly
_" all
_" how
_sh ield
_W B
_ch ur
pe ,
_D A
_D I
_D ant
_D ear
em ember
if ford
_ex -g
_ex -con
_com r
ant asy
_v oting
us ually
_P ang
_P iper
_P roducer
_P roduc
_L im
_L ate
_L ithg
_R ice
_F ury
_F lying
_r ookie
_some .
_J agger
qu e,
_me ...
_N er
_N ation
ard e
os '
_E asily
_E ustache
reat ure
_O k,
_good ;
_man nered
_go at
_K on
_K ir
_K att
_K riemhild
_time "
_them atic
ac o
irect ion
_over weight
_po ly
_into ,
_know s.
_make ,
_part ial
aw k
ian o
_Y es.
_gu ided
ary "
iz ing,
_your selves
_He f
_br im
_St ick
_St ardust
ens es
_rec ount
ans on
be y
_/>A bout
_these .
_cr ummy
_cr ude,
_ra ving
_ra bid
_tra pp
_Jo ker
_em ail
_young .
_/>T ake
_why .<br
_hard est
_She ff
_str ay
_ins ide,
_ins isted
_sec luded
_ep onymous
_put rid
_music .<br
_Sh oot
_class mates
stand ard
ition al
ov ic
_car pet
anc er
ane .
_10 )
ah ah
_add ressing
ph in
_surpris es,
-c ast
_pol ite
_inter spersed
_Bl ues
_For rest
_anim ations
_attempt .
_classic .<br
_exp ans
_mem oir
_death s.
_production .<br
_rep erto
_fail ures
_ret ains
_sy nd
_small est
_count .
_"S uper
olog ies
_dead pan
_rid e,
ured ,
_dark ness.
_New s
_/>M ichael
_appear s,
_dem ent
_present ation.
_capt ive
_col ony
_col umn
_bra very
_deal ,
_case .<br
rodu ct
_prom isc
_prom ise.
_"I s
_writ ers.
_"A r
_effort less
_dream ing
_stop .
_mot ion,
AN E
_fore ground
_/>N one
_/>N o,
_sol ving
_Ke nd
_Gr anted
_"W hen
_jok ing
_Ind ia.
OR S
_Pl at
_Pl aying
_return .
_Pe nd
_touch ing.
_Ne v
lin ing
_197 4
_"L et's
_198 2
_Mor b
_speak .
_attack ,
_Su z
_tre k
_/>C om
_suggest ive
_(S he
_norm al,
_sil hou
_199 3
_career .<br
_"R ock
_cas es,
_tast y
uro pe
_Tw in
_Gra ve
_Sch umacher
_Ex pl
_$ 3
rif ying
_195 1
_battle ,
_repe llent
_193 4
_/>G iven
ilt on,
_agree .
_ident ities
_skill s,
_whatever .
_outside .
_rap ing
_rap es
_Mad d
_hol es.
_Mon key
rag on
_compet ently
sequ ential
_program ming
_chemistry .
_street s,
_inform ative
_"d o
_occur ring
_pun ished
_Miss ion
_ord er,
_affair ,
_mat hem
_serv ices
_surround s
_sight ,
_hurt ,
_Phil adelph
_Mill er,
_ahead .
_Green e
roc odile
_"J ohn
_rac ist,
_(with out
_spectac ularly
_cell s
_arm or
_board ,
_Win ston
_tem porary
-e nding
_employ ees
_Ford ,
_pilot ,
_ens uing
_Brother s,
_Sus pect
_Hel ena
_guard ian
_text book
_tur g
_commentary .
_Coll ege
_expos ing
_expos es
_/>Any one
_Master s
_gory ,
_SH E
_frame work
_insane ly
_bond ing
_excitement ,
_proud ly
_scar ier
_rend ers
_vol umes
_consequ ence
_acqu ire
_river ,
_river .
_CH E
_Cur se
_ded ication
_confess ion
_Murphy 's
_snow man
_courage ous
_inj ury
_attend ant
_overact s
_cy borg
_relax ing
_coinc id
_puzz ling
_"Wh ite
_aston ished
_Streisand 's
_consum er
_engag ement
_spread ing
_fortun ately
_judg ement
_Di C
_conclud es
_san ct
_etern ity
_Kat ie
_drivel .
_warri ors
_sail or
_exhib it
_(g ood
_BA BY
_eg ot
_"e vil
_indul ge
_address es
_hypnot ic
_anth rop
_halluc ination
vill e,
_Blond e
_blur red
-J ones
_Somehow ,
_legit im
_therap y
_lawy er,
_Wel ch
_degr ad
_characteriz ations
_unnecess ary,
occ up
_attribut ed
_coun sel
_Sudden ly
_Chand ler
_self-indul g
_coward ly
_Lenn on
_Glob e
_Rosen strasse
etc .
_melanch oly
_co-wr ote
_strik ingly
_Johans son
_Bin oche
educ ated
_injust ice
_Oct ober
_merciless ly
_nak ed,
_caf é
_(Char les
_submar ine
_Laput a
_Dia z
_kink y
_Lans bury
_Palestin ian
_Travol ta
-orient ed
uten ant
_supermark et
_protot ype
_lifel ong
_kib but
_backwood s
_Newcom be
_Weiss m
_ZER O
_knowled ge,
_prehist oric
_run-of-the -mill
' ).
( W
( which
, ,
- o
- ever
- ins
- that
/ she
? ",
H AT
b ble
d e,
e ep
l or
l ig
m al
s ch
y on
_s ins
_s assy
_w ipe
_o '
_f able
_m umm
_m igr
_b ri
_b illing
it an
_c el
_c ensored
es ci
es e.
_th o
_to dd
_of )
_of t
_p ulse
ar ies.
_d ared
_d ares
as '
_l amb
_l umin
_l ampoon
_g ull
_n ad
_n ap
_it ..
_T aker
_T ube
_re pt
_re -t
_re eks
_that 'll
ad es,
_wh ack
_wh ites
_st ations
_st unk
et ically
_was !
_y upp
_for ced,
_S ak
_S omet
_S ax
am mer
ro v
_B ren
_B ew
_B irth
_B elle
ur ,
ur ro
_M onica
_we ,
_C O
_C ath
_C ave
_" it's
_H ilton
_W ald
_W ERE
_W icker
_D V
_D arl
_D oodle
_do ses
_ex -
_ex -c
_ex ternal
el )
_com a
_pl ent
_pl ann
act ors
_al a
ol i
_v essel
_P uri
_P assion
est "
_L ol
_L t.
_L ITTLE
_R aim
_R ivers
_from ?
_F o
_F ien
_F IRST
_out "
_r ing,
_r anging
_her it
_con verted
_G U
_G ome
_G ates
_me :
_me ).
_me ek
_N y
_N ag
_N iet
_un mist
_un finished
_E b
_E nt
_E the
_E lisha
_le cher
_good s
_tr im
_lo yalt
_up "
_go .<br
_fe ather
_would ,
_there !
_she nan
_en force
_K rell
_K err
_per f
_per se
_time ).
_end ...
ac ular
_po le
_po king
ple ase
ert y
_well ;
_know ?
_dis com
_ag ent.
_us age
_made !
_sp ouse
_Ch amp
iv a
_life ...
ild a
_St ow
_rec on
_films )
ia h
ia .<br
_here !
_min ing
_under developed
ren ched
_fam ous,
ail able
_point :
_Al ive
_down fall
oc ation
_Jo vi
** <br
ible ,
_guy "
_original ity,
_original ity.
_right fully
ib i
ib als
_Br itt
_acc ord
_high -te
_laugh ing,
_laugh -out
_reason ing
_aw akens
_ep id
_come .<br
er. "
_lead er,
_cons ult
_class ified
gg ie
_inst ruct
_care ers.
_co h
_co arse
_run away
_/>S adly,
ah oo
_del inqu
_rest ore
_perfect ed
_ac rob
_boy ish
_TH IN
_De L
ident ally
land "
_low ered
_star ters,
_ed ges
_miss ing,
_Sc ene
_mar ital
_Christ ensen
_obvious ly,
ien ne
_Ar chie
-b el
_heart -warming
_/>O b
_eas y,
_gener ation.
_sy ndrome
_loc ation.
_ind irect
_serious ness
fortun ately
_instead .<br
_7 ,
_pass ive
_z any
_talent less
_become .
_line .<br
_reg istered
_fant astically
-p erson
_lives .<br
_av ant
_par aph
_mor ph
_"B r
_"B raveheart
_inf l
_inf ilt
_themselves .<br
_Dan i
_Dan ning
_etc )
_stra ined
_sn appy
_dream ed
_/>H ighly
_chang ed.
_chang ed,
_God ard
_type .
_sequel s.
_Gr ady
_shock ing.
_number .
_known ,
_disc l
_hot .
_dest ination
ustr y,
_honest .
_strange .
_middle .
ING ,
_El mer
_respect s
_aspect s.
_easily .
_/>P S
ett a
_body guard
let s
_knows ?
_Mor se
_visual s.
_future .<br
_Sam mi
_(J ean
_los s,
_/>And ,
_Lee .
_strugg led
_anyway )
_sor ce
_Mart ians
_Mart ino
_/>L ook
_(B en
_concept ion
_` M
_band .
_recogn ise
IS E
_innoc ent,
_: -
_match ing
_track ,
_"s uper
_remark able.
_trail er.
_delight .
_hair y
_Ser b
_amb itions
bo at
_contr ary,
_"O n
_roll .
_element ary
_fash ions
rid ay
_compet ing
_"N ew
_impossible .
_inform ation.
_Love ,
_Sand y
_def ines
_govern ment.
_cause .
_lau nd
_gem ,
_six th
_notice .
_Ab h
_Den mark
_Paris .
_Pal ace
.I n
_length ,
_West ,
_Rog ers,
_Story ,
_Franc isc
_Nor a
-sc ene
_"J ust
_gold .
_rac ism,
_melodram a.
_channel ,
_aim s
_aim less
_wond rous
_trust ed
_Fox ,
_club .
_mut ated
_Ac ross
_employ s
_Ros al
_Ros co
_IN T
_conclusion .<br
-th in
_ted ious.
_sac red
_Ry an,
_Wil son,
_smile ,
_stret ching
_lock s
_/>St ill
_Co en
_contri ved.
_grown -up
_buck et
_Howard 's
_spectacular ,
_"K ing
_wound s
_Int o
_cann on
_spoof s
_insane .
_Anderson 's
_Viet names
_Cap shaw
_LA ST
_Ash raf
_Miche al
-C ode
_Cas ablanc
_particip ation
_Island ,
_Hell o
_Fer r
_Get ting
_trilog y,
_demonstr ation
_accomp any
_Roman ian
_nightmare .
_breatht aking.
_integr al
_inhab ited
_McD owell
_MOVIE .
_Geor g
_universe .
k. a.
_Dun ne
_univers ally
_"Bl ood
_Val erie
_grave .
_illustr ated
_shout s
_Ren oir
_neighb or,
_unbear ably
_Intern et
_Fle m
_cock y
_unre cogn
_decl ared
_thread s
_detract s
_Would n't
_vulner ability
_Met al
_destruction .
_/>Be ing
_must-se e.
_sacrific ed
_Alexand ra
_apolog ize
_Natal i
_pa uses
_dirt y,
_Norm a
_chew ing
_trend y
_nause ating
_Candy :
_cig are
_flop .
_nuts hell
_Sha q
_disjoint ed,
_frighten ing,
_optim ism
_'8 0s
_SC REAM
_Mam et
_commend able
_RE V
_analy ze
_Abb ott
_demean or
_Cart oon
_Psych o
_Gret a
_clar ity
_plod s
_wedd ing,
_reported ly
-co aster
_Giov anna
_acknowled ged
_Hig her
_sou lless
_Joy ce
_"hero "
OUN D
_satisfact ory
_Kam al
_monument al
_err atic
_director/ writer
_versat ile
_Sem at
_arche typ
_burd en
_unappe aling
_Brashe ar
_Bath she
_prest igious
_apl omb
_Mond ay
_subdu ed
_Brave heart
_Capric a
_approxim ately
_X-F iles
_Carlit o's
_Copp ola
_Bruck heimer
_Lomb ard
_superflu ous
_forebod ing
_haph azard
_Agath a
_masquer ading
_stap le
_sord id
( or
/ n
F or
J ust
O C
U CK
l um
m ir
n oc
s ed
t oo
u ce
_t ighter
_t iger
he id
_s atell
_w ise,
is ch
er :
_f ri
_f ighters
_f athom
_m ath
_b arn
_c ob
en berry
on ia
_h al
_h unk
_h iring
an ne
_to ll
_to xic
_p oop
_p ass.
_p ipe
ar med
_d ash
_d ug
_d ated.
ed ing
_is ;
_g n
_g ur
_g ren
_g utter
ot ten
_n ort
_n ipp
_n iche
_n emesis
ut ,
_be gg
_T M
_T reat
_re runs
ad es.
ad ows
im ply
_wh acked
_st all
_st able
_for bid
_A ce
_S pl
_S tern
_S EA
_S erv
_an chor
ld a
_movie -go
_you "
_B ir
_B un
_B ris
ur y.
_M ama
_M ermaid
ra .
ra ovich
_not with
_not ch.
_( ob
_( de
_( read
_( check
_C ant
_C ors
_C utter
_C athy
_" y
_H av
_H OT
_H aim
_H edy
_W rit
ers :
_D ob
_D up
_D ale
_D rama
un ,
ess ,
ess im
_one ;
_one ).
_one -not
el f
_so ...
_so on,
_pl uck
_all ...
_all -too
pp ers
_v ind
us an
_P it
_P ole
_P aper
_P BS
est own
op ing
ist ingu
_R ated
_R ider
_R aven
_F i
_F ind
_F iend
_F asc
_out ?
_out -of-
_out put
_r het
qu ally
_G ail
_G azz
_G -Girl
_N ash
_N umber
_un ch
_un be
_E lect
_E ss
ake "
_O d
_good ?
_lo ony
_up ?
_get ,
_my ri
_story ;
able "
ore an
ell ed
ab in
ab ble
_K enny
oy ing
so cial
te gr
_end !
_end orse
_bad die
_look s.
... ).
_over night
_ro de
_ad ored
_dis ord
_real ism,
_us .<br
_made ?
_fun er
_Y as
ace y
_gu id
_Ch ile
_fl ir
_In former
_love ?
_te amed
_back ing
es. "
_br ows
_St ir
_St ones
_St one,
rap hed
_sl ash
_sl ipp
_att ain
_under go
_interest .<br
ren na
_Al iens
_res idence
_ra v
_ra ven
_set s.
_down s
_down side
_comp ares
oc used
sh ow
_long time
_young sters
_gi all
_sub s
_sm ack
_sm ashed
_app alled
_far c
_inv ari
_child like
_read .
a, "
_hand y
_ide als
_begin .
hes s
_care less
_An ime
ov a
o, "
_cle an,
_10 !
umb les
_lik ed.
_different .<br
_job s,
_pres erved
sc ript
_Bl anc
_De Pal
_All iance
_imag e,
_talk y
sp ir
_dist ort
_Re be
_mon itor
_sk ipped
." )
_4 :
_dra ined
-w itted
_cra ving
_form al
_7 0s,
IN AL
_develop ments
_dri pping
_Man 's
_9 0's.
_mis placed
_Car ole
_Jack son,
_picture .<br
_No ah
_trans itions
_support ive
enn es
_Mc Sh
_pred omin
_power fully
_walk ,
_master work
iet y,
_list ing
_av al
_sat anic
_episode .<br
_Is a
_Is abel
_Michael s
_late -night
_hon our
_crit iqu
_/>D VD
_musical s,
_heard ,
AN CE
_chang es,
_(I t
_predict ability
_techn ological
_sle w
_sle eper
_sol ved
_ste pping
_sequel .<br
_"C he
_"C on
_ang le,
_(19 2
_similar ,
_direction .<br
_Ad venture
-st y
_touch ,
ator s,
head ed
aris ,
_compl ains
_El sa
_respect ively
_equ als
'm on
_prog ressed
_197 5
_period .<br
_adapt ing
_suck ed,
_standard ,
_hate .
_Ben 's
_spoil ers,
_insp ires
_clim ate
_clim atic
_/>E n
_particular .
-the med
_etc. ),
_cat .
_Che ster
_und erest
_"R ed
_Gu er
_costum es.
_Night s
_Mart ine
_inte nds
_By e
_enjoyable .<br
_oper atic
_Wood ,
_Wood 's
_popular .
_/>" S
_girlfriend s
_Sim ilarly
_195 3
-in terest
_clever .
_sleep ,
_IMDb 's
_revol ution,
_ident ity,
_ago .<br
_Ser geant
_Europe .
_porn ,
cher ,
_critic s,
_196 3
_satisf ied.
_tear -j
_auth or,
_trip ,
_Mon sters
_fear .
_Bro der
_lad y's
_spot s,
_Smith .
_redeem ed
_assum pt
_faith .
_ability ,
_test ed
_leg s,
_intrigu e,
_intrigu ing,
_artist ically
-out s
_absurd ,
_"b l
_"E very
_throw away
_18 0
_18 00
_ship 's
_Though ,
_hurt .
_length .
_Sl aughter
_award .
_latter ,
_Green away
_Tre asure
_independ ence
_consist ing
_confus ion,
_blind ed
_board ing
_detective .
_path os
_Sar ne
_explan ations
_hotel ,
_(E l
_symbol s
_Dougl as,
_Walk ing
_anywhere ,
_signific antly
_pen chant
_Barb arian
_expert s
_Keat on,
_Lo oney
_angry .
_stink er.
_Pac ino's
_Show time
_Jan uary
_issue .
_ju ice
_tor ch
_bath tub
-wr iter
_subtit led
_cyn icism
_cann ibals
_peace .
_Aust en's
_wel comed
_punch line
_Miche ll
_fle a
_Mir ror
_mini ature
_Stone 's
_Fest ival,
_Domin ick
_murderer s
_/>With out
_abr oad
_Mer rill
_connect s
UR N
_Direct ors
_sho est
_criticism s
_clichéd ,
_fond ness
_evol ved
_ANY ONE
_fil ter
_rank ed
_scenario .
_height s
_afternoon ,
_afternoon .
_Marg are
_sophistic ation
_ice berg
_corpor ation
_Swed en
_quir ks
_cance lled
-con ceived
_admir ably
_Fle ming
_MA KE
_BAD .
_finan cially
_disappear ance
1/2 )
_(th ink
_(th ank
_Conn olly
_econom y
_Air port
_Cry pt
_nonethe less.
_publ ic,
_carn ival
_intr ud
_Josh ua
_; )
_BA CK
_humili ating
_Iron ically,
_maniac al
_jaw -dro
_Fulci 's
_mirac ulous
_adul thood
_compassion ate
_'b ad
_Luck ily,
_Lad ies
_surpass ed
_Read ing
_unst opp
_rang es
_Elli ot
_inherent ly
_reck on
_incorpor ate
_Ew an
-boy friend
_conqu est
_storytell ing.
_upst airs
_exclus ive
_pad ding
llen ha
_non-exist ent,
_/>Second ly,
_pour ing
_Lamb ert
_orchest ral
_aristocr atic
_rew ind
_confir ms
_margin ally
-qu ality
_musc ular
_succ umb
_exceed ingly
_Vill age
_propagand a.
_movie-m aking
anth rop
_decap itated
_Warhol s
_barb ar
_nit p
_mour ning
_promot ional
_rewr ite
_re-w atch
_angu ish
_Gentle men
_unn amed
_hardship s
_incon sequential
_hypoc ris
_unl ucky
OMB IE
_Eis en
_condu ctor
_understat ement.
_downt own
_misogyn istic
_Kauf man
_gymn ast
_Shat ner
_traumat ized
_Bere nger
_Led ger
_"Ham let
_Pert wee
_countri es.
_desol ate
_insignific ant
amen co
_diabol ical
_Kustur ica
_splic ed
_Susp ense
_Izz ard
_formid able
_agg rav
[...]
