{"<unk>":0,"[UNK]":1,"[CLS]":2,"[SEP]":3,"[MASK]":4,"\b":5,"\t":6,"\u0010":7,"!":8,"\"":9,"#":10,"$":11,"%":12,"&":13,"'":14,"(":15,")":16,"*":17,"+":18,",":19,"-":20,".":21,"/":22,"0":23,"1":24,"2":25,"3":26,"4":27,"5":28,"6":29,"7":30,"8":31,"9":32,":":33,";":34,"<":35,"=":36,">":37,"?":38,"@":39,"A":40,"B":41,"C":42,"D":43,"E":44,"F":45,"G":46,"H":47,"I":48,"J":49,"K":50,"L":51,"M":52,"N":53,"O":54,"P":55,"Q":56,"R":57,"S":58,"T":59,"U":60,"V":61,"W":62,"X":63,"Y":64,"Z":65,"[":66,"\\":67,"]":68,"^":69,"_":70,"`":71,"a":72,"b":73,"c":74,"d":75,"e":76,"f":77,"g":78,"h":79,"i":80,"j":81,"k":82,"l":83,"m":84,"n":85,"o":86,"p":87,"q":88,"r":89,"s":90,"t":91,"u":92,"v":93,"w":94,"x":95,"y":96,"z":97,"{":98,"|":99,"}":100,"~":101,"":102,"":103,"":104,"":105,"":106,"":107,"":108,"":109,"":110,"":111,"":112,"¡":113,"¢":114,"£":115,"¤":116,"¦":117,"§":118,"«":119,"­":120,"®":121,"°":122,"·":123,"»":124,"¿":125,"À":126,"Á":127,"Ã":128,"Ä":129,"Å":130,"È":131,"É":132,"Ê":133,"Õ":134,"Ø":135,"Ü":136,"ß":137,"à":138,"á":139,"â":140,"ã":141,"ä":142,"å":143,"æ":144,"ç":145,"è":146,"é":147,"ê":148,"ë":149,"ì":150,"í":151,"î":152,"ï":153,"ð":154,"ñ":155,"ò":156,"ó":157,"ô":158,"ö":159,"ø":160,"ù":161,"ú":162,"û":163,"ü":164,"ý":165,"ō":166,"́":167,"̈":168,"–":169,"‘":170,"’":171,"“":172,"”":173,"⁄":174,"₤":175,"":176,"_t":177,"_a":178,"he":179,"in":180,"_the":181,"_s":182,"re":183,"_w":184,"_o":185,"is":186,"er":187,"nd":188,"_f":189,"_m":190,"_b":191,"it":192,"at":193,"ing":194,"_c":195,"en":196,"es":197,"or":198,"ou":199,"_th":200,"on":201,"_h":202,"ll":203,"an":204,"_and":205,"_to":206,"_of":207,"_p":208,"ar":209,"_d":210,"ed":211,"as":212,"_in":213,"_l":214,"om":215,"_I":216,"_is":217,"ic":218,"br":219,"_g":220,"_/":221,"<br":222,"_/>":223,"le":224,"_e":225,"ot":226,"_n":227,"al":228,"ut":229,"st":230,"ct":231,"il":232,"_it":233,"_be":234,"_T":235,"ve":236,"ie":237,"ly":238,"_mo":239,"_re":240,"_on":241,"_that":242,"ver":243,"ow":244,"ad":245,"ent":246,"_he":247,"'s":248,"ion":249,"im":250,"_this":251,"ay":252,"_wh":253,"se":254,"_st":255,"et":256,"gh":257,"id":258,"ch":259,"_was":260,"_mov":261,"_y":262,"_/><br":263,"ith":264,"ilm":265,"all":266,"_for":267,"_film":268,"oo":269,"_as":270,"_A":271,"_u":272,"ce":273,"_S":274,"_with":275,"_an":276,"am":277,"ke":278,"ld":279,"_se":280,"_The":281,"ir":282,"_movie":283,"ro":284,"_you":285,"_ha":286,"ri":287,".<br":288,"_B":289,"her":290,"ur":291,"_li":292,"_but":293,"_M":294,"_we":295,"'t":296,"ra":297,"_not":298,"ally":299,"ill":300,"_(":301,"ter":302,"_C":303,"_\"":304,"_H":305,"ck":306,"_are":307,"_sh":308,"ome":309,"_W":310,"_his":311,"_ch":312,"pe":313,"ers":314,"ould":315,"_at":316,"ul":317,"_D":318,"_have":319,"ght":320,"..":321,"em":322,"if":323,"_su":324,"ust":325,"un":326,"_j":327,"_fr":328,"out":329,"_sc":330,"_act":331,"_do":332,"ain":333,"ble":334,"_ex":335,"ess":336,"_who":337,"_one":338,"el":339,"_k":340,"_so":341,"_com":342,"_pl":343,"ood":344,"very":345,"act":346,"_all":347,"s,":348,"ant":349,"art":350,"ies":351,"_ab":352,"ak":353,"pp":354,"_by":355,"ag":356,"_al":357,"ol":358,"_v":359,"us":360,"_P":361,"est":362,"op":363,"_de":364,"th":365,"ist":366,"_L":367,"s.":368,"_R":369,"and":370,"_wor":371,"_ne":372,"_from":373,"ast":374,"_they":375,"_F":376,"one":377,"n't":378,"_like":379,"_out":380,"ven":381,"_r":382,"_some":383,"_J":384,"_int":385,"_whe":386,"qu":387,"_her":388,"_con":389,"_G":390,"_or":391,"ation":392,"um":393,"fe":394,"ough":395,"red":396,"ous":397,"au":398,"_Th":399,"_It":400,"ate":401,"_me":402,"_about":403,"_has":404,"_just":405,"ich":406,"ind":407,"ive":408,"ory":409,"_N":410,"ard":411,"os":412,"_pro":413,"ire":414,"ack":415,"_can":416,"_char":417,"pt":418,"ort":419,"_un":420,"_tim":421,"_E":422,"ig":423,"res":424,"ud":425,"ook":426,"ake":427,"_le":428,"reat":429,"ight":430,"_O":431,"_good":432,"_charact":433,"_any":434,"_man":435,"ong":436,"_wat":437,"_tr":438,"_lo":439,"_up":440,"_more":441,"_get":442,"_go":443,"_no":444,"ity":445,"_fe":446,"_would":447,"_very":448,"_see":449,"The":450,"ound":451,"ther":452,"_my":453,"_what":454,"e,":455,"_there":456,"_story":457,"_bec":458,"nt":459,"ite":460,"_This":461,"able":462,"_she":463,"od":464,"_1":465,"ame":466,"_when":467,"ge":468,"ure":469,"ide":470,"_en":471,"_-":472,"hing":473,"_were":474,"_had":475,"_really":476,"ore":477,"_only":478,"ell":479,"ab":480,"_K":481,"_scen":482,"itt":483,"oy":484,"_their":485,"_watch":486,"_him":487,"_if":488,"_show":489,"_even":490,"_per":491,"_which":492,"_it's":493,"_other":494,"ci":495,"pl":496,"so":497,"ink":498,"_time":499,"ick":500,"_cl":501,"man":502,"_than":503,"ment":504,"y,":505,"our":506,"_them":507,"ond":508,"te":509,"ap":510,"_does":511,"og":512,"_did":513,"_kn":514,"are":515,"uch":516,"_end":517,"ves":518,"ause":519,"_pe":520,"ade":521,"ing,":522,"on't":523,"_qu":524,"_great":525,"ine":526,"_much":527,"_bad":528,"_bet":529,"_look":530,"_ar":531,"ac":532,"irect":533,"irst":534,"ople":535,"...":536,"_been":537,"_over":538,"_could":539,"_po":540,"_im":541,"_will":542,"ious":543,"ple":544,"_into":545,"_how":546,"_I'":547,"ert":548,"lf":549,"ear":550,"ence":551,"_play":552,"ing.":553,"_well":554,"int":555,"ice":556,"_pre":557,"_most":558,"_people":559,"ose":560,"_think":561,"_/>The":562,"_ro":563,"way":564,"ne":565,"_know":566,"_tw":567,"_way":568,"ue":569,"for":570,"_because":571,"_ad":572,"other":573,"_dis":574,"_too":575,"per":576,"_ag":577,"fter":578,"av":579,"ass":580,"ful":581,"ff":582,"_direct":583,"es,":584,"ry":585,"_real":586,"_first":587,"_make":588,"_part":589,"_us":590,"_/>I":591,"_every":592,"_off":593,"_am":594,"ile":595,"ull":596,"ish":597,"age":598,"ict":599,"_made":600,"ere":601,"_also":602,"oll":603,"ated":604,"_fun":605,"ost":606,"gin":607,"_seem":608,"_wr":609,"aw":610,"_thr":611,"_movies":612,"_its":613,"_say":614,"ical":615,"own":616,"_character":617,"akes":618,"_thing":619,"ep":620,"ian":621,"_don't":622,"_work":623,"_Y":624,"iew":625,"ng":626,"_bl":627,"_sp":628,"ty":629,"_characters":630,"ace":631,"_And":632,"ob":633,"ually":634,"_gu":635,"_Ch":636,"hed":637,"_'":638,"ial":639,"pect":640,"_fl":641,"ary":642,"cc":643,"ny":644,"fect":645,"iz":646,"self":647,"_plot":648,"ress":649,"ors":650,"_then":651,"_seen":652,"_Wh":653,"ance":654,"_want":655,"_But":656,"_V":657,"omet":658,"_ser":659,"iv":660,"ittle":661,"),":662,"_your":663,"_year":664,"_after":665,"_In":666,"_two":667,"_being":668,").":669,"_love":670,"ang":671,"_never":672,"urn":673,"_te":674,"_He":675,"get":676,"_many":677,"nder":678,"_through":679,"mer":680,"_back":681,"ark":682,"_where":683,"_life":684,"_ent":685,"_little":686,"ip":687,"es.":688,"_best":689,"_rem":690,"ult":691,"_br":692,"_<br":693,"_somet":694,"ed.":695,"ild":696,"ather":697,"ber":698,"_ever":699,"ach":700,"_it.":701,"_des":702,"_St":703,"_hor":704,"ed,":705,"vel":706,"_better":707,"ens":708,"_rec":709,"wn":710,"ily":711,"ans":712,"du":713,"ual":714,"_perfor":715,"we":716,"_movie.":717,"rap":718,"_should":719,"_find":720,"!!":721,"_sl":722,"ru":723,"_spe":724,"ought":725,"_It's":726,"_U":727,"_cont":728,"ris":729,"_feel":730,"_There":731,"less":732,"vers":733,"_att":734,"_again":735,"ces":736,"ertain":737,"_films":738,"ia":739,"_i":740,"_here":741,"_still":742,"iend":743,"ath":744,"_min":745,"_2":746,"lie":747,"_ri":748,"ving":749,"_under":750,"ever":751,"er,":752,"erest":753,"_gr":754,"be":755,"y.":756,"augh":757,"_19":758,"aking":759,"_acting":760,"ably":761,"me":762,"fore":763,"_kill":764,"_such":765,"_interest":766,"ction":767,"igh":768,"_inc":769,"_/>A":770,"_something":771,"ren":772,"_happ":773,"ason":774,"_scene":775,"_old":776,"thing":777,"ense":778,"_these":779,"_performan":780,"_may":781,"_imp":782,"_cast":783,"ved":784,"alk":785,"_fam":786,"ars":787,"ting":788,"ave":789,"ail":790,"arly":791,"_lot":792,"_point":793,"ree":794,"_film.":795,"oth":796,"reen":797,"_Al":798,"_hum":799,"_pr":800,"_ap":801,"ase":802,"_sur":803,"_doesn't":804,"_cr":805,"ror":806,"_dec":807,"_wom":808,"the":809,"joy":810,"ning":811,"_those":812,"up":813,"_sim":814,"_gir":815,"_res":816,"_mus":817,"_If":818,"_ra":819,"ise":820,"_didn't":821,"_gen":822,"_che":823,"_set":824,"_enjoy":825,"ock":826,"_start":827,"_view":828,"_cou":829,"_fact":830,"ating":831,"vent":832,"_makes":833,"ly,":834,"_down":835,"ying":836,"ffect":837,"_scenes":838,"_film,":839,"_fin":840,"old":841,"_belie":842,"erson":843,"_ob":844,"_few":845,"_movie,":846,"_comp":847,"_watching":848,"wh":849,"az":850,"ale":851,"rigin":852,"ater":853,"_I'm":854,"_before":855,"_actually":856,"_tra":857,"oc":858,"_comed":859,"_Jo":860,"_pret":861,"sh":862,"_got":863,"_same":864,"_origin":865,"_long":866,"_em":867,"_going":868,"_young":869,"ute":870,"_supp":871,"li":872,"_director":873,"_though":874,"_while":875,"_dif":876,"--":877,"_/>T":878,"oss":879,"ub":880,"_now":881,"**":882,"ience":883,"cial":884,"ft":885,"ool":886,"_own":887,"_produ":888,"ect":889,"_you'":890,"der":891,"_bit":892,"ript":893,"les":894,"iss":895,"_gi":896,"_new":897,"_tri":898,"_ter":899,"ible":900,"ions":901,"hen":902,"_turn":903,"_exce":904,"_ke":905,"_thought":906,"_nothing":907,"_sub":908,"_big":909,"ward":910,"ince":911,"_girl":912,"aut":913,"_rel":914,"_guy":915,"_another":916,"ram":917,"_sm":918,"_why":919,"_quite":920,"_comple":921,"rent":922,"_around":923,"_day":924,"_app":925,"_actors":926,"ign":927,"onder":928,"_friend":929,"_&":930,"_effect":931,"_original":932,"_seems":933,"_years":934,"_pretty":935,"_funny":936,"ically":937,"_can't":938,"air":939,"_screen":940,"_world":941,"_need":942,"ched":943,"ween":944,"_right":945,"00":946,"_enough":947,"ib":948,"_hard":949,"_script":950,"_She":951,"most":952,"meric":953,"ew":954,"ank":955,"_str":956,"ness":957,"_between":958,"app":959,"_appe":960,"ash":961,"_Br":962,"_take":963,"_acc":964,"rill":965,"_kid":966,"ead":967,"_ins":968,"_high":969,"_far":970,"_kind":971,"ons":972,"_person":973,"inem":974,"_sec":975,"_laugh":976,"_action":977,"_must":978,"_give":979,"_inv":980,"_series":981,"ways":982,"_As":983,"_You":984,"_es":985,"ents":986,"ster":987,"_reason":988,"_role":989,"ord":990,"_horror":991,"_wonder":992,"_aw":993,"_mom":994,"_tell":995,"_op":996,"_things":997,"aid":998,"\",":999,"_gets":1000,"_bu":1001,"_child":1002,"icul":1003,"_ep":1004,"_isn't":1005,"_hel":1006,"_least":1007,"_sex":1008,"_read":1009,"ouse":1010,"arr":1011,"_whole":1012,"_put":1013,"_How":1014,"_saw":1015,"_actor":1016,"_it,":1017,"_beaut":1018,"_come":1019,"_Americ":1020,"_I've":1021,"a,":1022,"here":1023,"vious":1024,"ention":1025,"_music":1026,"_main":1027,"er.":1028,"oot":1029,"_without":1030,"_Sh":1031,"_always":1032,"_done":1033,"_expect":1034,"_They":1035,"iting":1036,"_both":1037,"son":1038,"_hand":1039,"_lead":1040,"_minut":1041,"_bas":1042,"_cons":1043,"_rev":1044,"_might":1045,"_almost":1046,"_ide":1047,"ced":1048,"ings":1049,"_diffe":1050,"_shot":1051,"hn":1052,"_aud":1053,"_cinem":1054,"arn":1055,"_performance":1056,"_class":1057,"_last":1058,"bably":1059,"_expl":1060,"_cam":1061,"xt":1062,"_begin":1063,"gg":1064,"_sound":1065,"_book":1066,"_complete":1067,"_inst":1068,"_cour":1069,"hy":1070,"hes":1071,"though":1072,"_care":1073,"_An":1074,"rible":1075,"uring":1076,"_help":1077,"_/>Th":1078,"stand":1079,"de":1080,"_worth":1081,"ition":1082,"_3":1083,"_co":1084,"cially":1085,"ov":1086,"ully":1087,"_entertain":1088,"pris":1089,"ism":1090,"ograp":1091,"\".":1092,"_family":1093,"_art":1094,"o,":1095,"_happen":1096,"ife":1097,"_cle":1098,"ody":1099,"_since":1100,"_el":1101,"_woman":1102,"_found":1103,"ative":1104,"_away":1105,"atch":1106,"_sequ":1107,"ray":1108,"ret":1109,"_car":1110,"ever,":1111,"istic":1112,"isod":1113,"its":1114,"_probably":1115,"_Fr":1116,"_sure":1117,"_TV":1118,"_rather":1119,"_What":1120,"rist":1121,"mend":1122,"_ext":1123,"_vers":1124,"ialog":1125,"ime":1126,"_run":1127,"_call":1128,"pecially":1129,"oint":1130,"_mean":1131,"_episod":1132,"anc":1133,"apt":1134,"ane":1135,"_10":1136,"_dialog":1137,"_abs":1138,"_worst":1139,"_anything":1140,"ros":1141,"umb":1142,"ten":1143,"_lik":1144,"_course":1145,"_/>S":1146,"wood":1147,"ither":1148,"ately":1149,"_John":1150,"_let":1151,"_\"The":1152,"ah":1153,"_bo":1154,"osed":1155,"ER":1156,"orn":1157,"_interesting":1158,"_our":1159,"leas":1160,"ream":1161,"ines":1162,"ont":1163,"_beautif":1164,"a.":1165,"olly":1166,"ec":1167,"_del":1168,"_/>W":1169,"_that's":1170,"_add":1171,"_making":1172,"_We":1173,"_comes":1174,"ok":1175,"_different":1176,"ations":1177,"_keep":1178,"_poor":1179,"_job":1180,"_less":1181,"ollow":1182,"_believe":1183,"_That":1184,"VD":1185,"_rest":1186,"ange":1187,"aster":1188,"_each":1189,"_trying":1190,"_mind":1191,"ph":1192,"blem":1193,"alf":1194,"_sense":1195,"_place":1196,"uck":1197,"fin":1198,"_surpris":1199,"-c":1200,"_anyone":1201,"ex":1202,"ann":1203,"dd":1204,"_pol":1205,"ee":1206,"empt":1207,"read":1208,"_stand":1209,"_fan":1210,"ject":1211,"_pres":1212,"_super":1213,"led":1214,"_DVD":1215,"_problem":1216,"lud":1217,"_Not":1218,"_yet":1219,"ommend":1220,"ortun":1221,"_mone":1222,"_ty":1223,"_inter":1224,"-m":1225,"_wasn't":1226,"sc":1227,"_looks":1228,"ality":1229,"_gl":1230,"_goes":1231,"ope":1232,"ion,":1233,"_port":1234,"_perfect":1235,"arent":1236,"_ac":1237,"_minutes":1238,"_played":1239,"iece":1240,"_boy":1241,"ling":1242,"ature":1243,"_he's":1244,"_/>This":1245,"_Bl":1246,"ional":1247,"_watched":1248,"ember":1249,"_TH":1250,"ures":1251,"_cre":1252,"_dram":1253,"_war":1254,"_fav":1255,"_conf":1256,"_times":1257,"_short":1258,"_follow":1259,"_recommend":1260,"_De":1261,"_said":1262,"ilar":1263,"_audience":1264,"atic":1265,"_All":1266,"_creat":1267,"_having":1268,"gether":1269,"_sit":1270,"_together":1271,"ident":1272,"llent":1273,"_head":1274,"_half":1275,"atter":1276,"omb":1277,"_plays":1278,"_himself":1279,"_second":1280,"_takes":1281,"ingly":1282,"_someone":1283,"era":1284,"inc":1285,"_else":1286,"_When":1287,"iter":1288,"_imag":1289,"co":1290,"land":1291,"_low":1292,"_review":1293,"_ev":1294,"_comedy":1295,"ollywood":1296,"day":1297,"_certain":1298,"_talk":1299,"_dep":1300,"_understand":1301,"ney":1302,"_vis":1303,"_For":1304,"_fall":1305,"ion.":1306,"not":1307,"_poss":1308,"_star":1309,"sp":1310,"-t":1311,"10":1312,"_So":1313,"_anim":1314,"_looking":1315,"cept":1316,"_bor":1317,"ates":1318,"_left":1319,"-f":1320,"_ed":1321,"ork":1322,"_special":1323,"_especially":1324,"_father":1325,"_miss":1326,"ix":1327,"_night":1328,"_shows":1329,"_beautiful":1330,"_Sc":1331,"_entire":1332,"_exc":1333,"_American":1334,"als":1335,"r.":1336,"ared":1337,"_came":1338,"_nice":1339,"aps":1340,"....":1341,"_hour":1342,"_Sp":1343,"_ph":1344,"_true":1345,"_sing":1346,"_ele":1347,"_dist":1348,"_use":1349,"_comm":1350,"ird":1351,"ired":1352,"att":1353,"_three":1354,"_comment":1355,"ply":1356,"_mur":1357,"_det":1358,"ship":1359,"_Be":1360,"_excellent":1361,"like":1362,"_invol":1363,"_mar":1364,"'re":1365,"sy":1366,"_Christ":1367,"_Un":1368,"_home":1369,"_ey":1370,"_time.":1371,"_Re":1372,"udget":1373,"upid":1374,"_Cl":1375,"_My":1376,"0's":1377,"_mon":1378,"ner":1379,"uff":1380,"_Ste":1381,"appoint":1382,"_obvious":1383,"_event":1384,"but":1385,"_sk":1386,"_/>B":1387,"_Z":1388,"_attempt":1389,"_during":1390,"_men":1391,"_fight":1392,"_classic":1393,"_exp":1394,"_human":1395,"_once":1396,"alent":1397,"_Mar":1398,"_lack":1399,"_everyone":1400,"_disappoint":1401,"ott":1402,"ames":1403,"ract":1404,"_portray":1405,"_sch":1406,"_hist":1407,"play":1408,"ount":1409,"_unt":1410,"_mem":1411,"_sty":1412,"_beh":1413,"_At":1414,"_tot":1415,"ited":1416,"_there's":1417,"ien":1418,"_death":1419,".\"":1420,"_Ar":1421,"olute":1422,"io":1423,"ower":1424,"_stupid":1425,"_exper":1426,"iol":1427,"_seeing":1428,"_production":1429,"_completely":1430,"_simply":1431,"_version":1432,"_Rob":1433,"_top":1434,"_song":1435,"-b":1436,"ross":1437,"_4":1438,"_heart":1439,"_supposed":1440,"_mess":1441,"_Hollywood":1442,"_includ":1443,"_pict":1444,"_defin":1445,"_tru":1446,"_dra":1447,"_wrong":1448,"_rep":1449,"ides":1450,"elt":1451,"_tit":1452,"oon":1453,"_/>O":1454,"itten":1455,"_open":1456,"_eas":1457,"_ending":1458,"_money":1459,"_One":1460,"_idea":1461,"orm":1462,"ied":1463,"ier":1464,"s.<br":1465,"_fail":1466,"fully":1467,"_house":1468,"_used":1469,"uth":1470,"_wife":1471,"_stud":1472,"_you're":1473,"fic":1474,"_either":1475,"_ret":1476,"_gener":1477,"_sy":1478,"amp":1479,"gr":1480,"_everything":1481,"-w":1482,"ove":1483,"_word":1484,"_loc":1485,"-l":1486,"_pain":1487,"_given":1488,"idd":1489,"_ass":1490,"_black":1491,"_exam":1492,"_emot":1493,"/10":1494,"_cra":1495,"ric":1496,"_becom":1497,"_small":1498,"_--":1499,"_conc":1500,"_absolute":1501,"_ind":1502,"velop":1503,"_vide":1504,"_women":1505,"_count":1506,"_particul":1507,"_\"S":1508,"_/>It":1509,"_gra":1510,"_Well":1511,"_rom":1512,"_8":1513,"_try":1514,"ted":1515,"_light":1516,"ities":1517,"ers,":1518,"_until":1519,"_cop":1520,"_favor":1521,"ues":1522,"_serious":1523,"ug":1524,"_couple":1525,"reak":1526,"_along":1527,"_sad":1528,"e.":1529,"_sort":1530,"fortun":1531,"vis":1532,"itely":1533,"ike":1534,"iness":1535,"_hope":1536,"_wa":1537,"_5":1538,"ider":1539,"_truly":1540,"_cred":1541,"_later":1542,"my":1543,"_viol":1544,"ains":1545,"-d":1546,"iant":1547,"sel":1548,"_moment":1549,"ks":1550,"ories":1551,"on,":1552,"_amaz":1553,"_instead":1554,"ists":1555,"_form":1556,"_flick":1557,"_remember":1558,"aj":1559,"haps":1560,"_7":1561,"_pass":1562,"_full":1563,"_hero":1564,"ize":1565,"oice":1566,"_awful":1567,"ote":1568,"ility":1569,"_school":1570,"ets":1571,"_humor":1572,"able.":1573,"_except":1574,"_gives":1575,"IN":1576,"_effects":1577,"_budget":1578,"_getting":1579,"_itself":1580,"_On":1581,"_z":1582,"_talent":1583,"_(and":1584,"_Le":1585,"_slow":1586,"_become":1587,"_wonderful":1588,"_sw":1589,"_develop":1590,"_cut":1591,"_line":1592,"_Will":1593,"_dri":1594,"_often":1595,"_terrible":1596,"olog":1597,"_next":1598,"_face":1599,"ax":1600,"_Man":1601,"ister":1602,"ument":1603,"_felt":1604,"_reg":1605,"_playing":1606,"_all,":1607,"right":1608,"_ann":1609,"und":1610,"_guess":1611,"_THE":1612,"_9":1613,"_Se":1614,"_piece":1615,"_close":1616,"ery":1617,"lease":1618,"aughter":1619,"_coll":1620,"_mis":1621,"com":1622,"_Car":1623,"_quest":1624,"ael":1625,"_live":1626,"_(wh":1627,"_impress":1628,"'ve":1629,"_early":1630,"_dead":1631,"_fant":1632,"_brill":1633,"_doing":1634,"_couldn't":1635,"_name":1636,"_.":1637,"_camera":1638,"reme":1639,"_mother":1640,"_However,":1641,"_conv":1642,"_liked":1643,"_went":1644,"ics":1645,"med":1646,"tern":1647,"ibly":1648,"_Jack":1649,"_mention":1650,"_picture":1651,"_against":1652,"_strong":1653,"_relation":1654,"_children":1655,"_ref":1656,"_rid":1657,"ccess":1658,"ular":1659,"ins":1660,"_Even":1661,"_style":1662,"_video":1663,"ured":1664,"_waste":1665,"_dark":1666,"0s":1667,"ump":1668,"ently":1669,"_New":1670,"_No":1671,"yn":1672,"_past":1673,"-p":1674,"_Dav":1675,"lish":1676,"_title":1677,"_/>M":1678,"ific":1679,"_trans":1680,"_time,":1681,"_After":1682,"oid":1683,"pite":1684,"_kids":1685,"_worse":1686,"ichael":1687,"_is,":1688,"unch":1689,"urt":1690,"_His":1691,"_absolutely":1692,"_written":1693,"_definitely":1694,"atur":1695,"ony":1696,"oub":1697,"ation.":1698,"_appear":1699,"_support":1700,"iam":1701,"itch":1702,"ers.":1703,"rew":1704,"_(the":1705,"_becomes":1706,"selves":1707,"riend":1708,"enn":1709,"_thrill":1710,"_maybe":1711,"_":1712,"_Some":1713,"_alread":1714,"_seemed":1715,"_brother":1716,"_example":1717,"imes":1718,"_success":1719,"_lives":1720,"_rent":1721,"_Mc":1722,"iving":1723,"_pred":1724,"rop":1725,"que":1726,"_pop":1727,"ized":1728,"_Eng":1729,"ows":1730,"_adm":1731,"_brilliant":1732,"_To":1733,"_sever":1734,"_certainly":1735,"_performances":1736,"ming":1737,"het":1738,"_extreme":1739,"_relationship":1740,"_several":1741,"_matter":1742,"ation,":1743,"_Har":1744,"_tou":1745,"_although":1746,"osp":1747,"a's":1748,"_cent":1749,"_cor":1750,"_power":1751,"ger":1752,"_blood":1753,"_wanted":1754,"_self":1755,"gu":1756,"aken":1757,"ler":1758,"uc":1759,"ief":1760,"-s":1761,").<br":1762,"aul":1763,"body":1764,"_walk":1765,"_that,":1766,"chn":1767,"_pur":1768,"ments":1769,"_them.":1770,"oup":1771,"_master":1772,"_lost":1773,"_mag":1774,"_loved":1775,"_et":1776,"cess":1777,"_dem":1778,"_town":1779,"iet":1780,"sych":1781,"_annoy":1782,"ly.":1783,"_/>F":1784,"ape":1785,"aving":1786,"pped":1787,"unk":1788,"_tries":1789,"oil":1790,"unt":1791,"_present":1792,"used":1793,"_vill":1794,"ography":1795,"ined":1796,"_list":1797,"ley":1798,"_totally":1799,"_dr":1800,"_prov":1801,"_occ":1802,"_av":1803,"_throughout":1804,"oke":1805,"_sat":1806,"uss":1807,"_friends":1808,"_able":1809,"_genre":1810,"_num":1811,"_quality":1812,"_par":1813,"_deser":1814,"orge":1815,"_manag":1816,"_dialogue":1817,"_capt":1818,"_daughter":1819,"_already":1820,"ung":1821,"_novel":1822,"_history":1823,"_eff":1824,"_wants":1825,"!<br":1826,"_med":1827,"where":1828,"_fine":1829,"_doc":1830,"_episode":1831,"OT":1832,"_side":1833,"ided":1834,"lt":1835,"_col":1836,"_stuff":1837,"_called":1838,"use":1839,"_Is":1840,"ern":1841,"_I'd":1842,"??":1843,"_fem":1844,"_Michael":1845,"_today":1846,"_gave":1847,"_val":1848,"_fair":1849,"_moments":1850,"off":1851,"_mor":1852,"_finally":1853,"_\"B":1854,"_bra":1855,"_Char":1856,"illy":1857,"itive":1858,"_With":1859,"_deal":1860,"_enjoyed":1861,"_actress":1862,"_learn":1863,"_late":1864,"_based":1865,"_one.":1866,"_behind":1867,"amed":1868,"_fig":1869,"arth":1870,"_myster":1871,"ient":1872,"_inf":1873,"_lines":1874,"_hon":1875,"what":1876,"_stars":1877,"_themselves":1878,"-h":1879,"_Dan":1880,"_won't":1881,"ished":1882,"_cult":1883,"arb":1884,"_story,":1885,"_funn":1886,"_contin":1887,"_evil":1888,"19":1889,"_final":1890,"_situ":1891,"_releas":1892,"ik":1893,"_stay":1894,"_case":1895,"_import":1896,"ajor":1897,"able,":1898,"rodu":1899,"_this.":1900,"_starts":1901,"ox":1902,"ity,":1903,"_prom":1904,"_favorite":1905,"_etc":1906,"_stra":1907,"_ask":1908,"_shoot":1909,"_turns":1910,"_Then":1911,"_crit":1912,"_opp":1913,"aring":1914,"usb":1915,"_\"I":1916,"_group":1917,"_exact":1918,"_me.":1919,"_level":1920,"_typ":1921,"astic":1922,"_writ":1923,"_While":1924,"ried":1925,"_him.":1926,"line":1927,"al,":1928,"_Brit":1929,"_\"A":1930,"ior":1931,"_intell":1932,"_ir":1933,"_foot":1934,"_fa":1935,"_win":1936,"_stories":1937,"_myself":1938,"_Also":1939,"_consider":1940,"_susp":1941,"_deli":1942,"_cost":1943,"_document":1944,"_pat":1945,"_psych":1946,"ous,":1947,"ged":1948,"rib":1949,"_/>D":1950,"_decent":1951,"_musical":1952,"_Just":1953,"_pick":1954,"_incred":1955,"_beginning":1956,"_sn":1957,"_effort":1958,"_dream":1959,"_boring":1960,"_const":1961,"_others":1962,"_feeling":1963,"usband":1964,"_horrible":1965,"_this,":1966,"_ridicul":1967,"yp":1968,"_bus":1969,"_stop":1970,"ity.":1971,"_heard":1972,"_good.":1973,"_,":1974,"_mot":1975,"AN":1976,"_Her":1977,"_took":1978,"_famil":1979,"_/>H":1980,"_chang":1981,"_son":1982,"_stru":1983,"_cinemat":1984,"_well.":1985,"ives":1986,"_cannot":1987,"_major":1988,"antic":1989,"_hit":1990,"_soon":1991,"_Ge":1992,"ene":1993,"_game":1994,"_God":1995,"_she's":1996,"_Of":1997,"_story.":1998,"gan":1999,"_fore":2000,"_feat":2001,"_(I":2002,"_teen":2003,"_weak":2004,"_me,":2005,"LL":2006,"_May":2007,"y's":2008,"ous.":2009,"_you'll":2010,"_predict":2011,"_hilar":2012,"ese":2013,"eth":2014,"ys":2015,"_husband":2016,"_all.":2017,"_room":2018,"_Robert":2019,"_Why":2020,"urb":2021,"_/>N":2022,"_voice":2023,"ton":2024,"_techn":2025,"_type":2026,"_sle":2027,"_opin":2028,"_viewer":2029,"AT":2030,"aves":2031,"_non":2032,"akers":2033,"_pay":2034,"_Or":2035,"_experience":2036,"_they're":2037,"_\"M":2038,"_result":2039,"-up":2040,"_break":2041,"how":2042,"_prof":2043,"ms":2044,"_sol":2045,"_hold":2046,"_Ke":2047,"_bring":2048,"_fans":2049,"omin":2050,"mm":2051,"_film's":2052,"ement":2053,"ches":2054,"rit":2055,"_told":2056,"_\"D":2057,"mp":2058,"uge":2059,"_entertaining":2060,"...<br":2061,"_life.":2062,"_violence":2063,"_tele":2064,"_guys":2065,"ichard":2066,"_thinking":2067,"_/>In":2068,"_extremely":2069,"_Every":2070,"_works":2071,"_leave":2072,"apan":2073,"_fut":2074,"_Ed":2075,"owing":2076,"_ste":2077,"_chance":2078,"_crap":2079,"_Ger":2080,"_sequel":2081,"_move":2082,"_\"C":2083,"_pleas":2084,"_perhaps":2085,"_esc":2086,"_wouldn't":2087,"_200":2088,"_important":2089,"_writing":2090,"_ant":2091,"_6":2092,"_cheap":2093,"_Gr":2094,"_good,":2095,"iddle":2096,"_pos":2097,"_Mr.":2098,"_\"W":2099,"_jok":2100,"_quick":2101,"_white":2102,"ered":2103,"_score":2104,"ude":2105,"rack":2106,"'ll":2107,"_stre":2108,"or,":2109,"_produc":2110,"ST":2111,"o.":2112,"_uni":2113,"rest":2114,"_amazing":2115,"_Ind":2116,"ON":2117,"_shown":2118,"_Pet":2119,"_Paul":2120,"_/>There":2121,"_foc":2122,"_shock":2123,"_course,":2124,"_looked":2125,"_polit":2126,"bel":2127,"ential":2128,"wards":2129,"_desc":2130,"_Q":2131,"ic,":2132,"_killer":2133,"_phot":2134,"side":2135,"_disco":2136,"na":2137,"_apparent":2138,"h,":2139,"_murder":2140,"ering":2141,"_ang":2142,"_(19":2143,"_similar":2144,"_simple":2145,"ational":2146,"_number":2147,"_inde":2148,"mb":2149,"using":2150,"_There's":2151,"ek":2152,"_direction":2153,"_English":2154,"_War":2155,"AR":2156,"aim":2157,"_taken":2158,"_James":2159,"OR":2160,"_well,":2161,"ground":2162,"ovie":2163,"_Japan":2164,"_Now":2165,"_var":2166,"_yourself":2167,"_highly":2168,"_particularly":2169,"_Osc":2170,"_Pl":2171,"_\"H":2172,"udd":2173,"rence":2174,"_gun":2175,"_treat":2176,"_four":2177,"_alone":2178,"_dev":2179,"_deep":2180,"_unc":2181,"_return":2182,"by":2183,"_directed":2184,"_ill":2185,"_lar":2186,"_known":2187,"omp":2188,"_possible":2189,"rench":2190,"_somewhat":2191,"_says":2192,"_cool":2193,"al.":2194,"_finds":2195,"_obviously":2196,"_gore":2197,"_moder":2198,"_doub":2199,"_whose":2200,"_disc":2201,"_hot":2202,"_movies.":2203,"_usual":2204,"_season":2205,"_prem":2206,"_exactly":2207,"_filmm":2208,"ubl":2209,"_Per":2210,"_parts":2211,"_subject":2212,"nds":2213,"enty":2214,"_coming":2215,"_zomb":2216,"_pot":2217,"ady":2218,"ies,":2219,"itting":2220,"_/>If":2221,"_narr":2222,"ield":2223,"vable":2224,"_huge":2225,"_forget":2226,"_David":2227,"utter":2228,"_plan":2229,"_Richard":2230,"_movies,":2231,"ouble":2232,"_pull":2233,"_dest":2234,"_sent":2235,"_Me":2236,"!\"":2237,"_local":2238,"irt":2239,"_girls":2240,"_Pe":2241,"_single":2242,"_fill":2243,"_colle":2244,"ment.":2245,"_build":2246,"!!!!":2247,"_Ad":2248,"_female":2249,"mosp":2250,"_wish":2251,"_films,":2252,"ustr":2253,"hat":2254,"_age":2255,"_vict":2256,"ograph":2257,"-st":2258,"_Tom":2259,"ron":2260,"_across":2261,"_sister":2262,"_opening":2263,"_mist":2264,"_however,":2265,"_attention":2266,"_honest":2267,"_sign":2268,"_acting,":2269,"antly":2270,"_happens":2271,"ole":2272,"_mad":2273,"ald":2274,"****":2275,"_strange":2276,"ball":2277,"reci":2278,"oud":2279,"_remind":2280,"_touch":2281,"ator":2282,"_atmosp":2283,"_sometimes":2284,"_killed":2285,"_save":2286,"_change":2287,"_meet":2288,"_knew":2289,"_started":2290,"_William":2291,"_that.":2292,"_drama":2293,"che":2294,"_middle":2295,"ally,":2296,"orth":2297,"iel":2298,"_\"T":2299,"_Je":2300,"_order":2301,"ately,":2302,"nded":2303,"_turned":2304,"head":2305,"_British":2306,"_suspense":2307,"aris":2308,"pping":2309,"_tells":2310,"outh":2311,"_despite":2312,"_cinema":2313,"_parent":2314,"_Dis":2315,"_sequence":2316,"ING":2317,"s\"":2318,"ure,":2319,"_modern":2320,"_comic":2321,"_televis":2322,"an,":2323,"_compl":2324,"_subt":2325,"_detail":2326,"_doubt":2327,"er's":2328,"_inn":2329,"_El":2330,"enc":2331,"_feature":2332,"aced":2333,"_apart":2334,"_involved":2335,"uri":2336,"_Do":2337,"ously":2338,"_straight":2339,"_police":2340,"_intellig":2341,"_air":2342,"_team":2343,"yond":2344,"iod":2345,"_respect":2346,"_running":2347,"light":2348,"_ten":2349,"_pri":2350,"_equ":2351,"_aren't":2352,"_unf":2353,"_usually":2354,"_country":2355,"_hell":2356,"_Oscar":2357,"_taking":2358,"_hop":2359,"_here.":2360,"_ear":2361,"ush":2362,"ubb":2363,"_bad.":2364,"_contro":2365,"_prot":2366,"_romantic":2367,"over":2368,"ination":2369,"rely":2370,"aterial":2371,"EN":2372,"ances":2373,"_twist":2374,"ies.":2375,"_way,":2376,"_Any":2377,"_ve":2378,"_Ne":2379,"o's":2380,"_theat":2381,"_mark":2382,"_explain":2383,"_!":2384,"ats":2385,"iety":2386,"_among":2387,"oul":2388,"_it.<br":2389,"form":2390,"_York":2391,"_20":2392,"iché":2393,"_including":2394,"_due":2395,"_aspect":2396,"_adult":2397,"_fact,":2398,"zy":2399,"imp":2400,"_eyes":2401,"_easily":2402,"_cart":2403,"_land":2404,"_swe":2405,"_exist":2406,"_talking":2407,"oe":2408,"_check":2409,"_supporting":2410,"_er":2411,"arch":2412,"_fast":2413,"asc":2414,"_/>P":2415,"_dull":2416,"_/>But":2417,"_material":2418,"_out.":2419,"_saying":2420,"_appreci":2421,"ltim":2422,"iment":2423,"ett":2424,"_sexual":2425,"_adv":2426,"_clearly":2427,"_forg":2428,"'m":2429,"_characters,":2430,"_prog":2431,"_happened":2432,"ution":2433,"_camp":2434,"gs":2435,"_body":2436,"oof":2437,"_actual":2438,"_eng":2439,",\"":2440,"lin":2441,"real":2442,"_ca":2443,"_living":2444,"_box":2445,"_creep":2446,"hetic":2447,"eng":2448,"_Don't":2449,"_ends":2450,"_writer":2451,"_odd":2452,"_Am":2453,"_end,":2454,"estern":2455,"_sold":2456,"_again.":2457,"ctor":2458,"iest":2459,"_and,":2460,"_falls":2461,"_none":2462,"aught":2463,"_previous":2464,"attle":2465,"ised":2466,"_giving":2467,"_herself":2468,"_rock":2469,"_German":2470,"ven't":2471,"_cliché":2472,"_mostly":2473,"_Although":2474,"row":2475,"_reve":2476,"alian":2477,"_I'll":2478,"_spir":2479,"_197":2480,"pend":2481,"_one,":2482,"iar":2483,"'d":2484,"_OK":2485,"_victim":2486,"_Con":2487,"_Well,":2488,"any":2489,"let":2490,"_First":2491,"_flaw":2492,"en,":2493,"amb":2494,"_period":2495,"_question":2496,"otic":2497,"imin":2498,"_\"L":2499,"_knows":2500,"_198":2501,"_documentary":2502,"ences":2503,"_bad,":2504,"_Mor":2505,"_appears":2506,"_secret":2507,"_above":2508,"_adapt":2509,"_speak":2510,"_gang":2511,"_near":2512,"_Ph":2513,"_feels":2514,"anger":2515,"_clear":2516,"_bel":2517,"_suck":2518,"_needs":2519,"track":2520,"_met":2521,"irector":2522,"_Pr":2523,"_slight":2524,"_attack":2525,"_visual":2526,"all,":2527,"_\"P":2528,"_ru":2529,"_future":2530,"arre":2531,"_(M":2532,"?<br":2533,"_Su":2534,"_standard":2535,"ficult":2536,"_tre":2537,"_bunch":2538,"nter":2539,"_end.":2540,"_hate":2541,"_haven't":2542,"',":2543,"_Sam":2544,"_emb":2545,"ggest":2546,"_released":2547,"_is.":2548,"_fell":2549,"_way.":2550,"_IM":2551,"ky":2552,"_/>C":2553,"_comb":2554,"_nearly":2555,"_superb":2556,"_difficult":2557,"_accept":2558,"_beyond":2559,"_within":2560,"_mil":2561,"_Tr":2562,"_hear":2563,"_Ben":2564,"_NOT":2565,"_spoil":2566,"ublic":2567,"_suggest":2568,"_prop":2569,"_soundtrack":2570,"lling":2571,"_suff":2572,"ance,":2573,"!)":2574,"OU":2575,"ital":2576,"_seen.":2577,"_decided":2578,"_bro":2579,"ent,":2580,"_George":2581,"view":2582,"aur":2583,"_wit":2584,"_her.":2585,"_insp":2586,"-g":2587,"_named":2588,"_hours":2589,"_clim":2590,"back":2591,"_five":2592,"_(J":2593,"_upon":2594,"ires":2595,"_(S":2596,"i,":2597,"_dru":2598,"ots":2599,"ment,":2600,"_villain":2601,"_rating":2602,"_fantastic":2603,"_typical":2604,"_/>E":2605,"_here,":2606,"_danc":2607,"_kept":2608,"_personal":2609,"af":2610,"lus":2611,"ones":2612,"_films.":2613,"_movie.<br":2614,"_scary":2615,"ina":2616,"age.":2617,"_again,":2618,"RE":2619,"_tried":2620,"_That's":2621,"_figure":2622,"_tale":2623,"_plot,":2624,"_US":2625,"rison":2626,"_los":2627,"_truth":2628,"sw":2629,"asy":2630,"IL":2631,"orld":2632,"_stri":2633,"_wait":2634,"_annoying":2635,"rific":2636,"_using":2637,"_weird":2638,"atever":2639,"_showing":2640,"_brought":2641,"!!!":2642,"_particular":2643,"_mix":2644,"set":2645,"_him,":2646,"_happy":2647,"_atmosphere":2648,"-the":2649,"_etc.":2650,"_large":2651,"_ones":2652,"_working":2653,"_/>And":2654,"_events":2655,"_surv":2656,"iction":2657,"_shots":2658,"_cat":2659,"_post":2660,"_roles":2661,"_realistic":2662,"_memor":2663,"_introdu":2664,"_unfortun":2665,"_/>As":2666,"_days":2667,"_surprised":2668,"_hilarious":2669,"_business":2670,"_wood":2671,"_Che":2672,"_whether":2673,"_bab":2674,"aces":2675,"_*":2676,"uses":2677,"_French":2678,"_chees":2679,"of":2680,"_norm":2681,"_Lee":2682,"_background":2683,"_life,":2684,"_express":2685,"_Unfortun":2686,"_red":2687,"_King":2688,"_obs":2689,"ury":2690,"_Jim":2691,"_film.<br":2692,"_greatest":2693,"_jokes":2694,"_und":2695,"_(s":2696,"_(as":2697,"_Joe":2698,"_episodes":2699,"_Sm":2700,"_iss":2701,"_on.":2702,"oose":2703,"_Col":2704,"_utter":2705,"_sil":2706,"_199":2707,"_begins":2708,"ceed":2709,"age,":2710,"oor":2711,"_bar":2712,"'.":2713,"dden":2714,"_aver":2715,"esome":2716,"_rese":2717,"_Most":2718,"_basically":2719,"_songs":2720,"?\"":2721,"host":2722,"kay":2723,"_free":2724,"_soc":2725,"_design":2726,"_Frank":2727,"_strugg":2728,"i's":2729,"_effective":2730,"_buy":2731,"urther":2732,"_easy":2733,"_front":2734,"_eye":2735,"_nature":2736,"_exec":2737,"_became":2738,"_career":2739,"_Don":2740,"_Maybe":2741,"_...":2742,"lfriend":2743,"ES":2744,"_(which":2745,"_hands":2746,"_law":2747,"_avoid":2748,"_appro":2749,"_famous":2750,"mas":2751,"_credit":2752,"ara":2753,"_screenplay":2754,"o-":2755,"_(A":2756,"_too.":2757,"_reality":2758,"_murd":2759,"_Disney":2760,"work":2761,"_cur":2762,"_ultim":2763,"_leaves":2764,"_sets":2765,"_dumb":2766,"_Tim":2767,"ogn":2768,"atural":2769,"gy":2770,"oic":2771,"hel":2772,"_\"R":2773,"_sudden":2774,"_ridiculous":2775,"_cinematography":2776,"_cas":2777,"urd":2778,"_Gu":2779,"spect":2780,"_situation":2781,"bor":2782,"hood":2783,"ially":2784,"_tast":2785,"ining":2786,"oop":2787,"ension":2788,"_fire":2789,"_funny.":2790,"to":2791,"_pure":2792,"_means":2793,"_jump":2794,"hys":2795,"_theater":2796,"_sens":2797,"_ment":2798,"_die":2799,"_trad":2800,"_killing":2801,"_Peter":2802,"irc":2803,"_Can":2804,"more":2805,"in,":2806,"_male":2807,"_third":2808,"_/>It's":2809,"_masterp":2810,"_cartoon":2811,"_anyway":2812,"_bored":2813,"EA":2814,"uro":2815,"_sor":2816,"_silly":2817,"_cap":2818,"rated":2819,"_gone":2820,"_heav":2821,"_storyline":2822,"_lots":2823,"_costum":2824,"_television":2825,"reed":2826,"_Like":2827,"_Night":2828,"_Scott":2829,"_liter":2830,"_meant":2831,"_characters.":2832,"gic":2833,"nding":2834,"_advent":2835,"_setting":2836,"_earli":2837,"ored":2838,"_wind":2839,"_elements":2840,"_emotional":2841,"rom":2842,"_Mart":2843,"_id":2844,"_poorly":2845,"_Japanese":2846,"bert":2847,"isf":2848,"_inte":2849,"_funny,":2850,"ising":2851,"_somehow":2852,"_IMD":2853,"chie":2854,"_(w":2855,"_theme":2856,"_realize":2857,"bs":2858,"_/>L":2859,"_overall":2860,"_Tw":2861,"_release":2862,"_character,":2863,"_crime":2864,"_(B":2865,"_\"G":2866,"ants":2867,"_From":2868,"_problems":2869,"ening":2870,"ate,":2871,"_By":2872,"ters":2873,"_Who":2874,"_resp":2875,"ai":2876,"on.":2877,"_Gra":2878,"_meets":2879,"ians":2880,"_keeps":2881,"_message":2882,"ased":2883,"_enjoyable":2884,"_oper":2885,"_out,":2886,"_concept":2887,"_dramatic":2888,"_disturb":2889,"_stick":2890,"_Its":2891,"wise":2892,"_/>R":2893,"_Sch":2894,"_Good":2895,"_allow":2896,"_unlike":2897,"ino":2898,"rey":2899,"_These":2900,"_write":2901,"por":2902,"erv":2903,"_mill":2904,"_dam":2905,"_them,":2906,"_emotion":2907,"_fasc":2908,"_Ang":2909,"_convinc":2910,"_AN":2911,"_Wood":2912,"_conne":2913,"ressed":2914,"_forward":2915,"_\"F":2916,"_premise":2917,"_public":2918,"_nud":2919,"aker":2920,"_Ex":2921,"_grand":2922,"_popular":2923,"_profess":2924,"_possibly":2925,"_$":2926,"_sick":2927,"ive,":2928,"angu":2929,"_/>\"":2930,"_leads":2931,"zz":2932,"on's":2933,"_nor":2934,"_moving":2935,"_admit":2936,"?)":2937,"bb":2938,"_lame":2939,"rif":2940,"_girlfriend":2941,"_cover":2942,"_`":2943,"_lim":2944,"_project":2945,"_stere":2946,"allow":2947,"_Mac":2948,"_brings":2949,"_points":2950,"_apparently":2951,"erm":2952,"_lin":2953,"_say,":2954,"erry":2955,"le,":2956,"_(C":2957,"_on,":2958,"_animation":2959,"_comments":2960,"lect":2961,"_(or":2962,"iff":2963,"_enc":2964,"_however":2965,"_flat":2966,"_minute":2967,"_Mat":2968,"_(a":2969,"_you've":2970,"_reading":2971,"ring":2972,"_Sim":2973,"_who's":2974,"_Jul":2975,"_appeal":2976,"_band":2977,"_catch":2978,"_better.":2979,"_195":2980,"_meaning":2981,"ary,":2982,"_needed":2983,"-in":2984,"et,":2985,"_filmed":2986,"_clever":2987,"_potential":2988,"_spirit":2989,"ask":2990,"_eventually":2991,"_sleep":2992,"s'":2993,"_battle":2994,"_(D":2995,"_imm":2996,"_viewers":2997,"ma":2998,"_joke":2999,"_imagine":3000,"_towards":3001,"_create":3002,"ana":3003,"_whom":3004,"_Film":3005,"_powerful":3006,"opp":3007,"inn":3008,"_Lu":3009,"_offic":3010,"_Inst":3011,"_occas":3012,"ivid":3013,"_histor":3014,"_purp":3015,"_repe":3016,"_flash":3017,"_recogn":3018,"_viewing":3019,"_amount":3020,"_various":3021,"els":3022,"eless":3023,"_Fl":3024,"_Christmas":3025,"belie":3026,"kn":3027,"unn":3028,"IS":3029,"_forced":3030,"_193":3031,"_ideas":3032,"friend":3033,"hic":3034,"_Com":3035,"_social":3036,"_innoc":3037,"_stereot":3038,"_bare":3039,"_plain":3040,"_work.":3041,"arring":3042,"_gay":3043,"_watch.":3044,"_though,":3045,"_leading":3046,"_stage":3047,"_dog":3048,"_words":3049,"_Qu":3050,"_aut":3051,"onic":3052,"_Fred":3053,"_invest":3054,"_deserves":3055,"_claim":3056,"_space":3057,"_incredibly":3058,"vin":3059,"ashing":3060,"_:":3061,"_ign":3062,"arrass":3063,"ele":3064,"unning":3065,"_up.":3066,"_show.":3067,"_commun":3068,"_IMDb":3069,"_/>G":3070,"vered":3071,"_Jane":3072,"mist":3073,"_dance":3074,"ilt":3075,"_Des":3076,"berg":3077,"_positive":3078,"_agree":3079,"_attract":3080,"_manages":3081,"_masterpiece":3082,"_est":3083,"_match":3084,"_step":3085,"_kick":3086,"_neg":3087,"cessary":3088,"_revol":3089,"_disappointed":3090,"_Af":3091,"_jour":3092,"_rich":3093,"_there.":3094,"_interested":3095,"_track":3096,"i-":3097,"wart":3098,"_cond":3099,"_Euro":3100,"_older":3101,"_marri":3102,"_embarrass":3103,"_phys":3104,"_Here":3105,"_desper":3106,"_ess":3107,"ius":3108,"ue,":3109,"_circ":3110,"_political":3111,"_you.":3112,"_reviews":3113,"_total":3114,"_achie":3115,"_react":3116,"_Watch":3117,"ived":3118,"_He's":3119,"_remake":3120,"ges":3121,"king":3122,"asher":3123,"lex":3124,"_extra":3125,"_average":3126,"_stat":3127,"_\"s":3128,"_badly":3129,"ford":3130,"_fairly":3131,"_cry":3132,"alt":3133,".)":3134,"go":3135,"_expecting":3136,"_plenty":3137,"while":3138,"_expected":3139,"_her,":3140,"_trash":3141,"_Stre":3142,"een":3143,"_shame":3144,"_unique":3145,"_langu":3146,"_symp":3147,"_scenes,":3148,"_features":3149,"_Star":3150,"\")":3151,"_af":3152,"_Bra":3153,"_clos":3154,"medi":3155,"You":3156,"gest":3157,"_further":3158,"_hom":3159,"_lat":3160,"irl":3161,"_crew":3162,"bers":3163,"dy":3164,"ell,":3165,"ipp":3166,"venge":3167,"_remark":3168,"_familiar":3169,"S.":3170,"ey":3171,"_Over":3172,"_worked":3173,"_attempts":3174,"ame,":3175,"_relig":3176,"_opinion":3177,"_ident":3178,"oman":3179,"ague":3180,"_charm":3181,"_up,":3182,"_scene,":3183,"_ago":3184,"_hardly":3185,"_skill":3186,"_Bill":3187,"oph":3188,"_reveal":3189,"_aff":3190,"_city":3191,"_answ":3192,"_scient":3193,"_sequences":3194,"_society":3195,"_Gold":3196,"_recent":3197,"_Also,":3198,"_destro":3199,"alth":3200,"_trail":3201,"_accident":3202,"_caught":3203,"olf":3204,"_decides":3205,"_delight":3206,"_requ":3207,"cious":3208,"_Black":3209,"_footage":3210,"_di":3211,"_depth":3212,"OO":3213,"_mid":3214,"_writers":3215,"_pace":3216,"_mod":3217,"key":3218,"_scream":3219,"_hair":3220,"_intri":3221,"_unbelie":3222,"acing":3223,"_record":3224,"_prison":3225,"_vamp":3226,"less,":3227,"_complex":3228,"_draw":3229,"_biz":3230,"_Ser":3231,"_Gl":3232,"_directors":3233,"_color":3234,"_whatever":3235,"room":3236,"_(\"":3237,"ective":3238,"iences":3239,"_medi":3240,"_Italian":3241,"_immedi":3242,"_explo":3243,"_week":3244,"aint":3245,"ages":3246,"_Pat":3247,"idden":3248,"ise,":3249,"ishing":3250,"_rece":3251,"agon":3252,"_fails":3253,"_predictable":3254,"_World":3255,"ossible":3256,"fer":3257,"_ble":3258,"an's":3259,"ained":3260,"_outside":3261,"_impro":3262,"_(who":3263,"lu":3264,"upp":3265,"_hy":3266,"_Bar":3267,"ate.":3268,"_inside":3269,"ent.":3270,"_\"f":3271,"aked":3272,"_30":3273,"_Europe":3274,"_porn":3275,"_Other":3276,"_uses":3277,"ia,":3278,"anks":3279,"vil":3280,"_\"c":3281,"gend":3282,"ibility":3283,"_copy":3284,"_rap":3285,"cher":3286,"ure.":3287,"_brief":3288,"_/>What":3289,"_amb":3290,"_critic":3291,"_solid":3292,"_former":3293,"_sees":3294,"ictor":3295,"_entertainment":3296,"ises":3297,"arl":3298,"_sounds":3299,"_editing":3300,"_parents":3301,"_control":3302,"_idi":3303,"rect":3304,"_store":3305,"itted":3306,"acher":3307,"_quickly":3308,"cy":3309,"lict":3310,"_please":3311,"arm":3312,"_Dr.":3313,"_slightly":3314,"uit":3315,"_portrayed":3316,"_mystery":3317,"ral":3318,"_Great":3319,"man,":3320,"_perfectly":3321,"_seriously":3322,"_waiting":3323,"come":3324,"_ghost":3325,"_Mad":3326,"_15":3327,"_ways":3328,"_common":3329,"_thriller":3330,"_successful":3331,"VER":3332,"_ine":3333,"_telling":3334,"_conclus":3335,"_mel":3336,"_Ir":3337,"_regard":3338,"vert":3339,"_years.":3340,"_credits":3341,"_memorable":3342,"_Instead":3343,"lying":3344,"_Bat":3345,"_\"m":3346,"_comput":3347,"_hol":3348,"_Kell":3349,"_spent":3350,"_196":3351,"_talented":3352,"_satisf":3353,"_brain":3354,"_escape":3355,"_tear":3356,"_rad":3357,"ips":3358,"ED":3359,"_Act":3360,"_(R":3361,"plic":3362,"_recently":3363,"OW":3364,"_mass":3365,"ribut":3366,"_romance":3367,"_earlier":3368,"ide,":3369,"_Ann":3370,"_Mary":3371,"_slasher":3372,"ow,":3373,"_jud":3374,"_Pro":3375,"_times,":3376,"_genu":3377,"bo":3378,"_travel":3379,"_biggest":3380,"_auth":3381,"_wild":3382,"_Mr":3383,"_arri":3384,"_Still":3385,"-n":3386,"his":3387,"_compe":3388,"_what's":3389,"_fit":3390,"_Red":3391,"_Rock":3392,"way,":3393,"_spend":3394,"_trip":3395,"vern":3396,"_Big":3397,"_there,":3398,"_continu":3399,"_mach":3400,"_breat":3401,"_uns":3402,"_wrote":3403,"_entirely":3404,"_concern":3405,"_filmmakers":3406,"_zombie":3407,"ious,":3408,"_Mon":3409,"_believable":3410,"_incredible":3411,"_forgot":3412,"as,":3413,"ival":3414,"_general":3415,"_focus":3416,"les.":3417,"ula":3418,"resh":3419,"_rob":3420,"iny":3421,"_it!":3422,"_Tra":3423,"rage":3424,"_fear":3425,"_stereotyp":3426,"_Dead":3427,"_suit":3428,"_made.":3429,"_opportun":3430,"ateur":3431,"_fighting":3432,"izing":3433,"000":3434,"_repres":3435,"_sweet":3436,"_creepy":3437,"_fascin":3438,"_Bro":3439,"idered":3440,"_people.":3441,"_contr":3442,"annel":3443,"_portrayal":3444,"_encou":3445,"rel":3446,"_earth":3447,"_depict":3448,"_bizarre":3449,"ened":3450,"_II":3451,"ive.":3452,"eg":3453,"_rede":3454,"ift":3455,"_plot.":3456,"_glad":3457,"ry,":3458,"ales":3459,"_brut":3460,"_casting":3461,"_surprise":3462,"_drug":3463,"PO":3464,"_lad":3465,"les,":3466,"_tort":3467,"_soul":3468,"_sum":3469,"aged":3470,"_Lou":3471,"_weren't":3472,"_people,":3473,"_chemist":3474,"_fantasy":3475,"even":3476,"us,":3477,"_fol":3478,"_moves":3479,"_suspect":3480,"_missing":3481,"_monster":3482,"_Afric":3483,"_genuine":3484,"rian":3485,"_Park":3486,"this":3487,"_trouble":3488,"_spot":3489,"_compared":3490,"_appreciate":3491,"isc":3492,"ice,":3493,"_\"O":3494,"_show,":3495,"rag":3496,"_Hor":3497,"_Van":3498,"_said,":3499,"_imagin":3500,"aus":3501,"_wall":3502,"_House":3503,"_roll":3504,"_element":3505,"_fash":3506,"_kills":3507,"_/>Al":3508,"_actors,":3509,"_edit":3510,"_western":3511,"_luck":3512,"_ground":3513,"_decide":3514,"_married":3515,"val":3516,"ero":3517,"unny":3518,"_work,":3519,"_considered":3520,"ette":3521,"_crimin":3522,"_cheesy":3523,"_purpose":3524,"ces.":3525,"itary":3526,"_pract":3527,"_showed":3528,"_ended":3529,"_pointless":3530,"_following":3531,"aven":3532,"eah":3533,"_garb":3534,"_wasted":3535,"rid":3536,"_bull":3537,"_unin":3538,"_Yes,":3539,"_Victor":3540,"_/>J":3541,"_mood":3542,"_(in":3543,"_Smith":3544,"gl":3545,"_fat":3546,"_carry":3547,"_sorry":3548,"OM":3549,"_ball":3550,"_bother":3551,"_doll":3552,"_amateur":3553,"_comedy,":3554,"_follows":3555,"_filled":3556,"fort":3557,"_choice":3558,"_compet":3559,"_scenes.":3560,"_awesome":3561,"iche":3562,"_favour":3563,"_created":3564,"_mer":3565,"edy":3566,"_character.":3567,"i.":3568,"_tough":3569,"_Oh":3570,"appe":3571,"_missed":3572,"_be.":3573,"sequ":3574,"_unless":3575,"_display":3576,"IT":3577,"inger":3578,"arily":3579,"ries":3580,"_Mel":3581,"_suc":3582,"_runs":3583,"_members":3584,"_execut":3585,"ribly":3586,"_Indian":3587,"_redeem":3588,"-like":3589,"LE":3590,"ze":3591,"_affect":3592,"_sav":3593,"_more.":3594,"_too,":3595,"known":3596,"_\"N":3597,"_rare":3598,"_assum":3599,"_program":3600,"_beat":3601,"opher":3602,"thur":3603,"rupt":3604,"_impossible":3605,"ength":3606,"ener":3607,"_pers":3608,"ant,":3609,"_194":3610,"_studio":3611,"_faith":3612,"_tradition":3613,"_chemistry":3614,"_cute":3615,"_Movie":3616,"_Cor":3617,"_deliver":3618,"_barely":3619,"ces,":3620,"_squ":3621,"_fake":3622,"_Lond":3623,"***":3624,"_street":3625,"uk":3626,"itation":3627,"_ability":3628,"_disg":3629,"-y":3630,"_Fin":3631,"_animated":3632,"_bought":3633,"_hang":3634,"_lab":3635,"_won":3636,"_inform":3637,"str":3638,"ie,":3639,"_rate":3640,"_O'":3641,"_Super":3642,"_Best":3643,"_great,":3644,"_humour":3645,"_beauty":3646,"_crazy":3647,"_Ant":3648,"_Alex":3649,"ottom":3650,"_subtle":3651,"_cold":3652,"_loud":3653,"_Russ":3654,"_neigh":3655,"_Stan":3656,"_rand":3657,"_screen.":3658,"_role.":3659,"_in.":3660,"_ST":3661,"_'The":3662,"_value":3663,"_bed":3664,"_likes":3665,"_test":3666,"_Tony":3667,"_refe":3668,"_unex":3669,"_clot":3670,"_involving":3671,"_OF":3672,"aine":3673,"_Let":3674,"_leg":3675,"_otherwise":3676,"rem":3677,"_cru":3678,"_revenge":3679,"urch":3680,"_Love":3681,"_prep":3682,"ecause":3683,"_suddenly":3684,"_intrigu":3685,"irty":3686,"_younger":3687,"_insult":3688,"_Christian":3689,"_obsess":3690,"_Cra":3691,"_sci":3692,"_Ro":3693,"_laughing":3694,"_development":3695,"rend":3696,"_pow":3697,"idence":3698,"emy":3699,"_leaving":3700,"_But,":3701,"_Way":3702,"_basic":3703,"cast":3704,"_pie":3705,"_artist":3706,"ious.":3707,"round":3708,"reg":3709,"_you,":3710,"_(al":3711,"_\"d":3712,"_Ham":3713,"_acting.":3714,"_investig":3715,"_random":3716,"_spect":3717,"_100":3718,"_directing":3719,"_Unfortunately,":3720,"aire":3721,"_cross":3722,"_lady":3723,"_numb":3724,"_Sand":3725,"_def":3726,"_Earth":3727,"_train":3728,"_Stewart":3729,"_somewhere":3730,"_govern":3731,"wr":3732,"_Boy":3733,"_great.":3734,"_minor":3735,"_terror":3736,"_accent":3737,"ological":3738,"_occur":3739,"_climax":3740,"ging":3741,"stem":3742,"itty":3743,"_camer":3744,"_utterly":3745,"_pack":3746,"_Day":3747,"_neither":3748,"_man,":3749,"arsh":3750,"_magic":3751,"_non-":3752,"_approach":3753,"_author":3754,"-out":3755,"s)":3756,"_mult":3757,"le.":3758,"_times.":3759,"_accur":3760,"_absurd":3761,"_dad":3762,"_grap":3763,"_seg":3764,"_Hen":3765,"_mentioned":3766,"ILER":3767,"\".<br":3768,"inary":3769,"_\"b":3770,"_Another":3771,"_Steve":3772,"iding":3773,"_search":3774,"_god":3775,"_road":3776,"_heavy":3777,"_cause":3778,"_starring":3779,"_well-":3780,"awn":3781,"izes":3782,"ance.":3783,"_America":3784,"yl":3785,"_Mur":3786,"_acted":3787,"_singing":3788,"_immediately":3789,"AS":3790,"iven":3791,"oes":3792,"_was,":3793,"_note":3794,"_\"E":3795,"ively":3796,"_dig":3797,"_doctor":3798,"that":3799,"_lover":3800,"_/>All":3801,"_changed":3802,"_convincing":3803,"POILER":3804,"oun":3805,"_lau":3806,"_movie's":3807,"_Bru":3808,"_(L":3809,"_series,":3810,"_addition":3811,"ropri":3812,"_managed":3813,"_considering":3814,"_teenag":3815,"_Jeff":3816,"ades":3817,"_defe":3818,"_soldi":3819,"_sitting":3820,"_pun":3821,"_danger":3822,"_\"p":3823,"_thinks":3824,"_indeed":3825,"aff":3826,"_world.":3827,"ID":3828,"verse":3829,"_terrific":3830,"_college":3831,"_tone":3832,"_gem":3833,"_force":3834,"_failed":3835,"_/>My":3836,"_narrative":3837,"vir":3838,"_threat":3839,"_door":3840,"_nowhere":3841,"_Perhaps":3842,"OV":3843,"_curi":3844,"ify":3845,"ology":3846,"_impression":3847,"_ultimately":3848,"men":3849,"_tension":3850,"_six":3851,"_fully":3852,"une":3853,"_serial":3854,"_book,":3855,"_conflict":3856,"_month":3857,"_drive":3858,"_mistake":3859,"_computer":3860,"_succeed":3861,"ham":3862,"_gag":3863,"_Sw":3864,"_likely":3865,"_longer":3866,"_presence":3867,"BC":3868,"_not.":3869,"_producers":3870,"_warn":3871,"anic":3872,"_repl":3873,"_generally":3874,"_system":3875,"ding":3876,"vey":3877,"riff":3878,"_much.":3879,"_throw":3880,"_cast,":3881,"_added":3882,"_shooting":3883,"_respons":3884,"lyn":3885,"_Bel":3886,"_Wal":3887,"_finish":3888,"ancy":3889,"_intelligent":3890,"AD":3891,"irth":3892,"ified":3893,"_jo":3894,"_reasons":3895,"_exception":3896,"_avail":3897,"_Charlie":3898,"well":3899,"is,":3900,"_offe":3901,"acy":3902,"_cinematic":3903,"_interview":3904,"_Harry":3905,"_People":3906,"_notice":3907,"_Kill":3908,"_boys":3909,"_painful":3910,"_witness":3911,"tt":3912,"_Ab":3913,"_(T":3914,"_outstand":3915,"ability":3916,"_individ":3917,"_Angel":3918,"erk":3919,"_bod":3920,"_Ag":3921,"_Den":3922,"_Luc":3923,"_thrown":3924,"_exciting":3925,"_drawn":3926,"_dancing":3927,"boy":3928,"_bomb":3929,"_office":3930,"_produced":3931,"_questions":3932,"_equally":3933,"icated":3934,"_ur":3935,"_(P":3936,"andy":3937,"ached":3938,"_remain":3939,"_90":3940,"_flashback":3941,"-of":3942,"_natural":3943,"_Cal":3944,"_science":3945,"_water":3946,"_smart":3947,"_Adam":3948,"_Miss":3949,"_chall":3950,"_Em":3951,"_excuse":3952,"_describ":3953,"_nudity":3954,"ites":3955,"_pil":3956,"_Director":3957,"_remains":3958,"lessly":3959,"_pathetic":3960,"_constantly":3961,"ha":3962,"hol":3963,"min":3964,"heart":3965,"cted":3966,"_Dick":3967,"_Ray":3968,"_ord":3969,"_Str":3970,"_laughs":3971,"_Paris":3972,"_genius":3973,"_indust":3974,"_demon":3975,"_okay":3976,"_fre":3977,"_Chris":3978,"_suppose":3979,"_10.":3980,"_80's":3981,"_escap":3982,"night":3983,"ille":3984,"_Cr":3985,"_18":3986,"-fi":3987,"_violent":3988,"_mysterious":3989,"_influ":3990,"_literally":3991,"par":3992,"you":3993,"_boyfriend":3994,"_behav":3995,"_military":3996,"_historical":3997,"just":3998,"look":3999,"icious":4000,"oughly":4001,"_spec":4002,"_rip":4003,"_scene.":4004,"_/>One":4005,"_off,":4006,"_subst":4007,"_drunk":4008,"_medioc":4009,"_died":4010,"_island":4011,"_years,":4012,"_comedy.":4013,"_destroy":4014,"mark":4015,"ison":4016,"_burn":4017,"_init":4018,"_Sci":4019,"_we're":4020,"ist,":4021,"_series.":4022,"_discuss":4023,"_affair":4024,"ares":4025,"_mat":4026,"_Because":4027,"_Where":4028,"_Pal":4029,"_Jon":4030,"anna":4031,"_adaptation":4032,"cing":4033,"_\"the":4034,"_knowing":4035,"_off.":4036,"_student":4037,"itz":4038,"ribe":4039,"_Bob":4040,"_do.":4041,"_know,":4042,")<br":4043,"anch":4044,"_nomin":4045,"_High":4046,"_ship":4047,"_Dou":4048,"_soft":4049,"_commer":4050,"_Though":4051,"_proper":4052,"_script,":4053,"_hoping":4054,"oved":4055,"_mir":4056,"iring":4057,"_ener":4058,"tend":4059,"ization":4060,"_serv":4061,"_surround":4062,"under":4063,"_state":4064,"ploy":4065,"son,":4066,"_intern":4067,"elebr":4068,"_individual":4069,"_ast":4070,"orter":4071,"ensive":4072,"_music,":4073,"_Only":4074,"_protagon":4075,"_million":4076,"ghed":4077,"_sight":4078,"_hurt":4079,"icip":4080,"_alien":4081,"_amusing":4082,"_mean,":4083,"_moral":4084,"kin":4085,"ision":4086,"_makers":4087,"_was.":4088,"_lif":4089,"_not,":4090,"_CG":4091,"ife,":4092,"_intense":4093,"_puts":4094,"_/>So":4095,"CH":4096,"_tired":4097,"_fright":4098,"_Hard":4099,"_legend":4100,"_Phil":4101,"_unfortunately":4102,"_****":4103,"_loves":4104,"_surf":4105,"_key":4106,".I":4107,"IE":4108,"_film-m":4109,"_plus":4110,"_breath":4111,"_length":4112,"_Part":4113,"_Jes":4114,"_sport":4115,"_traged":4116,"_difference":4117,"_impressive":4118,"inct":4119,"_fool":4120,"abl":4121,"_qual":4122,"ressing":4123,"ena":4124,"_re-":4125,"_West":4126,"unting":4127,"aging":4128,"_contains":4129,"_fresh":4130,"_Sl":4131,"_South":4132,"exic":4133,"_include":4134,"_Mill":4135,"_trick":4136,"_noir":4137,"_magn":4138,"IG":4139,"cl":4140,"_Sec":4141,"_thank":4142,"_Very":4143,"_images":4144,"_melod":4145,"_So,":4146,"_wee":4147,"_share":4148,"_teacher":4149,"ia.":4150,"_loose":4151,"iday":4152,"_\"h":4153,"_Rog":4154,"_terms":4155,"_appeared":4156,"_normal":4157,"_thor":4158,"_Mus":4159,"_(p":4160,"_Go":4161,"_steal":4162,"ss":4163,"_Tar":4164,"ful,":4165,"_enough,":4166,"_/>Wh":4167,"_presented":4168,"_fellow":4169,"_IS":4170,"_stunning":4171,"text":4172,"aper":4173,"_Story":4174,"azz":4175,"_excit":4176,"_drink":4177,"_celebr":4178,"_ham":4179,"aly":4180,"sters":4181,"_hasn't":4182,"_Young":4183,"_surprisingly":4184,"_together.":4185,"_adventure":4186,"_vampire":4187,"ode":4188,"_stands":4189,"-budget":4190,"_baby":4191,"_damn":4192,"-off":4193,"_bre":4194,"_card":4195,"_gorge":4196,"_prim":4197,"_Franc":4198,"_Christopher":4199,"_appearance":4200,"_disturbing":4201,"_negative":4202,"-se":4203,"_spl":4204,"_Ap":4205,"ness,":4206,"_Canad":4207,"_era":4208,"raid":4209,"abb":4210,"_beautifully":4211,"_walking":4212,"_silent":4213,"or.":4214,"_thing.":4215,"_du":4216,"_Hol":4217,"_WW":4218,"_Dark":4219,"_Pol":4220,"_then,":4221,"_language":4222,"_represent":4223,"_Bruce":4224,"_X":4225,"mon":4226,"ras":4227,"_(W":4228,"ated,":4229,"_Nothing":4230,"_professional":4231,"board":4232,"_commercial":4233,"bl":4234,"an.":4235,"ural":4236,"_proves":4237,"_lacks":4238,"_current":4239,"_innocent":4240,"ET":4241,"_hosp":4242,"_joy":4243,"_scare":4244,"ushed":4245,"_unne":4246,"_best.":4247,"ically,":4248,"_either.":4249,"_disgust":4250,"yle":4251,"ine,":4252,"_nast":4253,"ands":4254,"_audiences":4255,"_example,":4256,"_award":4257,"_latter":4258,"et.":4259,"_virt":4260,"akespe":4261,"gged":4262,"_sci-fi":4263,"ront":4264,"man's":4265,"_party":4266,"omething":4267,"_laughed":4268,"ken":4269,"_base":4270,"_dread":4271,"_dubb":4272,"_Bas":4273,"_Mark":4274,"_Mexic":4275,"_(not":4276,"_about.":4277,"_childhood":4278,"_fault":4279,"?!":4280,"no":4281,"_ahead":4282,"_mart":4283,"ed.<br":4284,"_/>U":4285,"irk":4286,"_merely":4287,"_unus":4288,"_quiet":4289,"_irrit":4290,"_discover":4291,"eal":4292,"entially":4293,"_Bur":4294,"_(H":4295,"anda":4296,"_location":4297,"_forever":4298,"_frustr":4299,"_rout":4300,"_Green":4301,"_touching":4302,"ge,":4303,"_invent":4304,"roc":4305,"_Mag":4306,"_impact":4307,"_oppos":4308,"_mediocre":4309,"ilities":4310,"_Tre":4311,"rog":4312,"_youth":4313,"_chick":4314,"_Nor":4315,"_anyth":4316,"_Allen":4317,"_self-":4318,"-sc":4319,"pret":4320,"herent":4321,"_hig":4322,"iles":4323,"_Bo":4324,"uster":4325,"_sett":4326,"ness.":4327,"dered":4328,"_falling":4329,"_Steven":4330,"_culture":4331,".S.":4332,"a\"":4333,"_host":4334,"_den":4335,"_in,":4336,"icide":4337,"_Ber":4338,"_(G":4339,"_books":4340,"_Carl":4341,"_independ":4342,"_Henry":4343,"mare":4344,"_paid":4345,"_din":4346,"_div":4347,"_fort":4348,"athy":4349,"_highlight":4350,"_taste":4351,"_\"J":4352,"_ride":4353,"_gold":4354,"_edge":4355,"_provides":4356,"_Jean":4357,"/2":4358,"_consist":4359,"_Step":4360,"_correct":4361,"_funniest":4362,"_intended":4363,"_achieve":4364,"_mouth":4365,"_hide":4366,"_Austr":4367,"_disaster":4368,"_confus":4369,"_aspects":4370,"ffe":4371,"_eat":4372,"_voic":4373,"_disappe":4374,"_compan":4375,"_company":4376,"_role,":4377,"_minutes.":4378,"ledge":4379,"_becoming":4380,"_Charles":4381,"_rape":4382,"_you'd":4383,"_day.":4384,"_actors.":4385,"ism,":4386,"_/>Over":4387,"field":4388,"ium":4389,"_Bad":4390,"_notic":4391,".....":4392,"_perform":4393,"_object":4394,"_helps":4395,"LY":4396,"onna":4397,"ayl":4398,"_Sant":4399,"_sun":4400,"_acts":4401,"_charming":4402,"_themes":4403,"_rac":4404,"_drag":4405,"_opportunity":4406,"y\"":4407,"hero":4408,"_double":4409,"_reach":4410,"ioned":4411,"_stuck":4412,"illing":4413,"elling":4414,"_did.":4415,"_knock":4416,"_Shakespe":4417,"_animal":4418,"_collection":4419,"_(with":4420,"_fest":4421,"_nons":4422,"_held":4423,"_Hit":4424,"_willing":4425,"_offers":4426,"_remote":4427,"_mainly":4428,"mbol":4429,"_reminded":4430,"_spectac":4431,"_melodram":4432,"ishes":4433,"it's":4434,"ain,":4435,"ander":4436,"_Ey":4437,"ivil":4438,"_contem":4439,"_slowly":4440,"ography,":4441,"-old":4442,"oned":4443,"_process":4444,"ine.":4445,"_fun.":4446,"_wondering":4447,"_followed":4448,"_central":4449,"_Two":4450,"_occasion":4451,"_afraid":4452,"_thoroughly":4453,"-and":4454,"gue":4455,"rough":4456,"orious":4457,"_blond":4458,"_/>For":4459,"_values":4460,"_forgotten":4461,"house":4462,"iac":4463,"_cell":4464,"_eight":4465,"_with.":4466,"_rated":4467,"_nobody":4468,"_arm":4469,"_offer":4470,"_seemingly":4471,"_director,":4472,"_adds":4473,"_warm":4474,"-time":4475,"ivers":4476,"rick":4477,"_fict":4478,"irgin":4479,"_manner":4480,"_blind":4481,"_grow":4482,"_superior":4483,"-year":4484,"erous":4485,"anced":4486,"_unw":4487,"_ever.":4488,"_resc":4489,"_giant":4490,"_board":4491,"_Martin":4492,"_AND":4493,"esides":4494,"anish":4495,"_Billy":4496,"_Little":4497,"rences":4498,"_day,":4499,"_minutes,":4500,"con":4501,"ses":4502,"_hat":4503,"_hook":4504,"ie's":4505,"_lived":4506,"_so,":4507,"_round":4508,"_En":4509,"_anymore":4510,"_/>An":4511,"_race":4512,"_effects,":4513,"_world,":4514,"_personality":4515,"_passion":4516,"_delivers":4517,"now":4518,"uous":4519,"_\"t":4520,"_Jerry":4521,"_convers":4522,"_putting":4523,"_surely":4524,"_streng":4525,"AY":4526,"_See":4527,"_channel":4528,"osh":4529,"appy":4530,"_performance.":4531,"_detective":4532,"_rented":4533,"_Despite":4534,"-for":4535,"_aim":4536,"_lay":4537,"_onto":4538,"_chase":4539,"_lovely":4540,"_action,":4541,"inese":4542,"vol":4543,"_summ":4544,"_rat":4545,"_lose":4546,"_turning":4547,"_relative":4548,"_picked":4549,"_describe":4550,"_building":4551,"_available":4552,"ech":4553,"in.":4554,"_wond":4555,"_mount":4556,"_path":4557,"_names":4558,"_sto":4559,"_man.":4560,"_desert":4561,"_point,":4562,"_tragic":4563,"_sexy":4564,"_visit":4565,"_unexpect":4566,"_government":4567,"CK":4568,"gar":4569,"_wide":4570,"_wise":4571,"_bright":4572,"_bottom":4573,"ste":4574,"_yes,":4575,"_Sar":4576,"_attit":4577,"_now,":4578,"_explan":4579,"_clean":4580,"_40":4581,"_Once":4582,"_hotel":4583,"_journey":4584,"AL":4585,"inci":4586,"_member":4587,"_to.":4588,"_began":4589,"_movie!":4590,"_(E":4591,"_City":4592,"_twists":4593,"_underst":4594,"_Arthur":4595,"_bi":4596,"owd":4597,"_Spe":4598,"_love,":4599,"_finding":4600,"_accom":4601,"_hand,":4602,"_symbol":4603,"_changes":4604,"_broad":4605,"_redeeming":4606,"_London":4607,"-M":4608,"cle":4609,"_gri":4610,"oney":4611,"_trust":4612,"_12":4613,"_motion":4614,"_issues":4615,"_Shakespeare":4616,"ica":4617,"_filming":4618,"_Lyn":4619,"_Fox":4620,"ooking":4621,"_whatso":4622,"_And,":4623,"_shouldn't":4624,"_feelings":4625,"_soldiers":4626,"_led":4627,"leep":4628,"_script.":4629,"_awful.":4630,"_inspired":4631,"_later,":4632,"_bank":4633,"uts":4634,"_(d":4635,"_Blood":4636,"_Batman":4637,"/d":4638,"_intention":4639,"iance":4640,"_comparis":4641,"_insight":4642,"_let's":4643,"_pictures":4644,"oom":4645,"_boss":4646,"arp":4647,"_Win":4648,"_ON":4649,"_block":4650,"_cast.":4651,"_artistic":4652,"_ver":4653,"_budd":4654,"_Both":4655,"_interesting.":4656,"_includes":4657,"_critics":4658,"_intelligence":4659,"_pieces":4660,"_multi":4661,"-A":4662,"_'s":4663,"oted":4664,"_Sin":4665,"...and":4666,"_though.":4667,"_buff":4668,"_ready":4669,"_actor,":4670,"_away.":4671,"_listen":4672,"_allowed":4673,"AM":4674,"reck":4675,"esc":4676,"_dro":4677,"_na":4678,"alled":4679,"aud":4680,"_Edd":4681,"ples":4682,"_image":4683,"_remem":4684,"_70's":4685,"_Many":4686,"_technical":4687,"_encounter":4688,"_tar":4689,"_tem":4690,"_ug":4691,"_More":4692,"_\"g":4693,"_other.":4694,"_thanks":4695,"_helped":4696,"_depart":4697,"_Dougl":4698,"-a":4699,"afe":4700,"_dim":4701,"adow":4702,"_asks":4703,"_sell":4704,"_Walk":4705,"_Roy":4706,"_club":4707,"_friendship":4708,"ording":4709,"_resemb":4710,"_physical":4711,"_compelling":4712,"_favourite":4713,"abr":4714,"ohn":4715,"_mut":4716,"_hint":4717,"_Too":4718,"_Their":4719,"_Du":4720,"agger":4721,"ateg":4722,"plot":4723,"ice.":4724,"ated.":4725,"_character's":4726,"_supposedly":4727,"_zombies":4728,"_outstanding":4729,"bian":4730,"ique":4731,"_sour":4732,"_weap":4733,"_Pow":4734,"_Never":4735,"_seen,":4736,"_believ":4737,"_boring.":4738,"_McC":4739,"_/>How":4740,"_connection":4741,"_thing,":4742,"lled":4743,"_Ac":4744,"_Fe":4745,"_Nick":4746,"_phone":4747,"_perspect":4748,"_strength":4749,"-e":4750,"iqu":4751,"arry":4752,"_App":4753,"_before.":4754,"_comedies":4755,"_employ":4756,"_impressed":4757,"_Davis":4758,"_provide":4759,"_fascinating":4760,"_pair":4761,"_Ros":4762,"_grad":4763,"_interesting,":4764,"_appropri":4765,"_aware":4766,"_wrong.":4767,"_50":4768,"_industry":4769,"_bene":4770,"_drop":4771,"lev":4772,"_Tayl":4773,"ament":4774,"_Hill":4775,"_time.<br":4776,"ruction":4777,"_She's":4778,"played":4779,"_situations":4780,"wolf":4781,"_pra":4782,"_naked":4783,"_anywhere":4784,"_tend":4785,"_desire":4786,"ographer":4787,"_creative":4788,"_possess":4789,"_Jackson":4790,"_continue":4791,"_Kelly":4792,"_martial":4793,"_la":4794,"_IN":4795,"_scared":4796,"action":4797,"aches":4798,"_grat":4799,"/10.":4800,"_Russian":4801,"_sill":4802,"_Did":4803,"_Ford":4804,"_rubb":4805,"ress,":4806,"_comedic":4807,"_audience.":4808,"_conclusion":4809,"-th":4810,"UT":4811,"_food":4812,"_corn":4813,"_der":4814,"ter,":4815,"_Dam":4816,"_doz":4817,"_deb":4818,"_slap":4819,"_kidn":4820,"_family.":4821,"_else.":4822,"_signific":4823,"_marriage":4824,"_contrast":4825,"_neighbor":4826,"_unusual":4827,"_Stephen":4828,"rical":4829,"ar,":4830,"_Brian":4831,"_places":4832,"ppy":4833,"_necessary":4834,"-movie":4835,"_memory":4836,"_/>On":4837,"_repeated":4838,"_scientist":4839,"_pilot":4840,"_birth":4841,"_deg":4842,"_ending.":4843,"ipul":4844,"_finished":4845,"_compare":4846,"_product":4847,"_emotions":4848,"eah,":4849,"kward":4850,"it,":4851,"ite,":4852,"_relie":4853,"_moved":4854,"_unreal":4855,"_Chinese":4856,"undred":4857,"_purs":4858,"_opinion,":4859,"_sentiment":4860,"_mental":4861,"_cal":4862,"_pen":4863,"_Sad":4864,"_Burt":4865,"_but,":4866,"_chas":4867,"_Jenn":4868,"uman":4869,"_ens":4870,"_VH":4871,"_Alan":4872,"_animals":4873,"_teenage":4874,"_CGI":4875,"vate":4876,"_WH":4877,"_Les":4878,"_ris":4879,"_Oh,":4880,"terest":4881,"_Yet":4882,"_done.":4883,"_constant":4884,"_Barb":4885,"_man's":4886,"_empt":4887,"_Brother":4888,"_Zomb":4889,"_expert":4890,"_England":4891,"_motiv":4892,"_deeply":4893,"_debut":4894,"_Lau":4895,"_11":4896,"_back.":4897,"_Brook":4898,"_account":4899,"_awkward":4900,"_performance,":4901,"_money.":4902,"_elect":4903,"_Keat":4904,"_religious":4905,"_answer":4906,"_wife,":4907,"_mild":4908,"enge":4909,"_it?":4910,"_bland":4911,"_book.":4912,"_boring,":4913,"_details":4914,",000":4915,"uct":4916,"especially":4917,"_stunt":4918,"_wearing":4919,"_Ol":4920,"bered":4921,"_crowd":4922,"ency":4923,"_vehic":4924,"_struggle":4925,"_costumes":4926,"_target":4927,"_ted":4928,"en.":4929,"_Bab":4930,"_horse":4931,"_pretent":4932,"_beginn":4933,"-cl":4934,"_developed":4935,"itchc":4936,"_progress":4937,"_Morgan":4938,"_model":4939,"-1":4940,"_sac":4941,"aded":4942,"_do,":4943,"_Ry":4944,"_'S":4945,"_confused":4946,"_craft":4947,"_reminds":4948,"_accompl":4949,".A":4950,"ube":4951,"_bal":4952,"_hundred":4953,"_Wil":4954,"ops":4955,"_Rus":4956,"tered":4957,"_impl":4958,"_fles":4959,"_better,":4960,"_gotten":4961,"_smile":4962,"_surprising":4963,"_deserve":4964,"_made,":4965,"_belong":4966,"_case,":4967,"CT":4968,"athetic":4969,"ilst":4970,"_(K":4971,"_Lind":4972,"_first,":4973,"_wonderfully":4974,"_place.":4975,"_honestly":4976,"_criminal":4977,"_gorgeous":4978,"_unexpected":4979,"SE":4980,"port":4981,"_bur":4982,"_yes":4983,"ooper":4984,"_Av":4985,"_Sus":4986,"ant.":4987,"_Er":4988,"_scenery":4989,"cient":4990,"_prefer":4991,"_disappointed.":4992,"_experien":4993,"_formula":4994,"_garbage":4995,"_ing":4996,"ued":4997,"_tour":4998,"inal":4999,"_oh":5000,"_born":5001,"_stret":5002,"_Jew":5003,"_realized":5004,"_Andrew":5005,"_wanting":5006,"_enth":5007,"_now.":5008,"_explos":5009,"_Robin":5010,"_family,":5011,"_holds":5012,"_trailer":5013,":<br":5014,"ean":5015,"father":5016,"tain":5017,"_cow":5018,"_Te":5019,"_(N":5020,"_soap":5021,"_Lo":5022,"_sense.":5023,"_paint":5024,"xual":5025,"_opt":5026,"_freak":5027,"_thus":5028,"_be,":5029,"_separ":5030,"_Ms.":5031,"_DO":5032,"_Jud":5033,"_Out":5034,"_lock":5035,"_before,":5036,"_epic":5037,"_worthy":5038,"_lets":5039,"_actresses":5040,"_Horror":5041,"_information":5042,"eper":5043,"omen":5044,"_church":5045,"ifer":5046,"pper":5047,"_rul":5048,"_Naz":5049,"_unknown":5050,"_rarely":5051,"_strang":5052,"ism.":5053,"e's":5054,"lock":5055,"_Hel":5056,"_happening":5057,"_interpret":5058,"_low-budget":5059,"iver":5060,"_toward":5061,"_for.":5062,"_Sil":5063,"_Was":5064,"_aband":5065,"_Jose":5066,"_Jason":5067,"_Jones":5068,"abor":5069,"_part,":5070,"_himself.":5071,"_unbelievable":5072,"_flying":5073,"atra":5074,"_Since":5075,"_(The":5076,"_Western":5077,"anted":5078,"_loving":5079,"_hadn't":5080,"_belief":5081,"_original,":5082,"_Americans":5083,"_/>St":5084,"_job.":5085,"_experiment":5086,"_OK,":5087,"_magnific":5088,"_categ":5089,"_manage":5090,"_13":5091,"ache":5092,"_guard":5093,"_personally":5094,"_phil":5095,"_regret":5096,"_Danny":5097,"_market":5098,"_Lynch":5099,"_wed":5100,"atory":5101,"_thous":5102,"_plane":5103,"_Pres":5104,"_Law":5105,"_Fre":5106,"pless":5107,"_blame":5108,"_dialogue,":5109,"-to-":5110,"_students":5111,"_\"St":5112,"_photography":5113,"_behavior":5114,"_Douglas":5115,"ita":5116,"_chore":5117,"azy":5118,"_court":5119,"_likable":5120,"_angry":5121,"_uncon":5122,"-sh":5123,"ano":5124,"ademy":5125,"_stink":5126,"_(like":5127,"_alive":5128,"_Pac":5129,"_watch,":5130,"_text":5131,"_news":5132,"_However":5133,"_/>When":5134,"_disappointing":5135,"_crack":5136,"_capture":5137,"_Daniel":5138,"_struct":5139,"_producer":5140,"_Columb":5141,"_murders":5142,"_attractive":5143,"_nasty":5144,"_ic":5145,"_'t":5146,"itions":5147,"_context":5148,"_Albert":5149,"_theatre":5150,"_introduced":5151,"-F":5152,"hered":5153,"_pet":5154,"ario":5155,"_date":5156,"_thats":5157,"_Co":5158,"_Having":5159,"_convent":5160,"soci":5161,"_best,":5162,"_creating":5163,"_asked":5164,"_intellect":5165,"_winning":5166,"_responsible":5167,"_unnecessary":5168,"_independent":5169,"_tur":5170,"otes":5171,"_proceed":5172,"_Ver":5173,"_content":5174,"_Show":5175,"_expectations":5176,"_memories":5177,"_convin":5178,"_Everything":5179,"t's":5180,"table":5181,"time":5182,"zan":5183,"at,":5184,"_hyp":5185,"_Sy":5186,"_REA":5187,"_charism":5188,"intention":5189,"_desp":5190,"_Joan":5191,"_determ":5192,"vit":5193,"lla":5194,"asure":5195,"_stock":5196,"raction":5197,"_Del":5198,"ushing":5199,"udic":5200,"_everybody":5201,"_finest":5202,"_desperate":5203,"_field":5204,"apped":5205,"_creature":5206,"_commentary":5207,"_Unfortunately":5208,"_circum":5209,"_whatsoever":5210,"_rubbish":5211,"at.":5212,"_hidden":5213,"ulf":5214,"_suicide":5215,"_Life":5216,"_Girl":5217,"ourne":5218,"teen":5219,"_knowledge":5220,"_contri":5221,"_Spanish":5222,"ka":5223,"yer":5224,"_safe":5225,"ari":5226,"stal":5227,"imal":5228,"iful":5229,"unted":5230,"_Ron":5231,"_Jan":5232,"_much,":5233,"_White":5234,"_genre.":5235,"_pulled":5236,"_limited":5237,"_bill":5238,"_hated":5239,"_Bond":5240,"_Cam":5241,"_East":5242,"_other,":5243,"ensional":5244,"_Johnny":5245,"_apartment":5246,"_mixed":5247,"_radio":5248,"_frequ":5249,"_tick":5250,"_boo":5251,"ashed":5252,"_station":5253,"irm":5254,"_Mi":5255,"achel":5256,"_finale":5257,"_treated":5258,"_issue":5259,"_?":5260,"bur":5261,"ki":5262,"ved.":5263,"war":5264,"hem":5265,"_(if":5266,"_Lord":5267,"_see.":5268,"_twenty":5269,"_disp":5270,"othy":5271,"_down.":5272,"_woman,":5273,"_miser":5274,"_transl":5275,"_deserved":5276,"_Everyone":5277,"_numbers":5278,"_tight":5279,"_sin":5280,"asp":5281,"_earn":5282,"_Washing":5283,"_so.":5284,"_Eric":5285,"_twice":5286,"_ago,":5287,"_growing":5288,"_resol":5289,"_Death":5290,"_assist":5291,");":5292,"gn":5293,"_Mike":5294,"_Ram":5295,"_organ":5296,"_prove":5297,"oking":5298,"_Space":5299,"_sadly":5300,"_pleasure":5301,"_graphic":5302,"kes":5303,"_sal":5304,"_thin":5305,"_wealth":5306,"_(2":5307,"thony":5308,"_necess":5309,"_incre":5310,"_today's":5311,"_Now,":5312,"_priest":5313,"it.":5314,"ic.":5315,"ie.":5316,"_mob":5317,"rix":5318,"_Cass":5319,"_Hart":5320,"ations.":5321,"_Thom":5322,"_Kid":5323,"_terribly":5324,"_murdered":5325,"_reflect":5326,"_satire":5327,"RI":5328,"one,":5329,"_Those":5330,"osaur":5331,"_manipul":5332,"_troub":5333,"ually,":5334,"_love.":5335,"_DVD.":5336,"_flick.":5337,"arc":5338,"_ner":5339,"ummer":5340,"ruct":5341,"_kinda":5342,"_regular":5343,"_century":5344,"_captured":5345,"_discovered":5346,"_victims":5347,"_European":5348,"pir":5349,"in's":5350,"_cinema.":5351,"_confront":5352,"_terrible.":5353,"_relationships":5354,"_numerous":5355,"_dealing":5356,"_inspir":5357,"_summer":5358,"_circumst":5359,"oring":5360,"oore":5361,"_anybody":5362,"_agent":5363,"_/>To":5364,"_right.":5365,"_keeping":5366,"_brothers":5367,"_brutal":5368,"mar":5369,"_fiction":5370,"anz":5371,"_dying":5372,"_gru":5373,"ager":5374,"_long,":5375,"merican":5376,"_confusing":5377,"_Harris":5378,"_shocking":5379,"_remarkable":5380,"_unbeliev":5381,"_Broad":5382,"rors":5383,"uel":5384,"_sed":5385,"_Im":5386,"ading":5387,"_Sid":5388,"_ju":5389,"_Lady":5390,"_advert":5391,"_incomp":5392,"_psychological":5393,"_dreams":5394,"_loses":5395,"_reaction":5396,"_fashion":5397,"_nonsense":5398,"OL":5399,"hip":5400,"_tor":5401,"_Coll":5402,"_Hall":5403,"_Rom":5404,"_fun,":5405,"_point.":5406,"_girl,":5407,"_original.":5408,"_expos":5409,"_corrupt":5410,"_wooden":5411,"_African":5412,"_traditional":5413,"RA":5414,"_ban":5415,"_bath":5416,"atives":5417,"asm":5418,"_/>You":5419,"entle":5420,"illa":5421,"_shallow":5422,"_understanding":5423,"_lighting":5424,"ugs":5425,"_hospital":5426,"_philos":5427,"TH":5428,"_park":5429,"_grew":5430,"_bear":5431,"hern":5432,"_lies":5433,"_are,":5434,"_deals":5435,"_Rose":5436,"_Jess":5437,"acc":5438,"_Which":5439,"_/>Any":5440,"_print":5441,"_princi":5442,"_starting":5443,"_returns":5444,"_unfold":5445,"_hopes":5446,"_adults":5447,"_existence":5448,"_below":5449,"POILERS":5450,"_/>While":5451,"-r":5452,"hent":5453,"_faces":5454,"_dies":5455,"_junk":5456,"_Gar":5457,"...I":5458,"_dism":5459,"_grown":5460,"_terrif":5461,"ovies":5462,"_THIS":5463,"_vision":5464,"_educ":5465,"_cameo":5466,"_sword":5467,"_anti-":5468,"_genuinely":5469,"_remembered":5470,"ta":5471,"ym":5472,"ini":5473,"_hits":5474,"_inex":5475,"_ge":5476,"_Gene":5477,"ivered":5478,"--and":5479,"_laughable":5480,"_buck":5481,"_/>Not":5482,"_planet":5483,"_Hitler":5484,"aa":5485,"cise":5486,"_green":5487,"_with,":5488,"_Capt":5489,"_therefore":5490,"_Kate":5491,"_Kong":5492,"_arts":5493,"_continues":5494,"_clothes":5495,"viron":5496,"_Taylor":5497,"_VHS":5498,"mble":5499,"_inh":5500,"_frank":5501,"_comfort":5502,"_proved":5503,"_uncom":5504,"_overly":5505,"_/>I'm":5506,"_speaking":5507,"luding":5508,"_recommended":5509,"_together,":5510,"_Before":5511,"_wrong,":5512,"_moments,":5513,"_today.":5514,"_foreign":5515,"_featuring":5516,"_Street":5517,"_idiot":5518,"_saved":5519,"_higher":5520,"_noticed":5521,"_sake":5522,"lection":5523,"ilog":5524,"ays":5525,"_allows":5526,"_arch":5527,"_/>That":5528,"_seconds":5529,"_father,":5530,"_marry":5531,"_relief":5532,"-T":5533,"_tack":5534,"_/>1":5535,"sell":5536,"_seven":5537,"_EVER":5538,"_mind.":5539,"_folk":5540,"_opposite":5541,"_Eddie":5542,".The":5543,"lle":5544,"ching":5545,"_Men":5546,"_Cent":5547,"esty":5548,"_Gord":5549,"_14":5550,"_them.<br":5551,"aph":5552,"ueen":5553,"_originally":5554,"_disappointment":5555,"-wr":5556,"???":5557,"_learned":5558,"_Kevin":5559,"_Still,":5560,"_les":5561,"_redu":5562,"_Mal":5563,"_Mil":5564,"_(for":5565,"_Had":5566,"_shop":5567,"_one's":5568,"_vul":5569,"_Thank":5570,"_justice":5571,"odd":5572,"_Howard":5573,"_Anyway,":5574,"_opera":5575,"_spectacular":5576,"!).":5577,"_fif":5578,"_IT":5579,"stick":5580,"_associ":5581,"_Sund":5582,"_Carr":5583,"_Lew":5584,"_somebody":5585,"_unable":5586,"_sheer":5587,"_really,":5588,"_Andy":5589,"_floor":5590,"_bits":5591,"_delivered":5592,"_distract":5593,"_craz":5594,"LLY":5595,"_breaks":5596,"_discovers":5597,"_Williams":5598,"porary":5599,"_delightful":5600,"down":5601,"ores":5602,"_hall":5603,"_Sk":5604,"_\"w":5605,"_Es":5606,"_obl":5607,"_bigger":5608,"_fan,":5609,"_Beat":5610,"-life":5611,"_bloody":5612,"_research":5613,"_Luke":5614,"writer":5615,"0s.":5616,"ban":5617,"cer":5618,"uh":5619,"_press":5620,"_goof":5621,"_gonna":5622,"_/>-":5623,"_Bet":5624,"_\"K":5625,"_Kenn":5626,"_performances,":5627,"_Brown":5628,"_marvel":5629,"_gratuit":5630,"ooth":5631,"_fac":5632,"_bot":5633,"aries":5634,"_emer":5635,"_reun":5636,"sey":5637,"_Cind":5638,"_North":5639,"_environ":5640,"_YOU":5641,"_contain":5642,"_screen,":5643,"_opens":5644,"son's":5645,"_lesson":5646,"_house,":5647,"reedom":5648,"-on":5649,"==":5650,"This":5651,"nox":5652,"_bat":5653,"_civil":5654,"_pit":5655,"ether":5656,"eman":5657,"_actions":5658,"_van":5659,"_Lat":5660,"ish,":5661,"_guy,":5662,"_teach":5663,"_through.":5664,"_trib":5665,"_Brad":5666,"_calls":5667,"ugos":5668,"_driving":5669,"_refres":5670,"_media":5671,"_subtit":5672,"_protect":5673,"_gangster":5674,"-D":5675,".5":5676,"0s,":5677,"t.":5678,"ing\"":5679,"etwork":5680,"_section":5681,"_(m":5682,"_area":5683,"_Dor":5684,"iforn":5685,"unter":5686,"umm":5687,"ousy":5688,"_speech":5689,"_obsc":5690,"_music.":5691,"_/>Some":5692,"finitely":5693,"_grace":5694,"_colour":5695,"_Grant":5696,"nam":5697,"sen":5698,"_wound":5699,"is.":5700,"_fal":5701,"_fare":5702,"_loss":5703,"stit":5704,"uls":5705,"ulous":5706,"_altern":5707,"_Li":5708,"_Rain":5709,"_ending,":5710,"_entertaining.":5711,"_short,":5712,"_majority":5713,"_expression":5714,"_window":5715,"_folks":5716,"_to,":5717,"_/>Y":5718,"el,":5719,"_sole":5720,"_Jr.":5721,"_appl":5722,"_Anthony":5723,"_creates":5724,"_syn":5725,"-work":5726,"_filmmaker":5727,"_Jimmy":5728,"_protagonist":5729,"-be":5730,"_natur":5731,"_Tex":5732,"_send":5733,"_Master":5734,"_Cast":5735,"_Hay":5736,"ations,":5737,"_Kim":5738,"_U.S.":5739,"less.":5740,"_caused":5741,"_ultimate":5742,"_dangerous":5743,"_energy":5744,"_Jesus":5745,"ators":5746,"_cyn":5747,"omed":5748,"_Int":5749,"_gory":5750,"_aside":5751,"_SH":5752,"_(b":5753,"_convey":5754,"_cann":5755,"_performances.":5756,"_heads":5757,"_painfully":5758,"_valu":5759,"_authent":5760,"_holes":5761,"_tragedy":5762,"_Trek":5763,"nie":5764,"_cash":5765,"_Moore":5766,"_watching.":5767,"_spoof":5768,"_built":5769,"ographed":5770,"_reviewers":5771,"........":5772,"_Univers":5773,"_received":5774,"_inept":5775,"_Sinatra":5776,"_pretentious":5777,"itchcock":5778,"ault":5779,"natural":5780,"rie":5781,"hester":5782,"itter":5783,"lly":5784,"_sem":5785,"_frame":5786,"_army":5787,"earing":5788,"_believes":5789,"_skin":5790,"_veter":5791,"away":5792,"har":5793,"arian":5794,"_dry":5795,"aybe":5796,"etic":5797,"_Mont":5798,"est,":5799,"_Long":5800,"who":5801,"liver":5802,"_director's":5803,"_imagination":5804,"ynam":5805,"_soldier":5806,"_establ":5807,"_ugly":5808,"uzz":5809,"add":5810,"_recall":5811,"_underrated":5812,"_compos":5813,"_right,":5814,"_Art":5815,"_included":5816,"_cops":5817,"_popul":5818,"_Let's":5819,"_naive":5820,"ILL":5821,"whel":5822,"_tal":5823,"_Ter":5824,"_forces":5825,"kend":5826,"_hack":5827,"_screw":5828,"_Ell":5829,"_peace":5830,"_blue":5831,"_term":5832,"_friends,":5833,"_insane":5834,"cohol":5835,"_flaws":5836,"_intriguing":5837,"_months":5838,"_refreshing":5839,"rous":5840,"_tape":5841,"er\"":5842,"_bond":5843,"_dress":5844,"_lone":5845,"uted":5846,"stream":5847,"_movie?":5848,"_(f":5849,"_Cinem":5850,"_\"l":5851,"_Gary":5852,"_unb":5853,"_Ev":5854,"_Anderson":5855,"_produce":5856,"_effects.":5857,"_involves":5858,"_report":5859,"_handsome":5860,"_Instead,":5861,"dom":5862,"_Are":5863,"_Aust":5864,"iro":5865,"_Dra":5866,"_Par":5867,"_unp":5868,"_flow":5869,"_Viet":5870,"_relate":5871,"_Asian":5872,"_awful,":5873,"_Sean":5874,"alloween":5875,"_ordinary":5876,"bell":5877,"oh":5878,"_Pre":5879,"_more,":5880,"erer":5881,"_decade":5882,"_decision":5883,"_practically":5884,"_Joseph":5885,"oir":5886,"ps":5887,"ugg":5888,"isa":5889,"_fund":5890,"_(played":5891,"_Cap":5892,"_Hitchcock":5893,"_choose":5894,"_Last":5895,"osen":5896,"_Okay":5897,"_roles.":5898,"_enough.":5899,"_drama,":5900,"_nicely":5901,"_Leon":5902,"aturday":5903,"_ruin":5904,"_tears":5905,"GE":5906,"k,":5907,"orb":5908,"_pacing":5909,"_stalk":5910,"idge":5911,"_Bor":5912,"_wel":5913,"_(F":5914,"_Haw":5915,"usi":5916,"_LA":5917,"ress.":5918,"_see,":5919,"_Ku":5920,"_direction,":5921,"_lacking":5922,"_learns":5923,"_engaging":5924,"_segment":5925,"hearted":5926,"_empty":5927,"full":5928,"o\"":5929,"ved,":5930,"enny":5931,"_punch":5932,"_TO":5933,"sec":5934,"chan":5935,"_Ash":5936,"_Miche":5937,"_(he":5938,"_they've":5939,"abeth":5940,"_job,":5941,"_himself,":5942,"_itself,":5943,"_/>Un":5944,"_Washington":5945,"'S":5946,"II":5947,"UN":5948,"point":5949,"_fle":5950,"_bound":5951,"_ring":5952,"_ran":5953,"ichol":5954,"_endless":5955,"_players":5956,"_ago.":5957,"anged":5958,"_counter":5959,"_done,":5960,"anned":5961,"-top":5962,"_night,":5963,"_crappy":5964,"_combination":5965,"_essentially":5966,"IGH":5967,"_excitement":5968,"_occasionally":5969,"fit":5970,"isher":5971,"_fly":5972,"_Max":5973,"_(but":5974,"_Wild":5975,"_choic":5976,"_vac":5977,"_Please":5978,"_Full":5979,"_emp":5980,"----":5981,"_history.":5982,"_asking":5983,"_unfunny":5984,"_largely":5985,"_normally":5986,"_emotionally":5987,"_Superman":5988,"_unrealistic":5989,"nal":5990,"_pal":5991,"_domin":5992,"as.":5993,"ilty":5994,"_whilst":5995,"_ALL":5996,"_Moon":5997,"_conce":5998,"_unintention":5999,"_myth":6000,"_others.":6001,"_prevent":6002,"_'B":6003,"_proud":6004,"_THAT":6005,"_evidence":6006,"_flicks":6007,"_capable":6008,"_Brand":6009,"_Louis":6010,"_described":6011,"_Canadian":6012,"_explanation":6013,"_inner":6014,"icate":6015,"roll":6016,"urity":6017,"_Cage":6018,"_Wr":6019,"_scar":6020,"_who,":6021,"ometimes":6022,"_money,":6023,"_fights":6024,"_study":6025,"_complaint":6026,"_broken":6027,"_Australian":6028,"_/>Overall,":6029,"CE":6030,"mat":6031,"_harm":6032,"_/>*":6033,"_Sur":6034,"_Rod":6035,"_like,":6036,"_whenever":6037,"_25":6038,"_surreal":6039,"_around.":6040,"_portrays":6041,"_death.":6042,"_purch":6043,"_theatrical":6044,"ili":6045,"_Mir":6046,"_sharp":6047,"_/>Then":6048,"_part.":6049,"_blow":6050,"_humans":6051,"_action.":6052,"_involve":6053,"_picture.":6054,"_brilliantly":6055,"ethod":6056,"_assume":6057,"_Second":6058,"_fictional":6059,"_Academy":6060,"s!":6061,"upt":6062,"_cab":6063,"_Matt":6064,"_(even":6065,"_soph":6066,"_Pitt":6067,"_UK":6068,"_mini":6069,"_glimp":6070,"_classic.":6071,"_passed":6072,"_captures":6073,"_Prince":6074,"_propag":6075,"_Anton":6076,"_curious":6077,"mother":6078,"_witch":6079,"_gross":6080,"_asleep":6081,"_Care":6082,"_Whe":6083,"_range":6084,"_log":6085,"_over-the":6086,"_portraying":6087,"_heroine":6088,"_inevit":6089,"_mask":6090,"_Time":6091,"ulp":6092,"_kiss":6093,"ence,":6094,"_'M":6095,"_Stone":6096,"_contribut":6097,"_crap.":6098,"_uncle":6099,"_advice":6100,"_torture":6101,"_uninterest":6102,"_convinced":6103,"icol":6104,"_rend":6105,"ads":6106,"_Sure,":6107,"_BE":6108,"_Bak":6109,"_Wat":6110,"_Dog":6111,"_alcohol":6112,"_overlook":6113,"_VER":6114,"_spell":6115,"oken":6116,"_place,":6117,"_Clark":6118,".\"<br":6119,"_meeting":6120,"_ruined":6121,"_(although":6122,"_stopped":6123,"-C":6124,"_cant":6125,"es\"":6126,"_pupp":6127,"_forth":6128,"_Sure":6129,"_Ha":6130,"ers\"":6131,"_NO":6132,"ideo":6133,"ical,":6134,"_spin":6135,"_long.":6136,"_walks":6137,"ENT":6138,"anagh":6139,"_accurate":6140,"GM":6141,"VE":6142,"ating,":6143,"ication":6144,"_ancient":6145,"_Karl":6146,"_over.":6147,"_flo":6148,"_excess":6149,"_assass":6150,"_Welles":6151,"_heroes":6152,"_/>First":6153,"_Anyone":6154,"_extraord":6155,"_qualities":6156,"ij":6157,"lim":6158,"sing":6159,"walk":6160,"_fate":6161,"_dressed":6162,"uther":6163,"_Tor":6164,"_Dar":6165,"asts":6166,"_makeup":6167,"_partner":6168,"arner":6169,"_Anne":6170,"_away,":6171,"_itself.":6172,"_steals":6173,"_amateurish":6174,"_references":6175,"_Wayne":6176,"_initial":6177,"_Russell":6178,"_#":6179,"_́":6180,"itiz":6181,"ashes":6182,"_revel":6183,"_vol":6184,"_Fest":6185,"_Gener":6186,"_No,":6187,"osexual":6188,"_Up":6189,"_days.":6190,"_refer":6191,"_losing":6192,"_hyster":6193,"_ladies":6194,"_/>Also":6195,"_rescue":6196,"_lesbian":6197,"_gratuitous":6198,"vy":6199,"vinc":6200,"ing.<br":6201,"_da":6202,"_Tri":6203,"_San":6204,"_Domin":6205,"ante":6206,"_La":6207,"_Kh":6208,"_remin":6209,"hens":6210,"_reason,":6211,"_versions":6212,"_warning":6213,"_mission":6214,"_drugs":6215,"_category":6216,"_Broadway":6217,"_false":6218,"ios":6219,"ked":6220,"_saving":6221,"_fits":6222,"_pile":6223,"_ludic":6224,"_eating":6225,"oting":6226,"amily":6227,"_Bon":6228,"_Cas":6229,"_Cle":6230,"_J.":6231,"_consequ":6232,"_pregn":6233,"_/>At":6234,"_emph":6235,"_/>We":6236,"_night.":6237,"_home,":6238,"_reporter":6239,"_violence,":6240,"_descript":6241,"_controvers":6242,"while,":6243,"_virtually":6244,"_relatively":6245,"_cris":6246,"_gig":6247,"aming":6248,"_chose":6249,"_Dem":6250,"_activ":6251,"_rot":6252,"_mans":6253,"_him.<br":6254,"_everyth":6255,"_serves":6256,"_sitcom":6257,"_humor,":6258,"_football":6259,"_Comm":6260,"_baseball":6261,"):":6262,"3.":6263,"lo":6264,"_wid":6265,"_/>K":6266,"_heaven":6267,"eturn":6268,"_Sn":6269,"_Sun":6270,"arded":6271,"_ever,":6272,"_speed":6273,"_director.":6274,"_actor.":6275,"_polic":6276,"_standing":6277,"_acqu":6278,"_reput":6279,"_bringing":6280,"_woods":6281,"_murderer":6282,"_Jennifer":6283,"_Keaton":6284,"gent":6285,"_Tit":6286,"_hearing":6287,"_atro":6288,"_vague":6289,"_neat":6290,"_about,":6291,"_unfor":6292,"_clue":6293,"ogether":6294,"_overd":6295,"_year.":6296,"ails":6297,"_least,":6298,"incess":6299,"_strongly":6300,"_worse.":6301,"_lives.":6302,"_holding":6303,"_erotic":6304,"_capital":6305,"_lines,":6306,"_anything.":6307,"_multiple":6308,"_source":6309,"_Thomas":6310,"_talents":6311,"-so":6312,"she":6313,"_tun":6314,"_batt":6315,"_cand":6316,"en's":6317,"_Bern":6318,"_Rem":6319,"_truck":6320,"_upset":6321,"_laughter":6322,"_visually":6323,"_death,":6324,"_types":6325,"_Edward":6326,"_pleasant":6327,"_complain":6328,"_explained":6329,"_obsessed":6330,"_enthusi":6331,"-man":6332,"iat":6333,"nce":6334,"yal":6335,"er)":6336,"ices":6337,"_(though":6338,"_lovers":6339,"_storyt":6340,"_arrest":6341,"_player":6342,"_particip":6343,"_Year":6344,"_down,":6345,"--the":6346,"_around,":6347,"_/>With":6348,"_beautiful,":6349,"-looking":6350,"_cuts":6351,"_style,":6352,"_admire":6353,"_themselves.":6354,"_position":6355,"_suffer":6356,"_Watching":6357,"_blonde":6358,"_over-the-top":6359,"pent":6360,"_site":6361,"_sne":6362,"eness":6363,"_Add":6364,"_we've":6365,"_Pri":6366,"_does.":6367,"_ideal":6368,"_talks":6369,"_convince":6370,"_Island":6371,"_brave":6372,"_suffers":6373,"_community":6374,"_latest":6375,"_judge":6376,"_machine":6377,"_contemporary":6378,"_Barbara":6379,"_intellectual":6380,"_)":6381,"cul":6382,"och":6383,"_tap":6384,"rehens":6385,"_Sky":6386,"_MOV":6387,"_wear":6388,"_(especially":6389,"olic":6390,"_NE":6391,"_covered":6392,"_excited":6393,"_distribut":6394,"_anti":6395,"_cares":6396,"_Victoria":6397,"_irritating":6398,"_flesh":6399,"_increas":6400,"ION":6401,"chen":6402,"_bag":6403,"_link":6404,"_Hell":6405,"_Wars":6406,"_chosen":6407,"_Dian":6408,"abe":6409,"tended":6410,"_i'm":6411,"_edited":6412,"_moments.":6413,"_budget,":6414,"_/>Even":6415,"_unfortunate":6416,"_revolution":6417,"_sympathetic":6418,"_revealed":6419,"ausible":6420,"_dreadful":6421,"_Santa":6422,"_abr":6423,"_son,":6424,"_freedom":6425,"ating.":6426,"_nin":6427,"ions,":6428,"_Camp":6429,"_exagger":6430,"olph":6431,"_Fer":6432,"...but":6433,"_over-":6434,"ulliv":6435,"_back,":6436,"_grade":6437,"ise.":6438,"_addict":6439,"_reviewer":6440,"_humorous":6441,"_captiv":6442,"_anyway.":6443,"_Patrick":6444,"_cruel":6445,"-L":6446,"IA":6447,"ixt":6448,"pet":6449,"_mine":6450,"ay,":6451,"_Get":6452,"umph":6453,"_would've":6454,"_river":6455,"including":6456,"_skip":6457,"_stupid,":6458,"_survive":6459,"_statement":6460,"_Barry":6461,"-year-old":6462,"_unconvinc":6463,"2.":6464,"atal":6465,"_Sor":6466,"_Mod":6467,"_Cru":6468,"_Comp":6469,"_Hoff":6470,"_rough":6471,"_trilog":6472,"_logic":6473,"_arg":6474,"_poign":6475,"_well.<br":6476,"_presents":6477,"-to":6478,"_today,":6479,"_guns":6480,"_suffering":6481,"_Grand":6482,"_Simon":6483,"_screaming":6484,"_emphas":6485,"mes":6486,"_cars":6487,"icit":6488,"_eld":6489,"_stol":6490,"_Ast":6491,"_Much":6492,"_Nichol":6493,"_mann":6494,"_overwhel":6495,"avy":6496,"oster":6497,"_horribly":6498,"_viewed":6499,"_reason.":6500,"_Wend":6501,"_stars.":6502,"_flick,":6503,"_provided":6504,"_Does":6505,"_occasional":6506,"_condition":6507,"_Irish":6508,"_offered":6509,"_Powell":6510,"ls":6511,"in'":6512,"_cable":6513,"_/>V":6514,"see":6515,"_MGM":6516,"_Pict":6517,"_Kore":6518,"_realizes":6519,"_Vinc":6520,"_incident":6521,"_sense,":6522,"_yet,":6523,"_concent":6524,"_villains":6525,"_parody":6526,"_unlikely":6527,"_gags":6528,"_nominated":6529,"_surface":6530,"_vehicle":6531,"_Captain":6532,"with":6533,"_sink":6534,"iser":6535,"_of.":6536,"imate":6537,"se,":6538,"_Bett":6539,"_Hong":6540,"_Dream":6541,"_Laur":6542,"ard,":6543,"ards":6544,"_Off":6545,"_make-up":6546,"_kinds":6547,"_mainstream":6548,"_leader":6549,"_cinema,":6550,"_version,":6551,"_house.":6552,"_terrible,":6553,"_walked":6554,"_Without":6555,"_results":6556,"_prior":6557,"_landsc":6558,"_Overall,":6559,"_skills":6560,"_improve":6561,"_Walter":6562,"_Apparent":6563,"_Cindere":6564,"/or":6565,"wise,":6566,"on)":6567,"_harsh":6568,"_dynam":6569,"_health":6570,"amous":6571,"urs":6572,"_Wor":6573,"_realism":6574,"_/>After":6575,"_old,":6576,"_Being":6577,"0's.":6578,"_production.":6579,"_fantas":6580,"_Tarzan":6581,"-screen":6582,"_remotely":6583,"AA":6584,"_0":6585,"noon":6586,"phy":6587,"rad":6588,"wy":6589,"iling":6590,"alling":6591,"_Sat":6592,"_Mer":6593,"_Drew":6594,"_jail":6595,"_king":6596,"_abuse":6597,"_'C":6598,"_'H":6599,"_spends":6600,"ighter":6601,"_owner":6602,"_boat":6603,"_lower":6604,"_command":6605,"_United":6606,"_Jackie":6607,"ennis":6608,"_genre,":6609,"_featured":6610,"_struggling":6611,"_hanging":6612,"_Californ":6613,"_sports":6614,"!),":6615,"IR":6616,"aver":6617,"laim":6618,"_ly":6619,"_Saturday":6620,"_Burn":6621,"_(ex":6622,"_CH":6623,"_\"st":6624,"ums":6625,"_None":6626,"_Evil":6627,"_Oliver":6628,"...the":6629,"ney,":6630,"_everywhere":6631,"_things.":6632,"_spite":6633,"izz":6634,"_plots":6635,"_rival":6636,"_cring":6637,"_downright":6638,"_drama.":6639,"_clichés":6640,"_speaks":6641,"_Woody":6642,"_depicted":6643,"_demonstr":6644,"_mountain":6645,"_/>However,":6646,"ection":6647,"ts":6648,"_till":6649,"_method":6650,"_bon":6651,"anny":6652,"_wast":6653,"_are.":6654,"_vote":6655,"_Fair":6656,"_werewolf":6657,"_which,":6658,"icked":6659,"izabeth":6660,"_own.":6661,"_accomp":6662,"_DVD,":6663,"_interact":6664,"_figured":6665,"_/>Now":6666,"_accidentally":6667,"_influence":6668,"_magnificent":6669,"_bothered":6670,"_VERY":6671,"_reminisc":6672,"oons":6673,"_task":6674,"erie":6675,"_bore":6676,"_dated":6677,"omer":6678,"_BBC":6679,"_Cur":6680,"_Count":6681,"_Hope":6682,"_Roman":6683,"_outrage":6684,"_intent":6685,"_experience.":6686,"mma":6687,"_Plan":6688,"line,":6689,"_connect":6690,"_claims":6691,"_required":6692,"levant":6693,"_Avoid":6694,"'T":6695,"bid":6696,"win":6697,"_Turn":6698,"_Sal":6699,"_liber":6700,"_(that":6701,"iform":6702,"_scale":6703,"_prostit":6704,"_nostal":6705,"man.":6706,"_contact":6707,"_episode,":6708,"_humanity":6709,"_swim":6710,"_fairy":6711,"_morning":6712,"_Then,":6713,"_treatment":6714,"_private":6715,"_sensitive":6716,"_massive":6717,"-S":6718,"UR":6719,"oly":6720,"pass":6721,"_fab":6722,"_fix":6723,"_hired":6724,"_lousy":6725,"_games":6726,"_Ty":6727,"ime,":6728,"etime":6729,"raft":6730,"_Wall":6731,"_Direct":6732,"aking.":6733,"_rise":6734,"_story.<br":6735,"_betray":6736,"_know.":6737,"_episode.":6738,"_glass":6739,"_nightmare":6740,"_commit":6741,"_worse,":6742,"_pulls":6743,"_tremend":6744,"_closer":6745,"_powers":6746,"_attitude":6747,"_authentic":6748,"isco":6749,"_Ted":6750,"_mock":6751,"_stom":6752,"_seat":6753,"_Wonder":6754,"_Look":6755,"_Lugos":6756,"_Gill":6757,"_16":6758,"_according":6759,"_What's":6760,"_presum":6761,"_/>Of":6762,"_humor.":6763,"_corny":6764,"_line,":6765,"_robot":6766,"_dinosaur":6767,"stein":6768,"_comparison":6769,"_core":6770,"_ded":6771,"eter":6772,"_chair":6773,"_one.<br":6774,"_all.<br":6775,"_Through":6776,"_Eve":6777,"_spark":6778,"_contract":6779,"_2.":6780,"_simpl":6781,"_sex,":6782,"_sequenc":6783,"_depress":6784,"_stupid.":6785,"_cinematography,":6786,"belief":6787,"_standards":6788,"_surviv":6789,"_officer":6790,"_recognize":6791,"_challeng":6792,"_film-making":6793,"_beginning,":6794,"ients":6795,"ja":6796,"low":6797,"t,":6798,"ville":6799,"_ton":6800,"_fame":6801,"_thro":6802,"_hill":6803,"_of,":6804,"_(y":6805,"_sho":6806,"_shut":6807,"_shadow":6808,"_jeal":6809,"_192":6810,"_something.":6811,"which":6812,"_bitter":6813,"_nothing.":6814,"_cutting":6815,"_writing,":6816,"_ridiculous.":6817,"_focuses":6818,"ography.":6819,"_Flor":6820,"_Freddy":6821,"_criticism":6822,"_breatht":6823,"_Roger":6824,"_appropriate":6825,"_wedding":6826,"_Vietnam":6827,"BI":6828,"IC":6829,"ait":6830,"_cust":6831,"_toler":6832,"aling":6833,"_SE":6834,"_Curt":6835,"_chill":6836,"_During":6837,"_plans":6838,"_diss":6839,"_'D":6840,"_handled":6841,"_shot,":6842,"_Devil":6843,"_center":6844,"_stayed":6845,"ronic":6846,"_reveals":6847,"_exploitation":6848,"_weekend":6849,"_perspective":6850,"wo":6851,"otion":6852,"_stumb":6853,"_Ak":6854,"_MST":6855,"_(c":6856,"_Cub":6857,"oln":6858,"ist.":6859,"_intens":6860,"_Gi":6861,"_seek":6862,"_watchable":6863,"plend":6864,"_directly":6865,"_guest":6866,"_strict":6867,"_audience,":6868,"_stuff.":6869,"_politic":6870,"_clichéd":6871,"_About":6872,"_/>Another":6873,"_significant":6874,"_ut":6875,"ww":6876,"onel":6877,"_anime":6878,"_Det":6879,"_scr":6880,"_me.<br":6881,"_Old":6882,"_think,":6883,"_'c":6884,"_teeth":6885,"_contest":6886,"athan":6887,"_days,":6888,"_boy,":6889,"_instead.":6890,"_collect":6891,"_children,":6892,"_touches":6893,"_delivery":6894,"_(199":6895,"_mistakes":6896,"_Donald":6897,"_heavily":6898,"_identity":6899,"_legendary":6900,"_dubbed":6901,"_voices":6902,"_dozen":6903,"_necessarily":6904,"_Especially":6905,"_stomach":6906,"a)":6907,"aust":6908,"ule":6909,"reaking":6910,"_fond":6911,"_and/or":6912,"_heck":6913,"uns":6914,"elle":6915,"iously":6916,"_ade":6917,"_first.":6918,"_Your":6919,"_friends.":6920,"_explains":6921,"_confess":6922,"_evol":6923,"_evident":6924,"_zero":6925,"_paying":6926,"_complicated":6927,"_integr":6928,"_ANY":6929,"_ignor":6930,"_dollar":6931,"_inhab":6932,"OP":6933,"_theory":6934,"atically":6935,"_pan":6936,"_gain":6937,"_reject":6938,"ch,":6939,"_Sol":6940,"_haunting":6941,"_\"You":6942,"ems":6943,"outhern":6944,"_deeper":6945,"_guilty":6946,"onsider":6947,"_supernatural":6948,"_Beaut":6949,"_Marie":6950,"_80s":6951,"-dim":6952,"_Carol":6953,"_demand":6954,"_stays":6955,"_hilarious.":6956,"orthy":6957,"_combined":6958,"_appealing":6959,"_Murphy":6960,"_understood":6961,"_***":6962,"writ":6963,"orror":6964,"_pac":6965,"_this?":6966,"_Bog":6967,"_lift":6968,"ers'":6969,"_Rec":6970,"_Gand":6971,"_uniform":6972,"_argu":6973,"_'A":6974,"_underw":6975,"_TV.":6976,"_mind,":6977,"incoln":6978,"_depressing":6979,"_facial":6980,"_anticip":6981,"_focused":6982,"_lucky":6983,"_Sarah":6984,"ga":6985,"_fil":6986,"_Sher":6987,"illed":6988,"_Come":6989,"actic":6990,"istent":6991,"_neck":6992,"_rank":6993,"_did,":6994,"_friend,":6995,"_buying":6996,"_driven":6997,"_profound":6998,"_shocked":6999,"_embarrassing":7000,"_faithful":7001,"_slapstick":7002,"_gruesome":7003,"-ch":7004,"s:":7005,"ught":7006,"_fet":7007,"_mature":7008,"_yell":7009,"_Bourne":7010,"_libr":7011,"_(at":7012,"_Halloween":7013,"_Page":7014,"ummy":7015,"_very,":7016,"ence.":7017,"formed":7018,"_disbelief":7019,"_blat":7020,"obb":7021,"_obnox":7022,"_access":7023,"_You'll":7024,"_else,":7025,"_distinct":7026,"_failure":7027,"_rental":7028,"_patient":7029,"_possible.":7030,"_advant":7031,"_degree":7032,"_experienced":7033,"hib":7034,"_wand":7035,"imm":7036,"_this.<br":7037,"ethe":7038,"amor":7039,"_Rachel":7040,"_Ob":7041,"aret":7042,"_blah":7043,"_Child":7044,"_'P":7045,"_Inc":7046,"reek":7047,"_Branagh":7048,"_sounded":7049,"_career.":7050,"_depiction":7051,"_singer":7052,"_Beck":7053,"_amazed":7054,"_corp":7055,"_promising":7056,"_/>Don't":7057,"_variety":7058,"_Mean":7059,"_previously":7060,"_designed":7061,"_satisfying":7062,"_Mrs.":7063,"_(200":7064,"_welcome":7065,"IGHT":7066,"in't":7067,"_witty":7068,"_fu":7069,"ar.":7070,"_/>(":7071,"_native":7072,"_network":7073,"ented":7074,"_Back":7075,"_mere":7076,"_Nancy":7077,"igr":7078,"_scenario":7079,"oyd":7080,"_disag":7081,"_Yes":7082,"_guy.":7083,"stery":7084,"_worthwhile":7085,"_entertainment.":7086,"_version.":7087,"_home.":7088,"_words,":7089,"_snow":7090,"_technology":7091,"_movement":7092,"_uncomfort":7093,"_Lewis":7094,"fess":7095,"_tong":7096,"enced":7097,"espite":7098,"_don":7099,"_/>4":7100,"_seve":7101,"_chief":7102,"one.":7103,"_Each":7104,"_roles,":7105,"_things,":7106,"_believed":7107,"_trapped":7108,"_father's":7109,"_committed":7110,"_excellent.":7111,"_mess.":7112,"_locations":7113,"_passing":7114,"_miscast":7115,"_McD":7116,"_touched":7117,"_(198":7118,"_introduction":7119,"_journal":7120,"_veteran":7121,"_MOVIE":7122,"buster":7123,"mond":7124,"_tens":7125,"_wreck":7126,"_bird":7127,"es.<br":7128,"ani":7129,"arg":7130,"_height":7131,"_stunn":7132,"_Award":7133,"rol":7134,"_HA":7135,"_placed":7136,"_lear":7137,"_1.":7138,"_17":7139,"_enh":7140,"_greater":7141,"_could've":7142,"_preview":7143,"_guar":7144,"_Cha":7145,"atherine":7146,"_incor":7147,"_courage":7148,"ibilities":7149,"_excellent,":7150,"_Atl":7151,"_irre":7152,"_efforts":7153,"_techniqu":7154,"_Inde":7155,"_President":7156,"_Sunday":7157,"_hip":7158,"_dent":7159,"_isol":7160,"_gas":7161,"_reward":7162,"_he'd":7163,"_haunted":7164,"_\"V":7165,"_chuck":7166,"_Lost":7167,"_Lincoln":7168,"_Jay":7169,"_Enter":7170,"_over,":7171,"ian,":7172,"_afternoon":7173,"_They're":7174,"_Friday":7175,"_starred":7176,"_Arn":7177,"_McG":7178,"_village":7179,"_novel,":7180,"_families":7181,"_forest":7182,"_Queen":7183,"_gore,":7184,"_desperately":7185,"_Philip":7186,"_divor":7187,"_Texas":7188,"BO":7189,"`s":7190,"ipped":7191,"_wrest":7192,"onest":7193,"_nude":7194,"ieu":7195,"et's":7196,"_Min":7197,"_kung":7198,"_vir":7199,"_vivid":7200,"_LOV":7201,"_Roc":7202,"_feet":7203,"ways,":7204,"ful.":7205,"_blown":7206,"_serve":7207,"_horrif":7208,"_training":7209,"_helping":7210,"_monsters":7211,"_Marg":7212,"_repet":7213,"_seriously.":7214,"roduction":7215,"_deliber":7216,"_picks":7217,"!!!!!!!!":7218,"_costume":7219,"_prepared":7220,"_routine":7221,"_reminiscent":7222,"\"),":7223,"g.":7224,"ues,":7225,"z,":7226,"_cous":7227,"_paper":7228,"_gentle":7229,"_Cat":7230,"_Cole":7231,"_Have":7232,"_Jam":7233,"_sheriff":7234,"_girl.":7235,"-lin":7236,"_mother,":7237,"_magical":7238,"_listening":7239,"_Geor":7240,"_Amaz":7241,"_graph":7242,"iveness":7243,"_teenagers":7244,"_international":7245,"_Mexican":7246,"_abandoned":7247,"wyck":7248,"hest":7249,"_SO":7250,"_Mic":7251,"_(O":7252,"_Cooper":7253,"_shape":7254,"_Da":7255,"_Dep":7256,"_vast":7257,"_Pa":7258,"_Ra":7259,"arden":7260,"ounds":7261,"ick,":7262,"_amus":7263,"_throws":7264,"_prime":7265,"_laugh.":7266,"_carries":7267,"-called":7268,"_war,":7269,"_daughter,":7270,"_femin":7271,"_universe":7272,"_sympathy":7273,"/director":7274,"_environment":7275,"_sophistic":7276,"-dimensional":7277,"KE":7278,"gie":7279,"zil":7280,"_ske":7281,"_boot":7282,"_pity":7283,"_Take":7284,"_us.":7285,"_movie...":7286,"_(it":7287,"_Dr":7288,"_others,":7289,"_people's":7290,"_crash":7291,"_subsequ":7292,"apping":7293,"_experiences":7294,"_painting":7295,"_essential":7296,"_sympath":7297,"_homosexual":7298,"_Parker":7299,"_stolen":7300,"EL":7301,"_ice":7302,"hrist":7303,"s?":7304,"_splend":7305,"ings.":7306,"_dirty":7307,"_gam":7308,"_it...":7309,"roph":7310,"_(l":7311,"acle":7312,"_real.":7313,"_enter":7314,"bec":7315,"_happiness":7316,"_factor":7317,"_Anna":7318,"_carried":7319,"_assign":7320,"_driver":7321,"_streets":7322,"_Phill":7323,"_$1":7324,"_status":7325,"_contrived":7326,"core":7327,"k.":7328,"kind":7329,"_ain't":7330,"re,":7331,"_cook":7332,"orig":7333,"_inj":7334,"_nu":7335,"aying":7336,"semble":7337,"_AL":7338,"rab":7339,"_Wid":7340,"_Die":7341,"_Dun":7342,"ifies":7343,"_so-called":7344,"_Knight":7345,"assic":7346,"ianc":7347,"_Virgin":7348,"_Stud":7349,"_thoughts":7350,"_laugh,":7351,"_install":7352,"_instance,":7353,"_10/10":7354,"_transform":7355,"_renting":7356,"_USA":7357,"_autom":7358,"OOD":7359,"_arrives":7360,"_join":7361,"_flashbacks":7362,"_mirror":7363,"_sinister":7364,"utherland":7365,"ba":7366,"m,":7367,"nan":7368,"rs":7369,"_bow":7370,"_dub":7371,"_dump":7372,"ed\"":7373,"alph":7374,"oooo":7375,"_Sometimes":7376,"_(including":7377,"_attend":7378,"_suffe":7379,"_outd":7380,"_out.<br":7381,"_rub":7382,"_arr":7383,"_Us":7384,"_Under":7385,"_Alt":7386,"_security":7387,"_stylish":7388,"_concert":7389,"_face.":7390,"_corpor":7391,"_psychiat":7392,"_changing":7393,"_univers":7394,"_causes":7395,"_beloved":7396,"_sucked":7397,"_spoilers":7398,"_purely":7399,"_ignore":7400,"_concerned":7401,"_festival":7402,"vest":7403,"_torn":7404,"_Ire":7405,"_storm":7406,"chy":7407,"_for,":7408,"_Sir":7409,"_Caine":7410,"_actress,":7411,"_virgin":7412,"umber":7413,"_overact":7414,"_adop":7415,"_everyday":7416,"_Channel":7417,"_enjoying":7418,"_another.":7419,"_kids,":7420,"_TV,":7421,"_extras":7422,"_portra":7423,"_\"Bl":7424,"_critical":7425,"_(197":7426,"_Elizabeth":7427,"_Matth":7428,"_stereotypical":7429,"_reference":7430,"_Gordon":7431,"-j":7432,"ns":7433,"_gift":7434,"_Bac":7435,"_MAN":7436,"_Dal":7437,"_via":7438,"_Person":7439,"_showc":7440,"tending":7441,"assion":7442,"_say.":7443,"_another,":7444,"ibal":7445,"_happened.":7446,"_women,":7447,"_children.":7448,"_matters":7449,"_figures":7450,"ielberg":7451,"_mentally":7452,"_crying":7453,"/1":7454,"_cy":7455,"_pool":7456,"_Tru":7457,"_that.<br":7458,"_why.":7459,"_Son":7460,"el.":7461,"agal":7462,"_Lem":7463,"udes":7464,"_Vamp":7465,"_horrific":7466,"weet":7467,"ia's":7468,"_/>So,":7469,"_halfway":7470,"spired":7471,"_wife.":7472,"_slow,":7473,"_children's":7474,"_brother,":7475,"_magaz":7476,"_predictable,":7477,"_visuals":7478,"_lawyer":7479,"_jumps":7480,"_closing":7481,"_Swed":7482,"_mildly":7483,"_Ryan":7484,"_Wilson":7485,"_Columbo":7486,"-B":7487,"It":7488,"end":7489,"ease":7490,"ker":7491,"ling,":7492,"re's":7493,"erior":7494,"_besides":7495,"or's":7496,"_dign":7497,"_lust":7498,"_film?":7499,"ifi":7500,"_Gray":7501,"ella":7502,"_way.<br":7503,"_throwing":7504,"_grim":7505,"beat":7506,"_kids.":7507,"_co-st":7508,"_creatures":7509,"_production,":7510,"_limit":7511,"_immense":7512,"_carrying":7513,"_challenge":7514,"_disgusting":7515,"_neighborhood":7516,"hand":7517,"long":7518,"_tiny":7519,"orable":7520,"ass.":7521,"_laid":7522,"_that?":7523,"_film!":7524,"_us,":7525,"_Sulliv":7526,"_movie:":7527,"_wears":7528,"_Cus":7529,"_jung":7530,"_comical":7531,"_vi":7532,"_depend":7533,"pleas":7534,"_disgu":7535,"_price":7536,"_resist":7537,"_raised":7538,"_facts":7539,"_relax":7540,"_coinc":7541,"ancing":7542,"_attempting":7543,"_generation":7544,"_indie":7545,"_dark,":7546,"_past,":7547,"-hand":7548,"_atmospher":7549,"_effectively":7550,"_revolves":7551,"_stereotypes":7552,"_/>Although":7553,"_bodies":7554,"_Sidney":7555,"_princip":7556,"_extraordinary":7557,"_concentr":7558,"_accompan":7559,"zel":7560,"isand":7561,"_ped":7562,"_franch":7563,"_one-lin":7564,"_no,":7565,"_quir":7566,"_overcome":7567,"_dislike":7568,"_Val":7569,"_performed":7570,"_here.<br":7571,"atholic":7572,"_crude":7573,"_cheer":7574,"_handle":7575,"_Really":7576,"_grave":7577,"_70s":7578,"_convict":7579,"_throughout.":7580,"_cultural":7581,"_illustr":7582,"_exploit":7583,"_regarding":7584,"_executed":7585,"_Stanwyck":7586,"lynn":7587,"_weapon":7588,"_established":7589,"US":7590,"ez":7591,"face":7592,"hew":7593,"cellent":7594,"_anal":7595,"_weight":7596,"_Wes":7597,"ela":7598,"_plastic":7599,"usive":7600,"_worry":7601,"_Far":7602,"um,":7603,"_NY":7604,"_cance":7605,"_feed":7606,"_offensive":7607,"_'W":7608,"_horrend":7609,"_raise":7610,"_entertaining,":7611,"retty":7612,"_fans.":7613,"_Dean":7614,"_father.":7615,"_true.":7616,"iamond":7617,"_psycho":7618,"_horrible.":7619,"_\"What":7620,"_dull,":7621,"_imaginative":7622,"_replaced":7623,"_tedious":7624,"_philosoph":7625,"bod":7626,"_trap":7627,"_tense":7628,"erved":7629,"_fulf":7630,"_phen":7631,"_shout":7632,"_Lore":7633,"_Larry":7634,"_Rand":7635,"_Raj":7636,"um.":7637,"_Nel":7638,"_loyal":7639,"_Chan":7640,"_while,":7641,"_France":7642,"_examples":7643,"_credible":7644,"_credibility":7645,"_/>There's":7646,"_filmmak":7647,"_twisted":7648,"_personalities":7649,"_execution":7650,"oppy":7651,"_continuity":7652,"_Okay,":7653,"3)":7654,"lance":7655,"_side,":7656,"_har":7657,"_page":7658,"_puzz":7659,"_/>the":7660,"_eth":7661,"stone":7662,"_Sutherland":7663,"ama":7664,"_Ma":7665,"_Hal":7666,"_Drag":7667,"_dece":7668,"_LI":7669,"_Ren":7670,"_FBI":7671,"_Ju":7672,"oses":7673,"_arrog":7674,"...\"":7675,"_partn":7676,"berl":7677,"_inco":7678,"_woman.":7679,"-min":7680,"_\"Wh":7681,"_score,":7682,"ONE":7683,"sett":7684,"_embarrassed":7685,"_holiday":7686,"_breaking":7687,"_Chapl":7688,"-not":7689,"/s":7690,"1,":7691,"3,":7692,"_tempt":7693,"itious":7694,"_hunt":7695,"_hipp":7696,"adget":7697,"_Sav":7698,"_Simp":7699,"_Ball":7700,"ura":7701,"_Hy":7702,"_shark":7703,"_Three":7704,"place":7705,"_life.<br":7706,"beit":7707,"_calling":7708,"_Arm":7709,"_80":7710,"_sorts":7711,"_later.":7712,"_drives":7713,"_iron":7714,"_innov":7715,"_broke":7716,"_weeks":7717,"_Zombie":7718,"_glimpse":7719,"_suffered":7720,"-G":7721,"-hearted":7722,"i)":7723,"ipping":7724,"ugh":7725,"_mas":7726,"ane,":7727,"_pap":7728,"_dut":7729,"_wasting":7730,"_sevent":7731,"_BL":7732,"_Rep":7733,"_Ned":7734,"_ensemble":7735,"_Kurt":7736,"_function":7737,"_guilt":7738,"_traum":7739,"_ourselves":7740,"_head.":7741,"_Spring":7742,"_sket":7743,"_heart.":7744,"_school.":7745,"_game.":7746,"_amongst":7747,"_appreciated":7748,"_societ":7749,"_Matrix":7750,"_Julie":7751,"_determined":7752,"_elder":7753,"fall":7754,"arter":7755,"_ash":7756,"_Bu":7757,"_Brend":7758,"_choo":7759,"_Dennis":7760,"_alright":7761,"_agre":7762,"_invis":7763,"_lesser":7764,"-con":7765,"_Spielberg":7766,"0's,":7767,"_swear":7768,"coming":7769,"-pro":7770,"_Isra":7771,"_Music":7772,"_Leslie":7773,"_Jewish":7774,"_Camer":7775,"2)":7776,"LD":7777,"hold":7778,"ler,":7779,"wl":7780,"worth":7781,"itor":7782,"ston":7783,"id,":7784,"rial":7785,"_Movies":7786,"_Wow":7787,"_Warner":7788,"_Rick":7789,"_Ralph":7790,"_Greg":7791,"_poet":7792,"_direction.":7793,"_'7":7794,"_year,":7795,"_lot.":7796,"_raw":7797,"_triumph":7798,"_conspir":7799,"_adding":7800,"-com":7801,"_Blair":7802,"_border":7803,"_school,":7804,"_announ":7805,"_Carpent":7806,"_deadly":7807,"_admir":7808,"-go":7809,"_Julia":7810,"_neighb":7811,"_specific":7812,"_anything,":7813,"_Oliv":7814,"_controversial":7815,"_MST3":7816,"_Widmark":7817,"_Matthau":7818,"\").":7819,"S,":7820,"_**":7821,"part":7822,"order":7823,"_thumb":7824,"_hors":7825,"_DE":7826,"_exer":7827,"_Land":7828,"_outs":7829,"_Ghost":7830,"_enorm":7831,"ivity":7832,"_Alice":7833,"_comedian":7834,"_nowad":7835,"_caric":7836,"phan":7837,"_Definitely":7838,"_Claire":7839,"_amazingly":7840,"_exceptional":7841,"_parall":7842,"_medical":7843,"_spiritual":7844,"_religion":7845,"_aston":7846,"_praise":7847,"drop":7848,"lan":7849,"ery,":7850,"_mes":7851,"_tow":7852,"_lie":7853,"_C.":7854,"_Daw":7855,"iffe":7856,"_jerk":7857,"_PL":7858,"_Lion":7859,"_Return":7860,"_Nol":7861,"_Kare":7862,"_spook":7863,"_attraction":7864,"_accents":7865,"_consists":7866,"_elabor":7867,"ucky":7868,"_low-":7869,"_Unlike":7870,"_classics":7871,"_successfully":7872,"_occup":7873,"_Charact":7874,"_devil":7875,"_seasons":7876,"_Streisand":7877,"_teenager":7878,"_succeeds":7879,"_WWII":7880,"_REALLY":7881,"_oblig":7882,"_unbear":7883,"_description":7884,"_learning":7885,"5.":7886,"ket":7887,"lot":7888,"ya":7889,"_dom":7890,"_gather":7891,"_nut":7892,"ooge":7893,"_Something":7894,"ulk":7895,"_Living":7896,"aste":7897,"ogical":7898,"_end.<br":7899,"_works.":7900,"_Church":7901,"_Veg":7902,"_Intern":7903,"_again.<br":7904,"_related":7905,"_horror,":7906,"_explod":7907,"_history,":7908,"-good":7909,"_steps":7910,"_Sandler":7911,"_camera.":7912,"_destroyed":7913,"_risk":7914,"_locked":7915,"_propaganda":7916,"-de":7917,"_hur":7918,"_pian":7919,"ass,":7920,"_ones.":7921,"_ult":7922,"_Bollywood":7923,"_(an":7924,"_Home":7925,"agn":7926,"_vs.":7927,"_Ree":7928,"_Fle":7929,"ation.<br":7930,"_mechan":7931,"_Our":7932,"_myst":7933,"_clips":7934,"_served":7935,"_States":7936,"_resort":7937,"_views":7938,"ocr":7939,"_subplot":7940,"_consum":7941,"_letter":7942,"_fallen":7943,"_stars,":7944,"_close-up":7945,"_refuses":7946,"_written,":7947,"_town.":7948,"_attacked":7949,"_sleeping":7950,"_answers":7951,"_non-ex":7952,"_Killer":7953,"_separate":7954,"_thousand":7955,"_frequently":7956,"_unforget":7957,"-over":7958,"IM":7959,"bit":7960,"iens":7961,"kick":7962,"_tied":7963,"_aired":7964,"_oil":7965,"_firm":7966,"_cock":7967,"_hous":7968,"_gut":7969,"_MA":7970,"_WOR":7971,"_Dere":7972,"est.":7973,"opath":7974,"_Flynn":7975,"quis":7976,"_go.":7977,"mentioned":7978,"_'T":7979,"ocal":7980,"_Shar":7981,"_men,":7982,"_styl":7983,"_Someone":7984,"_dialogue.":7985,"_promise":7986,"_level.":7987,"_myself,":7988,"_ambig":7989,"_/>Anyway,":7990,"_Vincent":7991,"_Cinderella":7992,"gress":7993,"ril":7994,"ype":7995,"itche":7996,"lear":7997,"ily,":7998,"ly)":7999,"_Aud":8000,"_BAD":8001,"_Mann":8002,"ill,":8003,"_cha":8004,"_Port":8005,"s.\"":8006,"_Griff":8007,"_enem":8008,"_imit":8009,"avid":8010,"_'f":8011,"_something,":8012,"_finan":8013,"_different.":8014,"_war.":8015,"_eleg":8016,"_Reed":8017,"_Army":8018,"_annoying.":8019,"_predictable.":8020,"_Why?":8021,"_device":8022,"_struggles":8023,"_Stanley":8024,"-re":8025,"UL":8026,"mitted":8027,"o)":8028,"ors,":8029,"onne":8030,"utch":8031,"_beach":8032,"entric":8033,"seud":8034,"_stiff":8035,"_anger":8036,"_Book":8037,"_Boll":8038,"_Bros":8039,"_Cow":8040,"elve":8041,"_Lum":8042,"_Fay":8043,"_evening":8044,"_perpet":8045,"_ways,":8046,"_'m":8047,"_flight":8048,"_teens":8049,"_Heaven":8050,"_backdrop":8051,"_proof":8052,"_smooth":8053,"_shot.":8054,"_Friend":8055,"_letting":8056,"_fans,":8057,"_superfic":8058,"ampion":8059,"_angles":8060,"_theaters":8061,"_campy":8062,"_connected":8063,"_physically":8064,"_afford":8065,"_rip-off":8066,"_service":8067,"_adequ":8068,"_Arnold":8069,"-he":8070,"loyd":8071,"rue":8072,"uper":8073,"_sides":8074,"rell":8075,"_wanna":8076,"ingu":8077,"_toile":8078,"_national":8079,"ada":8080,"_Buck":8081,"_Power":8082,"_Goth":8083,"_End":8084,"prise":8085,"ception":8086,"_Scar":8087,"_picture,":8088,"_past.":8089,"_\"In":8090,"_\"My":8091,"_solve":8092,"_violence.":8093,"_Peck":8094,"_Glover":8095,"_Probably":8096,"_substance":8097,"_surrounding":8098,"_frightening":8099,"_disappear":8100,"_conversation":8101,"_broadcast":8102,"_Brothers":8103,"_hundreds":8104,"_Susan":8105,"_Freeman":8106,"_structure":8107,"-written":8108,"_cynical":8109,"_widow":8110,"_reputation":8111,"_tongue":8112,"_ultra":8113,"1/2":8114,"OD":8115,"ran":8116,"ye":8117,"_afore":8118,"oration":8119,"imag":8120,"ch.":8121,"_Az":8122,"_upper":8123,"_sends":8124,"_Mid":8125,"_notable":8126,"_(one":8127,"_Lisa":8128,"_rhy":8129,"umble":8130,"_unre":8131,"_Ken":8132,"_play,":8133,"_preach":8134,"_flu":8135,"_through,":8136,"_underground":8137,"_pointed":8138,"_happen.":8139,"atching":8140,"okes":8141,"_eyes,":8142,"_deaths":8143,"_style.":8144,"_drown":8145,"_husband,":8146,"_sequels":8147,"_60":8148,"ographic":8149,"_future.":8150,"_Check":8151,"_official":8152,"_:)":8153,"_Overall":8154,"_garbage.":8155,"_Jessica":8156,"_pregnant":8157,"\"?":8158,"-sp":8159,"HING":8160,"lon":8161,"ned":8162,"_tax":8163,"_saves":8164,"_wins":8165,"_mont":8166,"_bik":8167,"inging":8168,"eni":8169,"_SPOILERS":8170,"urg":8171,"_Cel":8172,"_\"Y":8173,"_Hank":8174,"_Lam":8175,"_Things":8176,"_charge":8177,"_EN":8178,"_Krist":8179,"_greatly":8180,"eremy":8181,"_interest.":8182,"_Maria":8183,"_switch":8184,"-ser":8185,"_infamous":8186,"_case.":8187,"_politics":8188,"_alone.":8189,"_larger":8190,"_narration":8191,"_Elvis":8192,"_engag":8193,"_metaph":8194,"_concerns":8195,"_searching":8196,"_Sci-F":8197,"_believable.":8198,"_lonely":8199,"fully,":8200,"_phenomen":8201,"_incoherent":8202,"?),":8203,"TA":8204,"rthur":8205,"_aunt":8206,"_awards":8207,"er.<br":8208,"_hole":8209,"_infect":8210,"ilton":8211,"_Tem":8212,"_on.<br":8213,"_Bette":8214,"_Mom":8215,"_Hest":8216,"_Were":8217,"_act.":8218,"_Fel":8219,"_unh":8220,"udge":8221,"_play.":8222,"_spread":8223,"_minimal":8224,"_24":8225,"_ripped":8226,"_newsp":8227,"_farm":8228,"_explore":8229,"_entertained":8230,"_poor,":8231,"_fan.":8232,"_perfect.":8233,"_Reg":8234,"_topic":8235,"_opened":8236,"_women.":8237,"_dealt":8238,"_ironic":8239,"_stops":8240,"_/>He":8241,"_equal":8242,"_cartoons":8243,"_checking":8244,"_Germany":8245,"_dollars":8246,"conom":8247,"-class":8248,"_rules":8249,"_Eastwood":8250,"_wealthy":8251,"_inexplic":8252,"_Michelle":8253,"itizen":8254,"_abrupt":8255,"_Hoffman":8256,"_Obvious":8257,"_Cusack":8258,"rd":8259,"onn":8260,"_pseud":8261,"_Such":8262,"_\"n":8263,"_Hot":8264,"_Hud":8265,"_shines":8266,"_sche":8267,"aude":8268,"_meat":8269,"iger":8270,"_seeking":8271,"_1st":8272,"ary.":8273,"_tender":8274,"_Along":8275,"_decl":8276,"_friendly":8277,"gging":8278,"_career,":8279,"_restaur":8280,"_Reyn":8281,"_dragged":8282,"_lights":8283,"_2006":8284,"_suspenseful":8285,"_boredom":8286,"_School":8287,"_obsession":8288,"_Police":8289,"_fortun":8290,"_ingred":8291,"_Nazi":8292,"_interpretation":8293,"_whatsoever.":8294,"_circumstances":8295,"_Rochester":8296,"_MST3K":8297,"rep":8298,"_wishes":8299,"_cere":8300,"_thread":8301,"_Imp":8302,"_T.":8303,"ooby":8304,"cend":8305,"_Bach":8306,"uristic":8307,"_alt":8308,"_Point":8309,"_rushed":8310,"_Jac":8311,"ounding":8312,"_Kirk":8313,"_Chuck":8314,"_then.":8315,"_gritty":8316,"_incons":8317,"--but":8318,"ission":8319,"_territ":8320,"_person,":8321,"ative,":8322,"umbling":8323,"_minds":8324,"_Club":8325,"ierce":8326,"_face,":8327,"_quality.":8328,"_funnier":8329,"_honest,":8330,"EAD":8331,"_Grace":8332,"_lines.":8333,"_judg":8334,"_editing,":8335,"_urban":8336,"_split":8337,"_burst":8338,"_Karloff":8339,"_advantage":8340,"_splendid":8341,"_ashamed":8342,"hi":8343,"hoe":8344,"_tag":8345,"_table":8346,"_toss":8347,"_lur":8348,"_lazy":8349,"_Ira":8350,"_is.<br":8351,"_eager":8352,"idel":8353,"_AT":8354,"_B.":8355,"_vent":8356,"new":8357,"_spy":8358,"_happily":8359,"theless,":8360,"_resour":8361,"_maintain":8362,"_basement":8363,"_woman's":8364,"_Johnson":8365,"ERE":8366,"_mindless":8367,"_Dev":8368,"_imagery":8369,"_moment,":8370,"_amazing.":8371,"_title,":8372,"_centur":8373,"uclear":8374,"_levels":8375,"_weakness":8376,"_opinion.":8377,"_photographer":8378,"_suspense,":8379,"_III":8380,"_anymore.":8381,"_buddy":8382,"_thousands":8383,"_tribute":8384,"_naturally":8385,"_Universal":8386,"_fabulous":8387,"iancé":8388,"5,":8389,"9.":8390,"lest":8391,"atisf":8392,"_thick":8393,"_toy":8394,"_dang":8395,"_nail":8396,"rig":8397,"_Bol":8398,"_(th":8399,"_Dad":8400,"ifying":8401,"_Lake":8402,"_Lloyd":8403,"redict":8404,"_Kath":8405,"_queen":8406,"plete":8407,"_root":8408,"ry.":8409,"_'L":8410,"land,":8411,"_countless":8412,"_stories,":8413,"_horrible,":8414,"_sleazy":8415,"_Need":8416,"_material.":8417,"_miles":8418,"_strip":8419,"bbed":8420,"_escapes":8421,"_initially":8422,"_drinking":8423,"_charismatic":8424,"_unconvincing":8425,"_tremendous":8426,"_disagree":8427,"BLE":8428,"iber":8429,"rich":8430,"_fired":8431,"_greed":8432,"iled":8433,"_beating":8434,"_Din":8435,"_plac":8436,"_Jake":8437,"_spoken":8438,"_'F":8439,"_attached":8440,"_old.":8441,"_castle":8442,"_child.":8443,"_dialog,":8444,"_elsewhere":8445,"_elev":8446,"_detract":8447,"_develops":8448,"_Seagal":8449,"_Guy":8450,"_Tracy":8451,"_merc":8452,"_Berg":8453,"_terrifying":8454,"_goofy":8455,"_argument":8456,"_portrait":8457,"-minute":8458,"fire":8459,"gia":8460,"_fra":8461,"itude":8462,"_thirty":8463,"_dude":8464,"lean":8465,"ida":8466,"_sea":8467,"_MU":8468,"_webs":8469,"_(h":8470,"_H.":8471,"_sus":8472,"_exch":8473,"_Log":8474,"_Roll":8475,"_Fire":8476,"_Jer":8477,"inded":8478,"_what?":8479,"_Kap":8480,"_shows.":8481,"ade:":8482,"_poster":8483,"_i've":8484,"_killers":8485,"thew":8486,"_cheese":8487,"_sexually":8488,"_artists":8489,"_sure,":8490,"_restra":8491,"_president":8492,"_brilliance":8493,"_shoots":8494,"_2000":8495,"_fourth":8496,"_usual,":8497,"_Conn":8498,"_redempt":8499,"_adventures":8500,"_satisfy":8501,".A.":8502,"_Pacino":8503,"_uninteresting":8504,"_increasingly":8505,"_breathtaking":8506,"_Reynold":8507,"?).":8508,"C.":8509,"kins":8510,"mates":8511,"_sings":8512,"_wave":8513,"eral":8514,"ases":8515,"_econom":8516,"_nation":8517,"ils":8518,"_Air":8519,"race":8520,"_(t":8521,"_Di":8522,"_PG":8523,"_Falk":8524,"_ramp":8525,"_Emma":8526,"_nose":8527,"_rolling":8528,"_'I":8529,"ccentric":8530,"_grasp":8531,"_sets,":8532,"_Brid":8533,"_person.":8534,"_artific":8535,"_surprises":8536,"_Blue":8537,"_disappointment.":8538,"_Att":8539,"-bl":8540,"_conclud":8541,"_themselves,":8542,"_forgettable":8543,"-style":8544,"_hoped":8545,"_unfortunately,":8546,"_belongs":8547,"_Miike":8548,"_inspiration":8549,"accur":8550,"_marvelous":8551,"_daily":8552,"_lyric":8553,"cent":8554,"oving":8555,"_san":8556,"_push":8557,"_lying":8558,"_etern":8559,"_stood":8560,"ides,":8561,"_butt":8562,"_Mass":8563,"_Cry":8564,"_Cox":8565,"_Would":8566,"_jack":8567,"aking,":8568,"_alike":8569,"_Run":8570,"_like.":8571,"_Gal":8572,"ard.":8573,"_storyline,":8574,"mann":8575,"....<br":8576,"iously,":8577,"_'G":8578,"_spending":8579,"_own,":8580,"_child,":8581,"_idea.":8582,"_classic,":8583,"_either,":8584,"_thriller.":8585,"_annoyed":8586,"_Elvir":8587,"_metal":8588,"_Nightmare":8589,"_hype":8590,"_idiotic":8591,"_represents":8592,"_interviews":8593,"_surrounded":8594,"_Sadly,":8595,"_Baby":8596,"_vulner":8597,"_associated":8598,"_Baksh":8599,"_General":8600,"_Lugosi":8601,"_Derek":8602,"TV":8603,"ipe":8604,"rict":8605,"some":8606,"_cave":8607,"_hiding":8608,"_beast":8609,"char":8610,"_B-movie":8611,"raw":8612,"_notorious":8613,"_Cre":8614,"_Harr":8615,"_Hug":8616,"ushes":8617,"_Los":8618,"_Rub":8619,"_ruth":8620,"_Give":8621,"_go,":8622,"_well-d":8623,"_aged":8624,"_reality,":8625,"ty.":8626,"_'R":8627,"_Whatever":8628,"_viewer.":8629,"_believing":8630,"_suburb":8631,"_right?":8632,"_covers":8633,"_caring":8634,"_episodes,":8635,"_Spir":8636,"_attempted":8637,"_once,":8638,"_wonderful.":8639,"_thriller,":8640,"_adapted":8641,"_rule":8642,"_bullet":8643,"_melodramatic":8644,"-American":8645,"_troubled":8646,"_subtitles":8647,"/c":8648,"TER":8649,"hh":8650,"hatt":8651,"iently":8652,"_tree":8653,"_wann":8654,"_bes":8655,"bra":8656,"brick":8657,"_game,":8658,"_hes":8659,"'s,":8660,"ety":8661,"_yeah,":8662,"_Acc":8663,"ira":8664,"_Could":8665,"_shirt":8666,"unction":8667,"istically":8668,"_Fu":8669,"inda":8670,"_une":8671,"_unpleas":8672,"_says,":8673,"anging":8674,"weight":8675,"_grows":8676,"_screening":8677,"_Spike":8678,"_homeless":8679,"_sad,":8680,"_talent.":8681,"_/>From":8682,"_Britain":8683,"_treasure":8684,"_suggests":8685,"_(John":8686,"_Golden":8687,"_require":8688,"_vampires":8689,"_Holmes":8690,"_Austral":8691,"_wondered":8692,"_balance":8693,"_semi":8694,"_Astaire":8695,"_jealous":8696,"_quirky":8697,"1.":8698,"BS":8699,"die":8700,"ux":8701,"_wake":8702,"_fiancé":8703,"_pin":8704,"_gal":8705,"idents":8706,"_Saw":8707,"ams":8708,"_(of":8709,"_\"real":8710,"_have.":8711,"_plant":8712,"isted":8713,"_they'd":8714,"_Father":8715,"_Gabr":8716,"_quote":8717,"_realise":8718,"_decades":8719,"_enjoyable.":8720,"_basis":8721,"_explicit":8722,"_glob":8723,"_eyes.":8724,"_Clint":8725,"_monst":8726,"_format":8727,"_budget.":8728,"ification":8729,"_self-c":8730,"_town,":8731,"_nonethe":8732,"_pleasantly":8733,"_accepted":8734,"_nudity,":8735,"_competition":8736,"_Secret":8737,"_Muslim":8738,"_(except":8739,"_custom":8740,"_Israel":8741,"_superficial":8742,"7.":8743,"_sam":8744,"_wis":8745,"_mudd":8746,"itchen":8747,"onald":8748,"_pig":8749,"_publ":8750,"_pushed":8751,"_inaccur":8752,"_Ice":8753,"icop":8754,"lee":8755,"ader":8756,"_Age":8757,"_Met":8758,"_Mother":8759,"_(un":8760,"_Cann":8761,"_Consider":8762,"_Hop":8763,"_Wind":8764,"_allowing":8765,"_FOR":8766,"_Family":8767,"_conven":8768,"_Think":8769,"_there.<br":8770,"about":8771,"_Kat":8772,"_real,":8773,"_blank":8774,"_enters":8775,"shay":8776,"_young,":8777,"_handful":8778,"_extent":8779,"_Real":8780,"_retarded":8781,"-war":8782,"_seriously,":8783,"_drivel":8784,"_guessing":8785,"_colors":8786,"_chance.":8787,"_sequel.":8788,"_destruction":8789,"_sucks":8790,"_observ":8791,"_masterpiece.":8792,"_essence":8793,"_curios":8794,"_weapons":8795,"_sentimental":8796,"_Helen":8797,"_Bettie":8798,"_uncomfortable":8799,"_Atlant":8800,"itchell":8801,"_Sci-Fi":8802,"E.":8803,"fits":8804,"law":8805,"mit":8806,"mate":8807,"u,":8808,"_tons":8809,"erning":8810,"onse":8811,"_dust":8812,"_dare":8813,"_Id":8814,"_gre":8815,"_nuclear":8816,"_Alf":8817,"_SU":8818,"_scares":8819,"agl":8820,"usion":8821,"_GRE":8822,"ory.":8823,"_good.<br":8824,"avor":8825,"aze":8826,"_Shep":8827,"_horror.":8828,"_superhero":8829,"_warri":8830,"......":8831,"_expensive":8832,"_everyone.":8833,"_riding":8834,"oilers":8835,"_opposed":8836,"_\"I'm":8837,"_mistaken":8838,"_Morris":8839,"_anyway,":8840,"_millions":8841,"_repeat":8842,"_Here,":8843,"_identify":8844,"_robber":8845,"_Africa":8846,"_Lucas":8847,"_racist":8848,"_chasing":8849,"_accomplish":8850,"_cowboy":8851,"_ludicrous":8852,"_intensity":8853,"_repetitive":8854,"_exercise":8855,"_tune":8856,"_bust":8857,"_bold":8858,"_ABC":8859,"am,":8860,"_Mitch":8861,"_Cag":8862,"_Cook":8863,"_Cont":8864,"_Has":8865,"_Water":8866,"_plague":8867,"_conve":8868,"orted":8869,"_Ever":8870,"_ages":8871,"_minim":8872,"ably,":8873,"_Almost":8874,"_enjoyment":8875,"_diff":8876,"_screenwriter":8877,"_rights":8878,"icularly":8879,"_10,":8880,"_/>Well,":8881,"_talked":8882,"_Scr":8883,"_convol":8884,"_matter.":8885,"lton":8886,"_attention.":8887,"_requires":8888,"_Science":8889,"_melodrama":8890,"_accomplished":8891,"_Silver":8892,"_incompet":8893,"_torment":8894,"_Festival":8895,"_trilogy":8896,"_Korean":8897,"_psychiatrist":8898,"_invisible":8899,"ELL":8900,"gun":8901,"hill":8902,"via":8903,"hes,":8904,"_wicked":8905,"_carn":8906,"_cared":8907,"_hung":8908,"_eccentric":8909,"_Tob":8910,"chool":8911,"_\"re":8912,"ers.<br":8913,"_jew":8914,"_alb":8915,"ola":8916,"_Pick":8917,"_Poor":8918,"_Ring":8919,"_Ruth":8920,"_Farre":8921,"_does,":8922,"_killer,":8923,"_directorial":8924,"_reluct":8925,"_far,":8926,"_Shaw":8927,"_shots,":8928,"_Soon":8929,"_/>Be":8930,"_/>By":8931,"_titles":8932,"_hopefully":8933,"_struck":8934,"_photographed":8935,"_sisters":8936,"_respective":8937,"_Next":8938,"_20th":8939,"_striking":8940,"spector":8941,"_achieved":8942,"_rapid":8943,"_replace":8944,"_Hardy":8945,"_assistant":8946,"_sneak":8947,"_California":8948,"_aforementioned":8949,"/p":8950,"nch":8951,"uf":8952,"_paced":8953,"_dire":8954,"_nur":8955,"_Mild":8956,"ter.":8957,"terday":8958,"_CIA":8959,"_Catholic":8960,"_Witch":8961,"_chain":8962,"_Right":8963,"_timeless":8964,"udos":8965,"_enemy":8966,"_really.":8967,"_Kaz":8968,"onda":8969,"acre":8970,"_real-life":8971,"type":8972,"_Andre":8973,"_decad":8974,"_thought,":8975,"_must-se":8976,"_idea,":8977,"oviet":8978,"rett":8979,"_problem.":8980,"_problems,":8981,"_borrow":8982,"_beautiful.":8983,"_\"Sh":8984,"_appearing":8985,"_blood,":8986,"_brand":8987,"_winner":8988,"ANT":8989,"_Play":8990,"_strangely":8991,"_television.":8992,"_Doctor":8993,"_forgive":8994,"_strike":8995,"_reactions":8996,"_Iran":8997,"_sacrific":8998,"_assassin":8999,"_poignant":9000,"_subsequent":9001,"hoeven":9002,"'A":9003,"-W":9004,"2,":9005,"9,":9006,"inent":9007,"_sail":9008,"_saf":9009,"_wra":9010,"_fish":9011,"_dict":9012,"_gar":9013,"ley,":9014,"_nice,":9015,"_Ten":9016,"_relevant":9017,"_states":9018,"chant":9019,"_Bart":9020,"_Made":9021,"_(n":9022,"_Catherine":9023,"_chap":9024,"_chilling":9025,"_scary,":9026,"_dogs":9027,"olesc":9028,"_vicious":9029,"_Res":9030,"_goal":9031,"_1/2":9032,"ellar":9033,"_knife":9034,"obert":9035,"_entry":9036,"_embr":9037,"_string":9038,"_farce":9039,"_absorb":9040,"_detect":9041,"_Uncle":9042,"_Robb":9043,"_Hollywood.":9044,"_video.":9045,"_transfer":9046,"_morality":9047,"_pulling":9048,"_Neil":9049,"_First,":9050,"_release.":9051,"_ignored":9052,"_attracted":9053,"_kicks":9054,"_criminals":9055,"_Alexand":9056,"_defend":9057,"_Apparently":9058,"_strictly":9059,"4,":9060,"But":9061,"jection":9062,"uz":9063,"_maid":9064,"es'":9065,"oric":9066,"_tool":9067,"_dud":9068,"asion":9069,"_gee":9070,"iments":9071,"_Mas":9072,"_Mort":9073,"_Mach":9074,"_Marsh":9075,"_(V":9076,"ulate":9077,"_venge":9078,"_Fisher":9079,"_Gun":9080,"_Nic":9081,"acked":9082,"_watches":9083,"ablish":9084,"_pretend":9085,"_precise":9086,"_apolog":9087,"_decis":9088,"_carefully":9089,"_entertainment,":9090,"-made":9091,"_recommended.":9092,"iness,":9093,"_moment.":9094,"_release,":9095,"_irony":9096,"urious":9097,"_Goldberg":9098,"_bleak":9099,"_uninspired":9100,"_Finally,":9101,"_remaining":9102,"_ingen":9103,"_Verhoeven":9104,"_frankly":9105,"_fifteen":9106,"_NEVER":9107,"_virus":9108,"_Nelson":9109,"_Felix":9110,"!.":9111,"1)":9112,"nic":9113,"uing":9114,"van":9115,"_sag":9116,"rer":9117,"_wrap":9118,"_ought":9119,"only":9120,"_hire":9121,"eds":9122,"_inher":9123,"_gamb":9124,"_eerie":9125,"_film)":9126,"_(this":9127,"_Cost":9128,"_\"U":9129,"_shall":9130,"ements":9131,"_doct":9132,"_exhib":9133,"_abys":9134,"_Rather":9135,"_River":9136,"_Fall":9137,"_intr":9138,"_her.<br":9139,"ume":9140,"_Natal":9141,"_noble":9142,"plo":9143,"_ways.":9144,"_too.<br":9145,"_performing":9146,"wered":9147,"_here's":9148,"_chest":9149,"ibl":9150,"_conserv":9151,"_jobs":9152,"_cameos":9153,"_once.":9154,"_lacked":9155,"_definite":9156,"_drags":9157,"_assault":9158,"_thrilling":9159,"_patri":9160,"_busy":9161,"_technique":9162,"_yourself.":9163,"_murder,":9164,"_grandmother":9165,"_draws":9166,"_Craven":9167,"_cardboard":9168,"_summary":9169,"_choices":9170,"_mansion":9171,"_everything.":9172,"_inhabit":9173,"_obnoxious":9174,"_graphics":9175,"_unforgettable":9176,"s\",":9177,"yc":9178,"_ward":9179,"_fitting":9180,"_faced":9181,"_mort":9182,"_cup":9183,"_hood":9184,"_hitting":9185,"_gimm":9186,"_stead":9187,"_film;":9188,"rock":9189,"_alle":9190,"_Later":9191,"_Ful":9192,"_outcome":9193,"_Josh":9194,"_Event":9195,"elly":9196,"_clown":9197,"erto":9198,"_parts,":9199,"_parts.":9200,"_made-for":9201,"izard":9202,"_two.":9203,"_horrid":9204,"_slim":9205,"_trial":9206,"_relent":9207,"appropri":9208,"_kid,":9209,"_reasonably":9210,"_helicop":9211,"_instance":9212,"_Scooby":9213,"_men.":9214,"_8/10":9215,"ities.":9216,"_5.":9217,"onym":9218,"_brilliant,":9219,"_daughters":9220,"_sequence,":9221,"_obser":9222,"_1950s":9223,"_meaningful":9224,"_competent":9225,"_dropped":9226,"_silly,":9227,"_Laurel":9228,"_reduced":9229,"_Dorothy":9230,"_Titanic":9231,"_atrocious":9232,"_dynamic":9233,"50":9234,"8.":9235,"He":9236,"tle":9237,"_frag":9238,"atched":9239,"_cri":9240,"_Ale":9241,"_Abs":9242,"_SN":9243,"_Mupp":9244,"_(g":9245,"_Dri":9246,"agg":9247,"_Low":9248,"ory,":9249,"_unsett":9250,"_EX":9251,"_Est":9252,"_/>I've":9253,"_killer.":9254,"_lot,":9255,"---":9256,"-film":9257,"_hours.":9258,"_easier":9259,"_\"Sc":9260,"_collabor":9261,"_admitted":9262,"_listed":9263,"_jokes,":9264,"_premie":9265,"_flawed":9266,"_spoiler":9267,"_blend":9268,"_continued":9269,"_occurred":9270,"_Again,":9271,"_Denzel":9272,"_stealing":9273,"_Duke":9274,"_crafted":9275,"_bathroom":9276,"_storytelling":9277,"rehensible":9278,"_landscape":9279,"_;":9280,"_..":9281,"bird":9282,"corn":9283,"crow":9284,"led,":9285,"oz":9286,"rink":9287,"y)":9288,"_fox":9289,"ors.":9290,"_pa":9291,"_dirt":9292,"_is:":9293,"otal":9294,"_it)":9295,"ieve":9296,"_reli":9297,"_rebel":9298,"_reached":9299,"_Sing":9300,"_Sab":9301,"_Mitchell":9302,"rand":9303,"_(i.":9304,"_Hind":9305,"_Dix":9306,"_whoever":9307,"olves":9308,"_Ric":9309,"_Rome":9310,"_Jeremy":9311,"_wheel":9312,"_Norm":9313,"_troop":9314,"itty,":9315,"_age,":9316,"_movies.<br":9317,"_rain":9318,"_chew":9319,"_guys,":9320,"_sky":9321,"_messages":9322,"_true,":9323,"_line.":9324,"_dead.":9325,"oubted":9326,"_matter,":9327,"_satir":9328,"_picking":9329,"_effort.":9330,"_(196":9331,"afia":9332,"_revealing":9333,"_society.":9334,"_Acting":9335,"_arrive":9336,"_segments":9337,"_Brooks":9338,"_electric":9339,"_Leonard":9340,"_/>Unfortun":9341,"_Planet":9342,"_Curtis":9343,"-R":9344,".com":9345,"_wack":9346,"ates.":9347,"_threw":9348,"oni":9349,"_lake":9350,"_Tur":9351,"_Soviet":9352,"_BA":9353,"_\"in":9354,"_Woman":9355,"_at.":9356,"_exists":9357,"_Po":9358,"_Lane":9359,"_Four":9360,"quel":9361,"_Gil":9362,"orting":9363,"_seeing.":9364,"_reality.":9365,"_partly":9366,"_Yeah,":9367,"_bridge":9368,"_i.":9369,"_rive":9370,"_America.":9371,"_car,":9372,"_romance,":9373,"_talent,":9374,"_Season":9375,"_stronger":9376,"_brilliant.":9377,"_providing":9378,"_stories.":9379,"_/>Despite":9380,"_illeg":9381,"_trend":9382,"_ratings":9383,"_scary.":9384,"_expressions":9385,"ukh":9386,"_packed":9387,"_aimed":9388,"_wonders":9389,"_gripping":9390,"_birthday":9391,"_stretch":9392,"_sedu":9393,"_unintentionally":9394,".'":9395,"girl":9396,"mo":9397,"well,":9398,"_aid":9399,"_foul":9400,"oria":9401,"_dre":9402,"_Ing":9403,"_nerv":9404,"entin":9405,"'s.":9406,"ions.":9407,"_stair":9408,"_film:":9409,"_lip":9410,"_(to":9411,"_Hunter":9412,"_D.":9413,"_Pretty":9414,"estic":9415,"_Row":9416,"_National":9417,"_uneven":9418,"respect":9419,"_lovable":9420,"_upd":9421,"_bad.<br":9422,"_arms":9423,"_blast":9424,"_Heart":9425,"_better.<br":9426,"_Ultim":9427,"_2,":9428,"_humili":9429,"atingly":9430,"_same.":9431,"_sub-":9432,"_Shah":9433,"_perfect,":9434,"_heart,":9435,"_closely":9436,"_McL":9437,"_/>Fin":9438,"_\"Be":9439,"_level,":9440,"_ridiculously":9441,"_God,":9442,"_60's":9443,"_cool,":9444,"_planning":9445,"_age.":9446,"_Princess":9447,"_attacks":9448,"_/>Every":9449,"_respond":9450,"_response":9451,"_innocence":9452,"_tortured":9453,"_displays":9454,"_Lucy":9455,"_protagonists":9456,"_dubbing":9457,"_unwatch":9458,"_department":9459,"_ticket":9460,"_juven":9461,"_cabin":9462,"because":9463,"_Griffith":9464,"8,":9465,"nes":9466,"uke":9467,"ues.":9468,"inch":9469,"ree,":9470,"_Iron":9471,"_nause":9472,"_Sally":9473,"urai":9474,"_noted":9475,"_(most":9476,"_Cher":9477,"_Hick":9478,"_shad":9479,"_Fortun":9480,"_trite":9481,"_load":9482,"_show's":9483,"_directing,":9484,"_afterward":9485,"ructed":9486,"_enjoys":9487,"rama":9488,"_accused":9489,"_insert":9490,"onscious":9491,"_audien":9492,"_instantly":9493,"_3.":9494,"ecess":9495,"_anyone.":9496,"_Blake":9497,"_head,":9498,"_distant":9499,"_stupidity":9500,"_concerning":9501,"_favorites":9502,"_sadistic":9503,"vision":9504,"ologist":9505,"_Man,":9506,"_manager":9507,"_unfair":9508,"_climb":9509,"_Timothy":9510,"_cases":9511,"_settings":9512,"_Corb":9513,"_warned":9514,"_properly":9515,"_confusion":9516,"_resembles":9517,"_Kubrick":9518,"_cousin":9519,"_astonishing":9520,"-ey":9521,"_=":9522,"burn":9523,"oight":9524,"yr":9525,"zo":9526,"_ack":9527,"_fing":9528,"_croc":9529,"_eg":9530,"utes":9531,"_befriend":9532,"_asp":9533,"_Summer":9534,"_Besides":9535,"_web":9536,"raight":9537,"_(no":9538,"_Candy":9539,"_extended":9540,"_nep":9541,"_shower":9542,"_shows,":9543,"_cliff":9544,"_/>They":9545,"aware":9546,"_Chic":9547,"_'d":9548,"ruci":9549,"ale,":9550,"shine":9551,"_gotta":9552,"_originality":9553,"_laughable.":9554,"_childish":9555,"_short.":9556,"_creators":9557,"_useless":9558,"_Mystery":9559,"_45":9560,"_name.":9561,"_transport":9562,"_appearances":9563,"unky":9564,"_stuff,":9565,"_technically":9566,"_pleased":9567,"_devast":9568,"_scientists":9569,"_colorful":9570,"_miserably":9571,"====":9572,"_sophisticated":9573,"_elderly":9574,"ketball":9575,"_toilet":9576,"_Mildred":9577,"_acknow":9578,"ier,":9579,"_mal":9580,"ator,":9581,"ona":9582,"_pitch":9583,"_loo":9584,"_Ian":9585,"_nine":9586,"semb":9587,"_staff":9588,"_Budd":9589,"_Mun":9590,"_Certain":9591,"uloid":9592,"_Doc":9593,"emark":9594,"_kitchen":9595,"_plat":9596,"_Roth":9597,"_nearb":9598,"_Gen":9599,"_maniac":9600,"_fears":9601,"apes":9602,"_overrated":9603,"ney.":9604,"_because,":9605,"_disease":9606,"_2nd":9607,"_imperson":9608,"_start.":9609,"_world's":9610,"_acclaim":9611,"_buried":9612,"_help.":9613,"ition,":9614,"_happen,":9615,"_Revol":9616,"-law":9617,"_video,":9618,"-down":9619,"_hero,":9620,"_Manhatt":9621,"_mother.":9622,"_popcorn":9623,"_parod":9624,"_musicals":9625,"_hilarious,":9626,"_futuristic":9627,"_writer/director":9628,"_barg":9629,"_jumping":9630,"_Excellent":9631,"opper":9632,"_neglect":9633,"_homage":9634,"_fatal":9635,"_punish":9636,"_Highly":9637,"_frustrated":9638,"_settle":9639,"_verb":9640,"_cannibal":9641,"_atmospheric":9642,"_gimmick":9643,"'.<br":9644,"5)":9645,"7,":9646,"OST":9647,"tte":9648,"_bog":9649,"_bott":9650,"itar":9651,"_hun":9652,"_psy":9653,"_stress":9654,"_Cold":9655,"_Hunt":9656,"_Hanks":9657,"_Down":9658,"_Dave":9659,"_have,":9660,"_jaw":9661,"_abilities":9662,"_Ritter":9663,"_cliche":9664,"_21":9665,"_girls,":9666,"_Scot":9667,"_countries":9668,"_sadd":9669,"_development,":9670,"_90's":9671,"_selfish":9672,"ley's":9673,"_importance":9674,"_winn":9675,"_motor":9676,"AND":9677,"_devoted":9678,"_returning":9679,"_sister,":9680,"_atmosphere,":9681,"_conclusion,":9682,"_merit":9683,"_labor":9684,"_Mexico":9685,"_encounters":9686,"_Picture":9687,"_mesmer":9688,"_(i.e.":9689,"bust":9690,"cr":9691,"ias":9692,"joint":9693,"s).":9694,"uate":9695,"ving.":9696,"heim":9697,"_cig":9698,"icient":9699,"_ech":9700,"alo":9701,"ila":9702,"_this:":9703,"_AW":9704,"_select":9705,"_Bush":9706,"_aliens":9707,"_Garb":9708,"aux":9709,"_legs":9710,"_Kar":9711,"_think.":9712,"_Yet,":9713,"_enjoy.":9714,"lik":9715,"_relies":9716,"_laughs.":9717,"_reasons.":9718,"_coherent":9719,"ahl":9720,"_possibility":9721,"_star.":9722,"_menacing":9723,"grade":9724,"_Legend":9725,"_misunder":9726,"_camera-work":9727,"_Davies":9728,"_throughout,":9729,"_daughter.":9730,"_honor":9731,"_uniqu":9732,"ONG":9733,"_angel":9734,"_sticks":9735,"bbing":9736,"_Matthew":9737,"_Juliet":9738,"_immigr":9739,"_joke.":9740,"_scientific":9741,"_receive":9742,"_terrorist":9743,"_camera,":9744,"_drunken":9745,"_Francisco":9746,"_hospit":9747,"_gradually":9748,"_kidnapped":9749,"_Techn":9750,"_Eva":9751,"_Whether":9752,"_́s":9753,"_Laura":9754,"_LOVE":9755,"_Jamie":9756,"_Sullivan":9757,"_Karen":9758,"_Gothic":9759,"_Fulci":9760,"iation":9761,"_tires":9762,"_fo":9763,"_bos":9764,"_name,":9765,"_stated":9766,"_movie)":9767,"_Med":9768,"_shy":9769,"_actress.":9770,"eling":9771,"_always,":9772,"_Py":9773,"_Pie":9774,"_they'll":9775,"_Fore":9776,"_rural":9777,"_Gw":9778,"_Greek":9779,"_timing":9780,"_Kane":9781,"_look.":9782,"...)":9783,"_precious":9784,"_offering":9785,"_films.<br":9786,"_killed,":9787,"_pray":9788,"_crook":9789,"_viewing.":9790,"_laughs,":9791,"_Shir":9792,"_art.":9793,"_glorious":9794,"_excruci":9795,"_involved.":9796,"_Hollywood,":9797,"vised":9798,"_70":9799,"_presentation":9800,"_novel.":9801,"_novels":9802,"_sidekick":9803,"-hour":9804,"iko":9805,"_typically":9806,"_son.":9807,"_Roberts":9808,"_/>No":9809,"ARD":9810,"_returned":9811,"********":9812,"_York,":9813,"_advance":9814,"_superbly":9815,"_(such":9816,"_Luci":9817,"_Comedy":9818,"_clothing":9819,"_Again":9820,"-of-":9821,"_resemblance":9822,"_inevitable":9823,"_Hudson":9824,"-one":9825,"kill":9826,"video":9827,"_tab":9828,"inning":9829,"_ow":9830,"_fart":9831,"_fancy":9832,"_hunter":9833,"_patter":9834,"_guts":9835,"ution,":9836,"_Todd":9837,"_Sell":9838,"_Bull":9839,"_chances":9840,"pel":9841,"_all-time":9842,"ies\"":9843,"_albeit":9844,"_Pam":9845,"ptic":9846,"_shel":9847,"_Kay":9848,"never":9849,"_amuse":9850,"_'N":9851,"_flop":9852,"_slave":9853,"_bit,":9854,"_bit.":9855,"_smoke":9856,"_stranger":9857,"_explored":9858,"_coffe":9859,"ances.":9860,"phant":9861,"_star,":9862,"_productions":9863,"_grab":9864,"_dead,":9865,"_reflection":9866,"_darker":9867,"_predecess":9868,"_costs.":9869,"_psychotic":9870,"udden":9871,"_Perry":9872,"_acceptable":9873,"_theater.":9874,"_\"film":9875,"_Craig":9876,"_Hamlet":9877,"_burned":9878,"_Bobby":9879,"_mirac":9880,"_tricks":9881,"_/>Overall":9882,"_beginning.":9883,"_implausible":9884,"_Lawrence":9885,"_conventional":9886,"_nerd":9887,"_unbelievably":9888,"_logical":9889,"_Wallace":9890,"_Meanwhile,":9891,"_deliberately":9892,"_financial":9893,"_juvenile":9894,"6,":9895,"e\"":9896,"io,":9897,"_sand":9898,"_mic":9899,"_mixt":9900,"_bang":9901,"itched":9902,"llo":9903,"_lord":9904,"_nuts":9905,"_Try":9906,"_moon":9907,"verted":9908,"_stro":9909,"_anx":9910,"_Bell":9911,"_Mol":9912,"ravel":9913,"_notably":9914,"_\"e":9915,"_shift":9916,"aka":9917,"aky":9918,"_Fool":9919,"_Grey":9920,"_overall,":9921,"_prej":9922,"_adul":9923,"_adolesc":9924,"_characteristic":9925,"_Voight":9926,"_obv":9927,"_Sha":9928,"_instant":9929,"_interrupt":9930,"_indul":9931,"_/>Director":9932,"_ridiculous,":9933,"_Godfather":9934,"_\"De":9935,"_angle":9936,"_Plus,":9937,"_builds":9938,"_country.":9939,"_catches":9940,"_silver":9941,"gypt":9942,"_professor":9943,"_Glenn":9944,"_Actually,":9945,"related":9946,"_/>Just":9947,"_beaten":9948,"_intrigued":9949,"_100%":9950,"_digital":9951,"_escaped":9952,"_Jesse":9953,"_Apart":9954,"_Brooklyn":9955,"-TV":9956,"_vulgar":9957,"_Kenneth":9958,"_synops":9959,"_Vampire":9960,"_abysm":9961,"6.":9962,"hil":9963,"os,":9964,"s),":9965,"_bump":9966,"orc":9967,"_hunting":9968,"_inappropri":9969,"omn":9970,"_hey,":9971,"_he'll":9972,"imes,":9973,"_stone":9974,"_Arab":9975,"_Sop":9976,"ameless":9977,"_(you":9978,"_\"com":9979,"_Hurt":9980,"_Hung":9981,"agine":9982,"_Pan":9983,"_Lily":9984,"_Further":9985,"_nod":9986,"oder":9987,"odge":9988,"_1/10":9989,"...it":9990,"nered":9991,"_disjoint":9992,"_performer":9993,"_UN":9994,"ition.":9995,"_3/10":9996,"_coach":9997,"_happens.":9998,"ances,":9999,"_lessons":10000,"_glamor":10001,"_disappointing.":10002,"_songs,":10003,"-line":10004,"_7/10":10005,"_room,":10006,"_experience,":10007,"_sequel,":10008,"_India":10009,"_murderous":10010,"_Warren":10011,"_devoid":10012,"_Pegg":10013,"_engine":10014,"_causing":10015,"_slightest":10016,"_NOTHING":10017,"_realistic.":10018,"_(she":10019,"_trademark":10020,"rifice":10021,"_trash.":10022,"_briefly":10023,"_ambitious":10024,"_affected":10025,"-of-the":10026,"_primary":10027,"_hysterical":10028,"_Indeed,":10029,"_elaborate":10030,"-E":10031,"-H":10032,"-day":10033,"SS":10034,"V.":10035,"break":10036,"fight":10037,"gren":10038,"_tail":10039,"_sarc":10040,"itual":10041,"ates,":10042,"_ho":10043,"_reh":10044,"idal":10045,"_Soph":10046,"_CD":10047,"_Cour":10048,"_Hack":10049,"ifting":10050,"ago":10051,"_Pot":10052,"_Field":10053,"_ranks":10054,"_Thanks":10055,"_Nov":10056,"_Navy":10057,"_clues":10058,"aps,":10059,"_endearing":10060,"_aggress":10061,"eping":10062,"_bless":10063,"_2)":10064,"_Alien":10065,"_resur":10066,"_compassion":10067,"_reasonable":10068,"_dialogs":10069,"_special.":10070,"_titled":10071,"_along.":10072,"_Carter":10073,"_mother's":10074,"_demands":10075,"_colon":10076,"_inferior":10077,"_steam":10078,"_simple,":10079,"_Plus":10080,"_alone,":10081,"_period.":10082,"_recognized":10083,"_ghosts":10084,"_urge":10085,"_describes":10086,"_frighten":10087,"_Berlin":10088,"_dinner":10089,"_Eyre":10090,"_celluloid":10091,"_hatred":10092,"_fundament":10093,"_/>Also,":10094,"_battles":10095,"_exaggerated":10096,"_Worst":10097,"_Akshay":10098,"_filth":10099,"_enormous":10100,"ifferent":10101,"_Kapoor":10102,"_unpleasant":10103,"\";":10104,"In":10105,"K,":10106,"iper":10107,"lay":10108,"rum":10109,"sk":10110,"uated":10111,"ving,":10112,"stin":10113,"_bew":10114,"_reaches":10115,"imated":10116,"_whim":10117,"_selling":10118,"_Make":10119,"_Cand":10120,"_HBO":10121,"ularly":10122,"_suited":10123,"s,\"":10124,"_Pen":10125,"_Ly":10126,"_worried":10127,"_Gadget":10128,"_Kum":10129,"_watching,":10130,"plane":10131,"ogue":10132,"_argue":10133,"_poison":10134,"obody":10135,"_while.":10136,"_scripts":10137,"_America,":10138,"_handed":10139,"_address":10140,"_surprise,":10141,"_interaction":10142,"_animation,":10143,"_Marc":10144,"_everyone,":10145,"_Hollywood's":10146,"_title.":10147,"_lives,":10148,"_staying":10149,"_material,":10150,"_OK.":10151,"_strikes":10152,"_Here's":10153,"_bedroom":10154,"_occurs":10155,"_Rogers":10156,"_currently":10157,"_fortune":10158,"_consistently":10159,"_racism":10160,"_rating.":10161,"_\"good":10162,"_dozens":10163,"_optim":10164,"_EVERY":10165,"_Cinema":10166,"_involvement":10167,"_sequences,":10168,"_horrendous":10169,"\"<br":10170,"4.":10171,"6)":10172,"rase":10173,"ton,":10174,"_tad":10175,"_sales":10176,"_wont":10177,"_fed":10178,"_mouse":10179,"_hates":10180,"_topless":10181,"_rebell":10182,"_Aw":10183,"_Song":10184,"_Sold":10185,"rip":10186,"_BUT":10187,"pecial":10188,"_Pur":10189,"inder":10190,"_shelf":10191,"abh":10192,"abel":10193,"_prec":10194,"_also,":10195,"_characters.<br":10196,"_China":10197,"_'8":10198,"_view.":10199,"_funny.<br":10200,"_care.":10201,"ovich":10202,"_/>Why":10203,"_We're":10204,"_poor.":10205,"_portion":10206,"_Unless":10207,"_failing":10208,"_annoying,":10209,"????":10210,"_motives":10211,"_pays":10212,"_jokes.":10213,"_(193":10214,"_Oscars":10215,"!!!!!":10216,"check":10217,"ambo":10218,"_truth.":10219,"_particular,":10220,"_Streep":10221,"_remarkably":10222,"_Otherwise,":10223,"_defeat":10224,"_influenced":10225,"_discussion":10226,"_highest":10227,"_golden":10228,"_companion":10229,"_charisma":10230,"_dedicated":10231,"_simplistic":10232,"_jungle":10233,"oubtedly":10234,"_nearby":10235,"_mixture":10236,"/h":10237,"0,":10238,"Arthur":10239,"IP":10240,"_{":10241,"_muse":10242,"_gro":10243,"ilarly":10244,"_beats":10245,"_stabb":10246,"_haunt":10247,"urance":10248,"_MY":10249,"_Honest":10250,"ifted":10251,"olk":10252,"_Ginger":10253,"umin":10254,"_Thunder":10255,"_meas":10256,"_Nice":10257,"_Ext":10258,"_Oz":10259,"aped":10260,"_look,":10261,"_pover":10262,"_prev":10263,"_twin":10264,"_work.<br":10265,"_'b":10266,"ized,":10267,"_Inspector":10268,"_two,":10269,"angel":10270,"_whereas":10271,"_Stall":10272,"_recru":10273,"ating:":10274,"--a":10275,"_girl's":10276,"_world.<br":10277,"_whole,":10278,"_dramas":10279,"_half-":10280,"_misses":10281,"_amazing,":10282,"_heroic":10283,"_darkness":10284,"_/>Most":10285,"hett":10286,"_evil,":10287,"_cinematographer":10288,"_producing":10289,"_focusing":10290,"_(195":10291,"chest":10292,"_marks":10293,"_spoiled":10294,"_soundtrack,":10295,"_Except":10296,"_estate":10297,"_medium":10298,"_improved":10299,"_travels":10300,"_unsatisf":10301,"_insulting":10302,"_threatening":10303,"_Polans":10304,"_disappeared":10305,"_performers":10306,"_hooked":10307,"_Andrews":10308,"_Miy":10309,"_dismiss":10310,"_comfortable":10311,"_Brando":10312,"_severe":10313,"_techniques":10314,"_franchise":10315,"_spooky":10316,"_Iraq":10317,"_artificial":10318,"_Cagney":10319,"_nephew":10320,"')":10321,")and":10322,"aith":10323,"can":10324,"_awe":10325,"nda":10326,"orse":10327,"onc":10328,"anity":10329,"_pir":10330,"_dys":10331,"_ease":10332,"_Terry":10333,"seen":10334,"_aside,":10335,"_SC":10336,"_Baker":10337,"rah":10338,"rave":10339,"_notion":10340,"_Hist":10341,"_Hugh":10342,"_chased":10343,"_Line":10344,"_Foster":10345,"_Italy":10346,"_Ow":10347,"abs":10348,"_workers":10349,"_characters'":10350,"_fluff":10351,"ivalent":10352,"_rif":10353,"_killed.":10354,"_complet":10355,"_friend.":10356,"riller":10357,"_instit":10358,"_3rd":10359,"_absence":10360,"_possibilities":10361,"_monot":10362,"_videos":10363,"_prompt":10364,"_voice-over":10365,"ATCH":10366,"_photograph":10367,"_\"He":10368,"_narrator":10369,"_explaining":10370,"_introduces":10371,"_situations.":10372,"_drawing":10373,"_contrad":10374,"_specif":10375,"_lifetime":10376,"_primarily":10377,"_April":10378,"_forever.":10379,"_temper":10380,"_drops":10381,"_chases":10382,"_resolution":10383,"_Latin":10384,"_obscure":10385,"_solely":10386,"_applaud":10387,"_outrageous":10388,"_Heston":10389,"_scheme":10390,"_i.e.":10391,"book":10392,"bidden":10393,"ev":10394,"ped":10395,"wright":10396,"_tame":10397,"_tang":10398,"atures":10399,"oral":10400,"oured":10401,"aning":10402,"lead":10403,"iders":10404,"_Abr":10405,"_Set":10406,"_Call":10407,"_\"a":10408,"_Doll":10409,"_act,":10410,"_plag":10411,"than":10412,"_Luck":10413,"_FX":10414,"_Fear":10415,"_justify":10416,"_Op":10417,"plots":10418,"icker":10419,"_characterization":10420,"_'h":10421,"_horrors":10422,"_trio":10423,"_instinct":10424,"_course.":10425,"_smaller":10426,"_country,":10427,"oiler":10428,"_fine.":10429,"_suspicious":10430,"_psychopath":10431,"_(I'm":10432,"_suspense.":10433,"overn":10434,"_oddly":10435,"_flawless":10436,"_Supp":10437,"_storyline.":10438,"_Quite":10439,"_blew":10440,"_persu":10441,"_Hamilton":10442,"_benefit":10443,"_repeatedly":10444,"_turkey":10445,"_hypnot":10446,"_Beatty":10447,"_vacation":10448,"_revelation":10449,"_gigg":10450,"_arrested":10451,"_util":10452,"_blatant":10453,"_divorce":10454,"_horses":10455,"_newspaper":10456,"_altogether":10457,"_Considering":10458,"_convoluted":10459,"-type":10460,"4)":10461,"RY":10462,"tr":10463,"_tie":10464,"_size":10465,"_wished":10466,"eric":10467,"ato":10468,"enes":10469,"enstein":10470,"oning":10471,"ll,":10472,"_gall":10473,"aled":10474,"_rein":10475,"ad,":10476,"_hence":10477,"_forty":10478,"_anth":10479,"roy":10480,"rain":10481,"_\"Z":10482,"ulated":10483,"_jazz":10484,"_exotic":10485,"_Lund":10486,"ude,":10487,"_trade":10488,"_had.":10489,"_implic":10490,"neck":10491,"forms":10492,"_disli":10493,"perfect":10494,"ryn":10495,"ile,":10496,"_spots":10497,"_Cham":10498,"_view,":10499,"_fine,":10500,"_composed":10501,"ossibly":10502,"retched":10503,"ERS":10504,"_delicious":10505,"_Myr":10506,"_4.":10507,"_hearts":10508,"_Sept":10509,"_transition":10510,"_thrillers":10511,"_situation.":10512,"_writer,":10513,"_season.":10514,"_sexuality":10515,"_rocket":10516,"_villain,":10517,"_stereotype":10518,"_editor":10519,"strong":10520,"_Jeffrey":10521,"_okay,":10522,"_behavi":10523,"_burning":10524,"_contempl":10525,"_ONE":10526,"_candid":10527,"_liberal":10528,"_throat":10529,"_principal":10530,"_montage":10531,"_ruthless":10532,"-O":10533,"8)":10534,"HA":10535,"UM":10536,"cula":10537,"function":10538,"_wore":10539,"isation":10540,"_fog":10541,"_faster":10542,"_mund":10543,"itled":10544,"itches":10545,"ingly,":10546,"_thief":10547,"_on-screen":10548,"ado":10549,"_Bow":10550,"_Mam":10551,"_WAS":10552,"_suits":10553,"outs":10554,"_scope":10555,"antee":10556,"_von":10557,"_Pleas":10558,"_Palt":10559,"_Gund":10560,"_league":10561,"_loads":10562,"_were,":10563,"_arc":10564,"_aging":10565,"izable":10566,"ression":10567,"_Valent":10568,"ival.":10569,"_Uwe":10570,"_You're":10571,"_sex.":10572,"son.":10573,"_audio":10574,"_lasted":10575,"_worthless":10576,"_involved,":10577,"_Clar":10578,"olutely":10579,"_/>Other":10580,"_painted":10581,"_indic":10582,"_Carrey":10583,"_discovery":10584,"_(194":10585,"_Neither":10586,"_era.":10587,"_mid-":10588,"_pace,":10589,"_screams":10590,"_raped":10591,"_Alexander":10592,"_\"bad":10593,"_Murder":10594,"_Miller":10595,"_breast":10596,"_achievement":10597,"_Nevertheless,":10598,"_Burton":10599,"_Carrad":10600,"_/>Yes,":10601,"_Remember":10602,"_overwhelming":10603,"_magazine":10604,"_Swedish":10605,"_International":10606,"_restaurant":10607,"_tiresome":10608,"breaking":10609,"uart":10610,"va":10611,"_taught":10612,"_tales":10613,"hes.":10614,"ina,":10615,"_sab":10616,"_sons":10617,"_cens":10618,"or\"":10619,"_pant":10620,"_pub":10621,"leg":10622,"_Town":10623,"ie\"":10624,"_hey":10625,"_stir":10626,"_assemb":10627,"_Actor":10628,"_S.":10629,"_sup":10630,"_one-dimensional":10631,"_commend":10632,"_plight":10633,"_Pars":10634,"_Lad":10635,"_RE":10636,"_RO":10637,"_Fant":10638,"_Fish":10639,"_row":10640,"_Oll":10641,"_many,":10642,"_peak":10643,"_quot":10644,"aval":10645,"_thru":10646,"_still,":10647,"theless":10648,"_compens":10649,"_newly":10650,"_guys.":10651,"_harder":10652,"_insist":10653,"_worst.":10654,"_shorts":10655,"_exposed":10656,"_lackl":10657,"_developing":10658,"_transp":10659,"_evil.":10660,"ribute":10661,"_weakest":10662,"_politically":10663,"_parents,":10664,"_priv":10665,"_era,":10666,"_documentary.":10667,"_soundtrack.":10668,"_Julian":10669,"-numb":10670,"_hints":10671,"_sacrifice":10672,"_REAL":10673,"_despair":10674,"_salv":10675,"_halluc":10676,"_overlooked":10677,"_dentist":10678,"_Chaplin":10679,"_Cameron":10680,"_suspend":10681,"_wannabe":10682,"_GREAT":10683,"_nervous":10684,"_Paltrow":10685,"7)":10686,"9)":10687,"lam":10688,"oj":10689,"vill":10690,"_ax":10691,"_sits":10692,"_wig":10693,"ery.":10694,"_daring":10695,"_dazz":10696,"omm":10697,"_/>i":10698,"_stole":10699,"_Aff":10700,"_SPOILER":10701,"_Band":10702,"raged":10703,"_Civil":10704,"_shake":10705,"_Dawn":10706,"_je":10707,"olit":10708,"ist\"":10709,"_F.":10710,"_Five":10711,"_Egypt":10712,"pled":10713,"_clip":10714,"_overt":10715,"_blows":10716,"obic":10717,"_riot":10718,"_points.":10719,"_surpass":10720,"_crimes":10721,"_kid.":10722,"_awake":10723,"_consci":10724,"_art,":10725,"_elimin":10726,"annah":10727,"otted":10728,"_behave":10729,"iness.":10730,"_waited":10731,"_passes":10732,"_quality,":10733,"_captain":10734,"_writing.":10735,"_considerable":10736,"_documentaries":10737,"_\"This":10738,"_boxing":10739,"_Conner":10740,"_propert":10741,"_casual":10742,"_winds":10743,"_masterpiece,":10744,"_establish":10745,"_kicked":10746,"_divers":10747,"_label":10748,"_investigation":10749,"_orders":10750,"_Franco":10751,"_Norman":10752,"_consequences":10753,"_emphasis":10754,"_Satan":10755,"_cringe":10756,"_intentions":10757,"_Phillip":10758,"original":10759,"_installment":10760,"_conspiracy":10761,"_thumbs":10762,"_metaphor":10763,"_ingredients":10764,"_SNL":10765,"-P":10766,"-rated":10767,"HE":10768,"R.":10769,"hind":10770,"_bin":10771,"attered":10772,"ora":10773,"_diamond":10774,"oms":10775,"leton":10776,"_it;":10777,"_yeah":10778,"amil":10779,"_Cain":10780,"_Dutch":10781,"unior":10782,"_acted,":10783,"_exter":10784,"akes,":10785,"_voy":10786,"_Penn":10787,"_Read":10788,"astically":10789,"_FR":10790,"_outfit":10791,"_intim":10792,"_OR":10793,"_Kn":10794,"_spare":10795,"_desired":10796,"_humble":10797,"_screen.<br":10798,"_hardcore":10799,"_Shell":10800,"_different,":10801,"_gloss":10802,"_Blond":10803,"_Block":10804,"_times.<br":10805,"_exped":10806,"_song,":10807,"_(they":10808,"_released.":10809,"_documentary,":10810,"_\"Ch":10811,"_treats":10812,"_sweet,":10813,"_/>Like":10814,"_girlfriend,":10815,"_meaningless":10816,"_immort":10817,"_closest":10818,"_suitable":10819,"_walls":10820,"_bullets":10821,"_Antw":10822,"_STAR":10823,"_investigate":10824,"_Emily":10825,"_splatter":10826,"_hideous":10827,"_dimensional":10828,"_yesterday":10829,"_unpredict":10830,"austroph":10831,"_corpse":10832,"_guarantee":10833,"_Ireland":10834,"_vibr":10835,"_one-liners":10836,"_innovative":10837,"_Carpenter":10838,"_Cowboy":10839,"_website":10840,"s\".":10841,"hears":10842,"_french":10843,"itle":10844,"_I,":10845,"_Talk":10846,"_Sex":10847,"_Sister":10848,"_we'll":10849,"_(see":10850,"pered":10851,"ession":10852,"_socc":10853,"_Live":10854,"_LOT":10855,"_Rad":10856,"_Fro":10857,"_rum":10858,"_intric":10859,"_Gam":10860,"ference":10861,"_prol":10862,"_upl":10863,"_spoke":10864,"_Chase":10865,"_Whoop":10866,"_Viv":10867,"_contained":10868,"_pric":10869,"_simplic":10870,"_racial":10871,"_viewers.":10872,"shot":10873,"_persona":10874,"_liking":10875,"_/>Well":10876,"astern":10877,"fined":10878,"_shortly":10879,"_headed":10880,"cover":10881,"_monkey":10882,"_events,":10883,"_studios":10884,"ities,":10885,"_50's":10886,"umentary":10887,"ATE":10888,"_indeed,":10889,"_Plot":10890,"_illogical":10891,"_signs":10892,"_/>Per":10893,"_engross":10894,"arrel":10895,"_Scottish":10896,"_convincingly":10897,"_grandfather":10898,"going":10899,"_hyper":10900,"_affection":10901,"_delivering":10902,"_gem.":10903,"_symbolism":10904,"_beneath":10905,"_corner":10906,"_motivation":10907,"_unbelievable.":10908,"_valuable":10909,"_purchase":10910,"_Throughout":10911,"_Mickey":10912,"_rubber":10913,"_corporate":10914,"_Dalton":10915,"-handed":10916,"_philosophical":10917,"imagin":10918,"/f":10919,"creen":10920,"run":10921,"rank":10922,"_fur":10923,"_banned":10924,"orus":10925,"_dy":10926,"_inane":10927,"_/>'":10928,"ade,":10929,"_this!":10930,"_stark":10931,"ids":10932,"_moving,":10933,"_analy":10934,"robably":10935,"_Ba":10936,"_Bus":10937,"_Bud":10938,"_note,":10939,"ersh":10940,"_alter":10941,"oples":10942,"_Lots":10943,"_Rich":10944,"_from.":10945,"_Nicol":10946,"_unst":10947,"_shed":10948,"_watch.<br":10949,"irected":10950,"_also.":10951,"_'p":10952,"everal":10953,"_downhill":10954,"ocative":10955,"_reads":10956,"_differences":10957,"econd":10958,"_problems.":10959,"_someone's":10960,"_lowest":10961,"_staring":10962,"_distance":10963,"_monolog":10964,"_Zero":10965,"_schlock":10966,"_household":10967,"_generous":10968,"_mentioned,":10969,"_\"It's":10970,"_construction":10971,"_Godz":10972,"_room.":10973,"_/>Now,":10974,"_chance,":10975,"_2001":10976,"_cheap,":10977,"_engaged":10978,"_combat":10979,"_inspiring":10980,"_business.":10981,"_undert":10982,"_costumes,":10983,"_suspects":10984,"_offend":10985,"_Enjoy":10986,"_ONLY":10987,"_'the":10988,"_Skip":10989,"_(from":10990,"_unintentional":10991,"_journalist":10992,"_Margaret":10993,"n,":10994,"ée":10995,"_apt":10996,"_wretched":10997,"_cried":10998,"_pris":10999,"_gest":11000,"_/>8":11001,"_ego":11002,"_beer":11003,"_hench":11004,"_you.<br":11005,"_Cab":11006,"_Cary":11007,"_\"so":11008,"_Hood":11009,"_Duk":11010,"_sung":11011,"_Pear":11012,"_FA":11013,"_rang":11014,"_GOOD":11015,"osing":11016,"_can.":11017,"ortion":11018,"_noise":11019,"odern":11020,"_claustroph":11021,"_poem":11022,"obs":11023,"_entr":11024,"_slick":11025,"_grotes":11026,"_interest,":11027,"_cheating":11028,"_set.":11029,"azak":11030,"_relatives":11031,"ords":11032,"_helpless":11033,"standing":11034,"_episodes.":11035,"_Force":11036,"-fl":11037,"_distingu":11038,"_Close":11039,"_Mario":11040,"_messed":11041,"_7.":11042,"eryl":11043,"_parano":11044,"_/>Here":11045,"_Orson":11046,"_Edie":11047,"_Edgar":11048,"_60s":11049,"_\"Th":11050,"_equip":11051,"_advise":11052,"_engage":11053,"_1970s":11054,"_undoubtedly":11055,"_jumped":11056,"_lame.":11057,"_amounts":11058,"_condem":11059,"_destroying":11060,"_Actually":11061,"_Profess":11062,"_depicts":11063,"_displayed":11064,"_unexpl":11065,"_legal":11066,"_responsibility":11067,"_offended":11068,"_stunts":11069,"_frequent":11070,"_incomprehensible":11071,"_Castle":11072,"_Elli":11073,"_Modesty":11074,"_prostitute":11075,"_isolated":11076,"_analys":11077,"_fulfill":11078,"_Simpson":11079,"_dysfunction":11080,"-aged":11081,"/S":11082,"D.":11083,"IV":11084,"MA":11085,"ae":11086,"ced,":11087,"gal":11088,"lines":11089,"mail":11090,"woman":11091,"re.":11092,"_wet":11093,"_wip":11094,"_facing":11095,"_boun":11096,"_punk":11097,"asing":11098,"_indu":11099,"_inherent":11100,"ilted":11101,"_it:":11102,"_bears":11103,"_Tow":11104,"_Tod":11105,"ieces":11106,"_reck":11107,"_ones,":11108,"_A.":11109,"_Ah":11110,"ceived":11111,"_Sirk":11112,"_Soder":11113,"ke,":11114,"keys":11115,"_movie;":11116,"_Bal":11117,"_button":11118,"_Dill":11119,"_Dirty":11120,"olt":11121,"_Rh":11122,"_Ross":11123,"_ritual":11124,"_Gore":11125,"_no.":11126,"odile":11127,"_clic":11128,"_clock":11129,"forward":11130,"_dish":11131,"_blur":11132,"_'6":11133,"_Ven":11134,"_killings":11135,"white":11136,"_nothing,":11137,"_appalling":11138,"_far.":11139,"_family's":11140,"_fanatic":11141,"_yet.":11142,"_acid":11143,"_confidence":11144,"_visible":11145,"_Scream":11146,"_Spock":11147,"_everyone's":11148,"_4/10":11149,"_alongside":11150,"_/>Maybe":11151,"_\"An":11152,"_weak,":11153,"_equivalent":11154,"_dull.":11155,"_secretly":11156,"_superb.":11157,"OULD":11158,"_fantastic.":11159,"_Disney's":11160,"_/>\"The":11161,"_admit,":11162,"_projects":11163,"_1950's":11164,"-in-law":11165,"_Annie":11166,"_compell":11167,"_compelled":11168,"_machines":11169,"_executive":11170,"_square":11171,"_Belush":11172,"_joined":11173,"_individuals":11174,"_Maggie":11175,"_highlights":11176,"_conversations":11177,"_earned":11178,"_Burns":11179,"_nostalgic":11180,"writers":11181,"_incorpor":11182,"_Dragon":11183,"_agrees":11184,"_Brosnan":11185,"_Gabriel":11186,"_wrapped":11187,"-2":11188,"-J":11189,"SPOILERS":11190,"_[":11191,"den":11192,"u's":11193,"uity":11194,"_finger":11195,"_mish":11196,"ites.":11197,"ati":11198,"_ce":11199,"_cul":11200,"_cake":11201,"ouch":11202,"_/>2":11203,"_/>7":11204,"_/>***":11205,"_Top":11206,"sect":11207,"_staged":11208,"allo":11209,"_selection":11210,"_Cy":11211,"_Cut":11212,"_\"what":11213,"_Wolf":11214,"_doomed":11215,"_RA":11216,"inds":11217,"_show.<br":11218,"_time!":11219,"icking":11220,"plex":11221,"_realizing":11222,"eps":11223,"_don't.":11224,"_'n":11225,"_'em":11226,"_Vis":11227,"_tends":11228,"bergh":11229,"!!!<br":11230,"_Brady":11231,"_Aside":11232,"_come.":11233,"_35":11234,"aneous":11235,"rospect":11236,"_less.":11237,"-minded":11238,"_creation":11239,"_Argent":11240,"_lighting,":11241,"_next.":11242,"_guessed":11243,"-school":11244,"_promised":11245,"_result,":11246,"_Grade:":11247,"_Grinch":11248,"ON'T":11249,"_murder.":11250,"ORE":11251,"_potentially":11252,"_detailed":11253,"_Trans":11254,"_(And":11255,"more,":11256,"_recorded":11257,"_brutally":11258,"_Craw":11259,"_substit":11260,"_matches":11261,"_energ":11262,"_*****":11263,"_Burg":11264,"_Seeing":11265,"_proceeds":11266,"_Syd":11267,"_everything,":11268,"_vaguely":11269,"_captivating":11270,"_showcase":11271,"_dignity":11272,"_nowadays":11273,"_parallel":11274,"_curiosity":11275,"_synopsis":11276,"_poverty":11277,"_Abrah":11278,"_Lundgren":11279,"And":11280,"be,":11281,"tw":11282,"_tank":11283,"_ape":11284,"oner":11285,"_tooth":11286,"_lun":11287,"_/>3":11288,"star":11289,"ilight":11290,"ay.":11291,"_Southern":11292,"amount":11293,"_Bald":11294,"_Worth":11295,"_do?":11296,"_plausible":11297,"_PR":11298,"_Pay":11299,"_Lil":11300,"_Rat":11301,"_Rings":11302,"_Rex":11303,"one's":11304,"inding":11305,"_unaware":11306,"_Ew":11307,"_enlight":11308,"_Kl":11309,"_arist":11310,"_pretending":11311,"obi":11312,"_'E":11313,"_Vall":11314,"_Ur":11315,"_crush":11316,"_factory":11317,"_obst":11318,"_Joh":11319,"_big,":11320,"_accent.":11321,"_Claus":11322,"_repuls":11323,"_generic":11324,"_development.":11325,"_9/1":11326,"_Price":11327,"_treas":11328,"_(Ste":11329,"_dancer":11330,"_memorable.":11331,"_claimed":11332,"_traveling":11333,"_well-known":11334,"_addition,":11335,"_Walsh":11336,"_exceptionally":11337,"_Dickens":11338,"_reaching":11339,"_warmth":11340,"_widely":11341,"_Special":11342,"_blockbuster":11343,"_reunion":11344,"_floating":11345,"_Commun":11346,"_atroci":11347,"_Diane":11348,"_presumably":11349,"_society,":11350,"_Characters":11351,"_global":11352,"_/>Finally,":11353,"_coffee":11354,"-head":11355,"aign":11356,"rot":11357,"_sen":11358,"_mile":11359,"orp":11360,"_dating":11361,"_lit":11362,"ution.":11363,"_bell":11364,"sex":11365,"_stream":11366,"_Sub":11367,"_Miles":11368,"illiam":11369,"_(by":11370,"_Crow":11371,"_Holly":11372,"people":11373,"_Dig":11374,"_vig":11375,"ophy":11376,"_Thomp":11377,"_Nort":11378,"_up.<br":11379,"_seeks":11380,"_theme,":11381,"_works,":11382,"_flies":11383,"_slaughter":11384,"_sloppy":11385,"_grate":11386,"_reson":11387,"_scenes.<br":11388,"_comparing":11389,"_awfully":11390,"_Short":11391,"son)":11392,"rosaw":11393,"_anyone,":11394,"_comments,":11395,"_styles":11396,"_top.":11397,"-boy":11398,"_formul":11399,"_wonderful,":11400,"ology,":11401,"_Somehow":11402,"_capturing":11403,"_morbid":11404,"roducer":11405,"_irres":11406,"_suspic":11407,"_similarities":11408,"_\"How":11409,"_errors":11410,"_odds":11411,"_secretary":11412,"_combine":11413,"_True":11414,"_truth,":11415,"_Lee's":11416,"_undeni":11417,"_situations,":11418,"_intend":11419,"_potential.":11420,"_Films":11421,"_Brazil":11422,"_fascinated":11423,"OME":11424,"_O'H":11425,"_Sandra":11426,"_Strange":11427,"_breasts":11428,"_duo":11429,"_Basically":11430,"_buddies":11431,"_Linda":11432,"_Judy":11433,"_choreographed":11434,"_miserable":11435,"_Cassid":11436,"_Century":11437,"_alternate":11438,"_purchased":11439,"_puppet":11440,"_crisis":11441,"_swimming":11442,"_Olivier":11443,"_Elvira":11444,"_wisdom":11445,"_Alfred":11446,"_must-see":11447,"_unsettling":11448,"_bargain":11449,"_Gundam":11450,"-br":11451,"/act":11452,"0.":11453,"Ne":11454,"after":11455,"fast":11456,"ier.":11457,"oven":11458,"put":11459,"_wishing":11460,"isk":11461,"_map":11462,"esy":11463,"_Times":11464,"_heat":11465,"_stellar":11466,"_Squ":11467,"_you!":11468,"_notch":11469,"_CA":11470,"_Cou":11471,"_\"th":11472,"_areas":11473,"_Dud":11474,"ages,":11475,"_Pu":11476,"_ramb":11477,"_conqu":11478,"umsy":11479,"_Ep":11480,"igan":11481,"_mankind":11482,"_Kol":11483,"tends":11484,"_directs":11485,"_user":11486,"_Video":11487,"_little.":11488,"_recover":11489,"_performs":11490,"!!<br":11491,"_Unt":11492,"_such,":11493,"_cheek":11494,"_chess":11495,"ocol":11496,"issa":11497,"_effect.":11498,"_awa":11499,"_least.":11500,"_classical":11501,"_car.":11502,"_sure.":11503,"_/>Watch":11504,"_restored":11505,"_surprise.":11506,"-che":11507,"_polished":11508,"_review.":11509,"_visits":11510,"_word,":11511,"_romp":11512,"_form.":11513,"_exception.":11514,"_example.":11515,"hetic,":11516,"ler's":11517,"_towns":11518,"_side.":11519,"-house":11520,"_groups":11521,"_construct":11522,"mpire":11523,"_crap,":11524,"_Gerard":11525,"_antics":11526,"_photos":11527,"_Meg":11528,"_error":11529,"_tale.":11530,"_loser":11531,"_introduce":11532,"_(some":11533,"ESS":11534,"_screenplay,":11535,"_curse":11536,"borough":11537,"_literature":11538,"_Quinn":11539,"_disgrace":11540,"_legit":11541,"_crucial":11542,"_(also":11543,"_authority":11544,"_Jonathan":11545,"_Hills":11546,"_calm":11547,"_advertis":11548,"_Ellen":11549,"_Kurosaw":11550,"_storytell":11551,"_immensely":11552,"ampionship":11553,"_Scarlet":11554,"_Obviously":11555,"_According":11556,"_Manhattan":11557,"stinov":11558,"_Miyazak":11559,"-act":11560,"ees":11561,"oing":11562,"oad":11563,"z.":11564,"rehe":11565,"_bone":11566,"ito":11567,"ata":11568,"_candy":11569,"_pale":11570,"_pushing":11571,"ar's":11572,"_lame,":11573,"_gear":11574,"_white,":11575,"cha":11576,"ldom":11577,"_habit":11578,"rient":11579,"_Ward":11580,"emes":11581,"_exquis":11582,"antom":11583,"_deaf":11584,"_L.":11585,"_Lang":11586,"_Face":11587,"_June":11588,"_Given":11589,"_class.":11590,"_underlying":11591,"_new,":11592,"_hand.":11593,"_imagined":11594,"_useful":11595,"_behold":11596,"_song.":11597,"ugust":11598,"_9/10":11599,"-paced":11600,"_pops":11601,"_centers":11602,"_demons":11603,"_snake":11604,"_cinematography.":11605,"_cool.":11606,"_Tommy":11607,"_doubt,":11608,"_herself.":11609,"_rocks":11610,"_climactic":11611,"_tale,":11612,"_(Al":11613,"_die,":11614,"_damage":11615,"_flat.":11616,"_receives":11617,"_power.":11618,"_finish.":11619,"haust":11620,"_internet":11621,"_setting,":11622,"_nonsens":11623,"_dimension":11624,"_pursuit":11625,"_choreography":11626,"_icon":11627,"_gender":11628,"_rotten":11629,"_Dais":11630,"_assigned":11631,"_transformation":11632,"_Loren":11633,"_caricature":11634,"_Reynolds":11635,"ploitation":11636,"\"!":11637,"G.":11638,"_–":11639,"fl":11640,"haps,":11641,"lack":11642,"lav":11643,"m.":11644,"sa":11645,"zen":11646,"_warr":11647,"_fren":11648,"_reb":11649,"_film).":11650,"ooges":11651,"_Abb":11652,"_Sen":11653,"_Save":11654,"_Sabr":11655,"_Based":11656,"_Mount":11657,"_\"art":11658,"_Hat":11659,"_Holl":11660,"_Human":11661,"_Dow":11662,"_Doo":11663,"_Dec":11664,"_Dolph":11665,"ifully":11666,"_scores":11667,"_dod":11668,"acter":11669,"_abusive":11670,"agan":11671,"ested":11672,"_dear":11673,"_Fell":11674,"_Jord":11675,"_Jenny":11676,"_orphan":11677,"_Nin":11678,"_prob":11679,"_unimagin":11680,"_Eri":11681,"_Eug":11682,"_upst":11683,"_would-be":11684,"itect":11685,"_Kyle":11686,"_clumsy":11687,"_much.<br":11688,"_Von":11689,"_removed":11690,"_St.":11691,"_attor":11692,"_points,":11693,"_simult":11694,"_start,":11695,"_comprom":11696,"_relations":11697,"_scripted":11698,"_since.":11699,"_commented":11700,"_menace":11701,"_instead,":11702,"_strong,":11703,"_success.":11704,"_McK":11705,"roduced":11706,"_movements":11707,"_madness":11708,"_campaign":11709,"_hilariously":11710,"_mentions":11711,"_Graham":11712,"_disturbed":11713,"unny,":11714,"_intrigue":11715,"_Final":11716,"_value.":11717,"_cameras":11718,"_lengthy":11719,"_represented":11720,"_WHY":11721,"_Imagine":11722,"_Carrie":11723,"_Darren":11724,"_Diana":11725,"_Beautiful":11726,"_Recommend":11727,"_chooses":11728,"_piano":11729,"_Temple":11730,"_unhappy":11731,"-eyed":11732,"_Soderbergh":11733,",'":11734,"O.":11735,"ced.":11736,"craft":11737,"gen":11738,"iers":11739,"ne,":11740,"_tall":11741,"_baff":11742,"_dreck":11743,"aser":11744,"oming":11745,"le's":11746,"leck":11747,"_render":11748,"enth":11749,"_Several":11750,"_Math":11751,"_shameless":11752,"_Wed":11753,"_sust":11754,"us.":11755,"_Pose":11756,"_Len":11757,"_Lor":11758,"_Less":11759,"_rush":11760,"_roof":11761,"_Jed":11762,"uments":11763,"indul":11764,"_Natur":11765,"_unravel":11766,"_Eli":11767,"_Earl":11768,"elli":11769,"_endure":11770,"_spring":11771,"_seen.<br":11772,"_beings":11773,"_Ustinov":11774,"_Therefore":11775,"_scene.<br":11776,"_princess":11777,"_decor":11778,"_set-up":11779,"venture":11780,"why":11781,"_thoughtful":11782,"_Sheriff":11783,"_Bron":11784,"_Shin":11785,"_classes":11786,"_versus":11787,"_glor":11788,"_understand.":11789,"_exclus":11790,"_expand":11791,"_memb":11792,"ampoon":11793,"-dri":11794,"_written.":11795,"_demean":11796,"_mystery,":11797,"_patience":11798,"_future,":11799,"ARN":11800,"_gore.":11801,"_premise,":11802,"_signed":11803,"_Elm":11804,"_advanced":11805,"_\"La":11806,"sworth":11807,"_etc.,":11808,"_resemble":11809,".)<br":11810,"_trashy":11811,"_brutality":11812,"_defense":11813,"_succeeded":11814,"_body.":11815,"_pathetic.":11816,"_industrial":11817,"_foolish":11818,"_Tarant":11819,"_intentionally":11820,"_stretched":11821,"_obliv":11822,"_Antonion":11823,"_excessive":11824,"_ludicr":11825,"_Barrymore":11826,"_manner.":11827,"_Needless":11828,"_Australia":11829,"_nonetheless":11830,"_jewel":11831,"_conservative":11832,"_alleged":11833,"_illegal":11834,"_McLagl":11835,"_Novak":11836,"_September":11837,"-le":11838,"box":11839,"mons":11840,"ni":11841,"ines,":11842,"_therap":11843,"_om":11844,"_oce":11845,"_fro":11846,"_furn":11847,"_max":11848,"_maker":11849,"_city.":11850,"_cattle":11851,"orrow":11852,"angh":11853,"_pad":11854,"_ling":11855,"_I.":11856,"_hears":11857,"_why,":11858,"child":11859,"_was.<br":11860,"_Theater":11861,"_M.":11862,"_Ca":11863,"_Cart":11864,"_\"act":11865,"_WAY":11866,"_Dee":11867,"_sched":11868,"_planned":11869,"_Post":11870,"_Psych":11871,"_Prest":11872,"_Lex":11873,"_more.<br":11874,"_him?":11875,"_showdown":11876,"cip":11877,"_been.":11878,"early":11879,"_agreed":11880,"awful":11881,"ians,":11882,"_flag":11883,"ressive":11884,"_set,":11885,"_isn't.":11886,"_exploration":11887,"_sound,":11888,"_3000":11889,"_happens,":11890,"_extrem":11891,"annon":11892,"_perfection":11893,"_perfectly.":11894,"_animation.":11895,"_hours,":11896,"_grabs":11897,"_sad.":11898,"_cute,":11899,"_Charlot":11900,"_situation,":11901,"_fabr":11902,"_season,":11903,"_subjects":11904,"_straightforward":11905,"_appreciation":11906,"_creepy,":11907,"_atmosphere.":11908,"_survived":11909,"_cheesy,":11910,"_Joey":11911,"_lawy":11912,"_(An":11913,"_tasteless":11914,"_cleverly":11915,"_Seriously,":11916,"_Stiller":11917,"_Eyes":11918,"_Winters":11919,"_explosion":11920,"_Cassave":11921,"_population":11922,"_Drake":11923,"--------":11924,"_alcoholic":11925,"_tonight":11926,"_wandering":11927,"_horrifying":11928,"_accompanied":11929,"_ethnic":11930,"_Shirley":11931,"_disliked":11932,"_mundane":11933,"_Crawford":11934,"_Charlotte":11935,"(..":11936,"-)":11937,"-es":11938,"99":11939,"eur":11940,"ied.":11941,"os.":11942,"_same,":11943,"_southern":11944,"_wing":11945,"_wives":11946,"_fighter":11947,"_mall":11948,"_melt":11949,"ench":11950,"llen":11951,"_pill":11952,"_inability":11953,"_lav":11954,"_/>10":11955,"ot,":11956,"_it'll":11957,"_TR":11958,"lymp":11959,"eta":11960,"_Action":11961,"_Code":11962,"_shame,":11963,"_Wel":11964,"_cho":11965,"_exhaust":11966,"_wholly":11967,"_Put":11968,"_or,":11969,"_measure":11970,"_E.":11971,"_Ot":11972,"_get.":11973,"able.<br":11974,"_enl":11975,"_cloud":11976,"ves.":11977,"_armed":11978,"neath":11979,"assy":11980,"_amid":11981,"_guide":11982,"_'O":11983,"_'g":11984,"_slice":11985,"_incest":11986,"_/>Act":11987,"_pride":11988,"rilliant":11989,"_laughably":11990,"aneously":11991,"tenborough":11992,"ecil":11993,"_dramat":11994,"_skull":11995,"_definition":11996,"ormal":11997,"_housew":11998,"_either.<br":11999,"_Wells":12000,"_copies":12001,"_sadness":12002,"_hero.":12003,"izek":12004,"_brains":12005,"_Danes":12006,"_hit-man":12007,"_photography,":12008,"_possible,":12009,"_Perfect":12010,"_subjected":12011,"_intelligent,":12012,"_\"Le":12013,"_die.":12014,"_flat,":12015,"mares":12016,"_tracks":12017,"_\"movie":12018,"_wilder":12019,"_Monster":12020,"_depicting":12021,"_souls":12022,"_Walken":12023,"_Duv":12024,"_possessed":12025,"_13th":12026,"_architect":12027,"_Interest":12028,"_mini-ser":12029,"_rendition":12030,"_enthusiasm":12031,"_Years":12032,"_Nicholson":12033,"_Turner":12034,"_ignorant":12035,"_library":12036,"_domestic":12037,"_mechanical":12038,"_non-exist":12039,"_Spirit":12040,"_nurse":12041,"_decisions":12042,"_made-for-TV":12043,"_cripp":12044,"_/>Unfortunately,":12045,"_contradict":12046,"!,":12047,"-v":12048,"/w":12049,"T.":12050,"_~":12051,"_....":12052,"a'":12053,"eer":12054,"eor":12055,"eorge":12056,"felt":12057,"mber":12058,"rome":12059,"void":12060,"’s":12061,"_woe":12062,"_thugs":12063,"_dances":12064,"_Tal":12065,"ve,":12066,"_online":12067,"_Mind":12068,"_Middle":12069,"_Corn":12070,"_City,":12071,"_CAN":12072,"_\"he":12073,"_Wow,":12074,"_WIT":12075,"_Women":12076,"_one!":12077,"_Pig":12078,"_degr":12079,"_Font":12080,"_ram":12081,"_Gre":12082,"_Gret":12083,"_can,":12084,"_lect":12085,"_Origin":12086,"_Ka":12087,"_clar":12088,"aping":12089,"_Storm":12090,"_recre":12091,"_recyc":12092,"raph":12093,"_grief":12094,"_19th":12095,"_obtain":12096,"--I":12097,"_conscious":12098,"_/>Second":12099,"_message.":12100,"_message,":12101,"_Man\"":12102,"_misgu":12103,"_(what":12104,"_McA":12105,"_Harvey":12106,"_blood.":12107,"-hard":12108,"ches,":12109,"over,":12110,"END":12111,"_Amanda":12112,"_sucks.":12113,"_props":12114,"_surviving":12115,"_background.":12116,"_credits,":12117,"_earlier,":12118,"_$2":12119,"_MacArthur":12120,"_Fredd":12121,"_charming,":12122,"_week.":12123,"_matched":12124,"_silly.":12125,"_Nazis":12126,"_teaching":12127,"_SEE":12128,"_NYC":12129,"_arrogant":12130,"_enemies":12131,"_borrowed":12132,"_inappropriate":12133,"_fundamental":12134,"_soccer":12135,"-te":12136,"eem":12137,"s;":12138,"uy":12139,"_ties":12140,"iner":12141,"_fought":12142,"_bord":12143,"_bread":12144,"_cure":12145,"_tom":12146,"_dile":12147,"_darn":12148,"_gym":12149,"_gifted":12150,"_belt":12151,"_Tak":12152,"ido":12153,"amin":12154,"_seam":12155,"_notes":12156,"_not.<br":12157,"_\"sh":12158,"_Hans":12159,"_shine":12160,"_doors":12161,"_comics":12162,"_abomin":12163,"_vom":12164,"_Pierce":12165,"_intimate":12166,"_Got":12167,"_ordered":12168,"_unlik":12169,"_Early":12170,"_Either":12171,"_goodness":12172,"_goes,":12173,"_1,":12174,"_closed":12175,"arer":12176,"_endings":12177,"ves,":12178,"_funeral":12179,"_Chief":12180,"_191":12181,"_rail":12182,"_viewer,":12183,"_viewers,":12184,"_trained":12185,"_worlds":12186,"_kind.":12187,"_America's":12188,"develop":12189,"_senseless":12190,"-cut":12191,"_problem,":12192,"_Forget":12193,"_wife's":12194,"_blackmail":12195,"visible":12196,"INE":12197,"_slow-m":12198,"_supported":12199,"_self-d":12200,"_etc.<br":12201,"_myself.":12202,"_resulting":12203,"_Keith":12204,"_antagon":12205,"_Indians":12206,"-star":12207,"_compliment":12208,"_team.":12209,"_countryside":12210,"_Amit":12211,"_Conf":12212,"_(Michael":12213,"_realistic,":12214,"_King's":12215,"_profession":12216,"_kicking":12217,"_hair,":12218,"_immediate":12219,"_imagination.":12220,"_editing.":12221,"_assumed":12222,"_randomly":12223,"_joins":12224,"_Raymond":12225,"_Strong":12226,"claim":12227,"_loosely":12228,"_primitive":12229,"_Magn":12230,"_consistent":12231,"_Foxx":12232,"_Ern":12233,"_\"Star":12234,"_troubles":12235,"_/>1.":12236,"_Kennedy":12237,"_counterpart":12238,"_Khan":12239,"_revolutionary":12240,"_Wonderful":12241,"_(yes,":12242,"_stumbled":12243,"_deceased":12244,"-prov":12245,"_rhyth":12246,"_Farrell":12247,"onymous":12248,"_shadows":12249,"_specifically":12250,"_Pearl":12251,"(J":12252,"/m":12253,"30":12254,"Queen":12255,"_":12256,"lers":12257,"ling.":12258,"matic":12259,"_wakes":12260,"_bite":12261,"atured":12262,"_pour":12263,"_inject":12264,"_lonel":12265,"_nam":12266,"_bee":12267,"_be.<br":12268,"vell":12269,"_ren":12270,"immer":12271,"_whis":12272,"_ster":12273,"id.":12274,"_SP":12275,"_Sound":12276,"_Siss":12277,"_Bes":12278,"_MTV":12279,"_Case":12280,"_Comb":12281,"_shared":12282,"ersed":12283,"ership":12284,"_at,":12285,"_sums":12286,"_dose":12287,"_soci":12288,"_plod":12289,"ooding":12290,"_vocal":12291,"_neur":12292,"_Jet":12293,"_Odd":12294,"_were.":12295,"ellig":12296,"_KN":12297,"_adorable":12298,"perhaps":12299,"_plot.<br":12300,"angle":12301,"_grant":12302,"_raises":12303,"_compar":12304,"_tripe":12305,"_thought.":12306,"_esp":12307,"_maint":12308,"_lead,":12309,"_basketball":12310,"_books,":12311,"isms":12312,"_review,":12313,"attract":12314,"_Ze":12315,"_along,":12316,"_hopeless":12317,"ainsaw":12318,"_close.":12319,"_finally,":12320,"_writes":12321,"_\"American":12322,"_/>Do":12323,"_God's":12324,"_husband's":12325,"_narrow":12326,"_middle-aged":12327,"_hell.":12328,"_theater,":12329,"_standards,":12330,"_villain.":12331,"_dancers":12332,"_Donna":12333,"_/>Re":12334,"_joke,":12335,"_porno":12336,"_arrived":12337,"_opportunities":12338,"_Finally":12339,"tta":12340,"_astron":12341,"_Francis":12342,"_Damme":12343,"_motivations":12344,"_enthr":12345,"_seduct":12346,"-rate":12347,"_hackney":12348,"_Dracula":12349,"_#1":12350,"_sequences.":12351,"_guarante":12352,"_Virginia":12353,"_Lemmon":12354,"_territory":12355,"_exchange":12356,"_hesit":12357,"_Certainly":12358,"_behaviour":12359,"_Shelley":12360,"_priceless":12361,"IES":12362,"K.":12363,"Qu":12364,"She":12365,"_x":12366,"a.<br":12367,"mart":12368,"y.<br":12369,"_aest":12370,"_aka":12371,"_south":12372,"rection":12373,"_mast":12374,"_city,":12375,"ons,":12376,"_ponder":12377,"_pulp":12378,"arched":12379,"_in.<br":12380,"icia":12381,"ali":12382,"_TW":12383,"_Ts":12384,"_rely":12385,"_stale":12386,"_yelling":12387,"_Amy":12388,"rob":12389,"_Bert":12390,"_Bible":12391,"_Molly":12392,"_Morm":12393,"rav":12394,"illion":12395,"_(just":12396,"_\"un":12397,"_Wy":12398,"_WATCH":12399,"_ath":12400,"ustin":12401,"ain.":12402,"_P.":12403,"_Lamb":12404,"_Rambo":12405,"_Fra":12406,"_orchest":12407,"_Third":12408,"_Niro":12409,"_Ethan":12410,"_1)":12411,"_---":12412,"ore,":12413,"_scenery,":12414,"_other's":12415,"ine's":12416,"acies":12417,"acity":12418,"_pock":12419,"_directed,":12420,"_characteriz":12421,"_blowing":12422,"_flair":12423,"_Inter":12424,"_teaches":12425,"lix":12426,"ften":12427,"_subl":12428,"ashi":12429,"_bug":12430,"_hour,":12431,"ner's":12432,"_heartfelt":12433,"_retired":12434,"-length":12435,"_Seven":12436,"_closet":12437,"_culture.":12438,"_released,":12439,"_\"If":12440,"_dreams.":12441,"enez":12442,"_non-st":12443,"ement.":12444,"_please,":12445,"_angst":12446,"_English,":12447,"!\"<br":12448,"_period,":12449,"_secrets":12450,"_avoided":12451,"ervice":12452,"_popularity":12453,"_(Ch":12454,"_officers":12455,"_language,":12456,"_recording":12457,"_Series":12458,"_Project":12459,"_encourage":12460,"_Smith,":12461,"_Hammer":12462,"_Bela":12463,"_witnesses":12464,"_unnecess":12465,"_Basically,":12466,"_frustration":12467,"_McCoy":12468,"_manipulative":12469,"_philosophy":12470,"_bucks":12471,"_frankly,":12472,"_semi-":12473,"_arguably":12474,"_Paxt":12475,"_adequate":12476,"_century.":12477,"_incompetent":12478,"_Gwyn":12479,"_Chamberl":12480,"_/>Perhaps":12481,"_aristocr":12482,"\"...":12483,"-gu":12484,"?'":12485,"Int":12486,"IRE":12487,"MAN":12488,"Sh":12489,"_+":12490,"pr":12491,"pin":12492,"rument":12493,"rows":12494,"ty,":12495,"he's":12496,"_fist":12497,"_cats":12498,"anning":12499,"chak":12500,"_Aunt":12501,"_August":12502,"_Side":12503,"_Theat":12504,"_butcher":12505,"_Mars":12506,"_Minn":12507,"_we'd":12508,"illian":12509,"_(Y":12510,"_Cecil":12511,"_shred":12512,"_chronic":12513,"ants,":12514,"_Free":12515,"_Gard":12516,"_Gib":12517,"osc":12518,"acks":12519,"igo":12520,"_what,":12521,"_watchable.":12522,"man\"":12523,"ourney":12524,"apable":12525,"_people.<br":12526,"_twelve":12527,"_disast":12528,"_should've":12529,"_setup":12530,"_keen":12531,"_smoking":12532,"_insip":12533,"_invites":12534,"_series.<br":12535,"_shots.":12536,"_dialogues":12537,"_Classic":12538,"_Attenborough":12539,"_Leigh":12540,"_question,":12541,"_refused":12542,"-par":12543,"-part":12544,"_valid":12545,"_winter":12546,"_forgett":12547,"ator.":12548,"_team,":12549,"_spirits":12550,"_questionable":12551,"_fantastic,":12552,"_etc.)":12553,"_expressed":12554,"_literary":12555,"_Schne":12556,"_project.":12557,"onica":12558,"_Patric":12559,"_idiots":12560,"_conclusion.":12561,"_arrival":12562,"_practice":12563,"_Murray":12564,"_conflicts":12565,"_discovering":12566,"_despic":12567,"_educational":12568,"_alternative":12569,"_Carell":12570,"_referred":12571,"_overdone":12572,"_nostalgia":12573,"_automatically":12574,"_coincidence":12575,"_WORST":12576,"_redemption":12577,"_Scrooge":12578,"_precisely":12579,"_helicopter":12580,"_Absolutely":12581,"_bottle":12582,"_Abraham":12583,"&A":12584,"la":12585,"ler.":12586,"lins":12587,"occ":12588,"uv":12589,"vi":12590,"_faint":12591,"iti":12592,"_code":12593,"orry":12594,"_tomat":12595,"_dur":12596,"_lush":12597,"oma":12598,"_gh":12599,"_rehears":12600,"_that!":12601,"_AF":12602,"_AR":12603,"_SF":12604,"_BS":12605,"_Bos":12606,"_Bear":12607,"_Bost":12608,"razil":12609,"_Wag":12610,"_Wang":12611,"_atroc":12612,"_DON'T":12613,"_Lif":12614,"_Lena":12615,"_Rud":12616,"and,":12617,"_worn":12618,"_Jod":12619,"_G.":12620,"_meand":12621,"_Nobody":12622,"_try.":12623,"_ups":12624,"_going.":12625,"_Kent":12626,"cia":12627,"_well-written":12628,"epburn":12629,"ance\"":12630,"_year's":12631,"_remained":12632,"_slut":12633,"_Und":12634,"_contempt":12635,"_attribut":12636,"_22":12637,"_viewpoint":12638,"_expect.":12639,"gger":12640,"_sounding":12641,"_instrument":12642,"_careful":12643,"_/>Sh":12644,"oked":12645,"_confident":12646,"_depressed":12647,"_hopelessly":12648,"_refuge":12649,"_thrills":12650,"-something":12651,"_costs":12652,"_Justin":12653,"_husband.":12654,"_Everybody":12655,"_Grim":12656,"_\"We":12657,"_Que":12658,"_yourself,":12659,"_change.":12660,"_respected":12661,"_protest":12662,"_existed":12663,"_Germans":12664,"_1980s":12665,"_standards.":12666,"OUR":12667,"lusion":12668,"_survival":12669,"_silence":12670,"_laws":12671,"_sensational":12672,"_Simmons":12673,"_catchy":12674,"_catching":12675,"_1930s":12676,"_prisoners":12677,"_Louise":12678,"_Angela":12679,"_substant":12680,"_film-makers":12681,"club":12682,"_hammer":12683,"_Canada":12684,"_Laurence":12685,"_confrontation":12686,"_Cruise":12687,"_Nicholas":12688,"_duty":12689,"_album":12690,"_aspiring":12691,"_Technicol":12692,"_Clarke":12693,"_grotesque":12694,"_Until":12695,"anghai":12696,"_Amitabh":12697,"IST":12698,"do":12699,"dys":12700,"han":12701,"ied,":12702,"mary":12703,"ines.":12704,"_west":12705,"_mac":12706,"onst":12707,"_hoke":12708,"arse":12709,"brow":12710,"_garden":12711,"_ears":12712,"stead":12713,"_it).":12714,"_Six":12715,"_BIG":12716,"herd":12717,"_Mu":12718,"_Meryl":12719,"_(on":12720,"_(all":12721,"_\"j":12722,"_Hag":12723,"_Hmm":12724,"_shares":12725,"_Div":12726,"emic":12727,"_alleg":12728,"_depe":12729,"istr":12730,"_Light":12731,"_Liz":12732,"_Rang":12733,"astard":12734,"_Fast":12735,"_Follow":12736,"_rates":12737,"_Gall":12738,"_Game":12739,"auc":12740,"_Nas":12741,"orts":12742,"_good!":12743,"_had,":12744,"ello":12745,"_Kans":12746,"_ends.":12747,"_character.<br":12748,"_guitar":12749,"ized.":12750,"rup":12751,"_prince":12752,"_surre":12753,"_rave":12754,"_rage":12755,"_coun":12756,"_coup":12757,"_invited":12758,"_awaken":12759,"_epit":12760,"_coast":12761,"_happening.":12762,"_sincere":12763,"screen":12764,"_glory":12765,"_gloom":12766,"_minutes.<br":12767,"_follow.":12768,"_DeN":12769,"_half,":12770,"_songs.":12771,"_defined":12772,"_Willis":12773,"_guess.":12774,"_No.":12775,"_masterful":12776,"_promises":12777,"_decent,":12778,"_effort,":12779,"_/>Ne":12780,"_Peters":12781,"_York.":12782,"_Timon":12783,"_cartoon.":12784,"_convincing.":12785,"_Woods":12786,"_recognition":12787,"_tracking":12788,"_embarrassment":12789,"_receiving":12790,"_(Robert":12791,"_system.":12792,"_body,":12793,"_surfing":12794,"_fooled":12795,"_quietly":12796,"_inventive":12797,"anza":12798,"_advertising":12799,"_Better":12800,"_Betty":12801,"_pitiful":12802,"_Later,":12803,"_Apparently,":12804,"_Incred":12805,"_Personally,":12806,"_Bridget":12807,"_lyrics":12808,"_Bakshi":12809,"_Pamela":12810,"_History":12811,"_dysfunctional":12812,"-19":12813,"bast":12814,"i\"":12815,"oqu":12816,"_sixt":12817,"_wander":12818,"_breed":12819,"_cher":12820,"enged":12821,"_dimin":12822,"icism":12823,"leading":12824,"ctic":12825,"_Tot":12826,"_Tok":12827,"_Tier":12828,"_SA":12829,"_Syl":12830,"_Snow":12831,"_Sweet":12832,"_Sudden":12833,"_libert":12834,"_Major":12835,"_Cong":12836,"_Cros":12837,"_\"be":12838,"_Hust":12839,"_Homer":12840,"_Woo":12841,"_Walt":12842,"_suic":12843,"ies'":12844,"_abund":12845,"_abused":12846,"_alive.":12847,"olin":12848,"estyle":12849,"_rude":12850,"_Gere":12851,"_Gyp":12852,"_Nathan":12853,"_Othe":12854,"_fee":12855,"ite.":12856,"_quit":12857,"_Chand":12858,"_Chave":12859,"urned":12860,"_Stuart":12861,"_2:":12862,"_Alone":12863,"_couples":12864,"_girls.":12865,"_kidding":12866,"_expected.":12867,"_expectations.":12868,"_handling":12869,"_absent":12870,"_boom":12871,"_visiting":12872,"_visited":12873,"_Christy":12874,"_events.":12875,"_Marion":12876,"idescreen":12877,"_light,":12878,"_swallow":12879,"_brother.":12880,"_parad":12881,"_moronic":12882,"_promote":12883,"_voice.":12884,"_murdering":12885,"_attention,":12886,"_ruins":12887,"_\"Re":12888,"_regarded":12889,"_wildly":12890,"_roller":12891,"_rolled":12892,"_awesome.":12893,"_revenge.":12894,"_power,":12895,"_threatens":12896,"_genius.":12897,".I.":12898,"_thankfully":12899,"_summar":12900,"_launch":12901,"_caliber":12902,"-13":12903,"_marketing":12904,"-to-video":12905,"_reflects":12906,"_severely":12907,"_incorrect":12908,"_elegant":12909,"_conveys":12910,"_Robbins":12911,"_wacky":12912,"_riveting":12913,"_Whoopi":12914,"##":12915,"(the":12916,"-al":12917,"-ind":12918,">>":12919,"B.":12920,"St":12921,"VEN":12922,"bow":12923,"don":12924,"life":12925,"mi":12926,"mith":12927,"p:":12928,"rimin":12929,"zed":12930,"_ta":12931,"_sque":12932,"erman":12933,"_fade":12934,"_mafia":12935,"_bul":12936,"_bumbling":12937,"_cream":12938,"ouri":12939,"_penn":12940,"brid":12941,"iless":12942,"_rew":12943,"ayed":12944,"_stim":12945,"_Say":12946,"rier":12947,"_Bug":12948,"racy":12949,"_(st":12950,"_(very":12951,"_\"ex":12952,"_\"you":12953,"_HE":12954,"_HK":12955,"_Half":12956,"_WT":12957,"_Dy":12958,"_DEAD":12959,"_doom":12960,"_vs":12961,"_ven":12962,"_Pumb":12963,"_Rukh":12964,"_Foot":12965,"_Gle":12966,"_Empire":12967,"oddy":12968,"aby":12969,"_other.<br":12970,"_quant":12971,"_overp":12972,"ne's":12973,"ish.":12974,"_worker":12975,"_spaces":12976,"_'9":12977,"_year-old":12978,"_nevertheless":12979,"_little,":12980,"_brown":12981,"ruck":12982,"_here)":12983,"_riv":12984,"_grass":12985,"_traff":12986,"_Joel":12987,"lied":12988,"_tribe":12989,"_thought-prov":12990,"_guy's":12991,"_Brons":12992,"ah,":12993,"_confir":12994,"_audience.<br":12995,"attering":12996,"_Sox":12997,"_Scors":12998,"_margin":12999,"_Cliff":13000,"_top,":13001,"_examination":13002,"_forms":13003,"_zoom":13004,"_Left":13005,"_drift":13006,"oiled":13007,"_list.":13008,"_daughter's":13009,"ernand":13010,"artha":13011,"_constructed":13012,"_/>Having":13013,"_opinions":13014,"_2005":13015,"_Paulie":13016,"_simple.":13017,"_Warri":13018,"_sentence":13019,"_filling":13020,"_waitress":13021,"_businessman":13022,"_designs":13023,"_mentality":13024,"_girlfriend.":13025,"inned":13026,"_historic":13027,"_historically":13028,"_positively":13029,"_conduct":13030,"_desperation":13031,"_trailers":13032,"_fashioned":13033,"_cold,":13034,"_Road":13035,"_(Paul":13036,"_nomination":13037,"_celebrity":13038,"_WWE":13039,"_self-indul":13040,"_disaster.":13041,"_voice,":13042,"_understated":13043,"_drove":13044,"_Damon":13045,"_Sadly":13046,"_formulaic":13047,"_abandon":13048,"-to-be":13049,"_Cohen":13050,"warf":13051,"_translation":13052,"THING":13053,"_redund":13054,"_Preming":13055,"_challenging":13056,"_wrestling":13057,"_sympathize":13058,"_Bacall":13059,"_co-star":13060,"_sketch":13061,"_obligatory":13062,"_unbearable":13063,"_inconsist":13064,"_reluctant":13065,"_Esther":13066,"_Corbett":13067,"_Scotland":13068,"_Sopran":13069,"(D":13070,"-qu":13071,"FUL":13072,"HH":13073,"OY":13074,"_":13075,"`t":13076,"case":13077,"dam":13078,"ueless":13079,"voc":13080,"xic":13081,"_tact":13082,"ings,":13083,"enger":13084,"_hug":13085,"_dies.":13086,"eder":13087,"_/>2.":13088,"leen":13089,"_ec":13090,"_Tele":13091,"_stare":13092,"_stage,":13093,"_forcing":13094,"_asyl":13095,"_Saint":13096,"_seldom":13097,"_hapless":13098,"_Bay":13099,"_ME":13100,"_(so":13101,"_Cris":13102,"_Cube":13103,"_shoes":13104,"ulation":13105,"uspect":13106,"_Las":13107,"_Lear":13108,"_Rel":13109,"_Fitz":13110,"_Fonda":13111,"_rings":13112,"_rises":13113,"_intro":13114,"_Gersh":13115,"_org":13116,"_unimp":13117,"_Ebert":13118,"_water,":13119,"_loaded":13120,"_only.":13121,"ables":13122,"_Ki":13123,"_time)":13124,"_them?":13125,"_quotes":13126,"_great!":13127,"_preced":13128,"_agents":13129,"_directing.":13130,"_offens":13131,"_Hend":13132,"_bride":13133,"_underm":13134,"_/>Avoid":13135,"_mayhem":13136,"_rack":13137,"_geni":13138,"_cheated":13139,"ubble":13140,"_bugs":13141,"_expected,":13142,"-core":13143,"_said.":13144,"_together.<br":13145,"-fet":13146,"_Reid":13147,"_word.":13148,"_words.":13149,"_Willie":13150,"_collective":13151,"_miss.":13152,"_transpl":13153,"_success,":13154,"_fair,":13155,"_mystery.":13156,"_score.":13157,"*****":13158,"_television,":13159,"_complic":13160,"_air.":13161,"_herself,":13162,"_flaws,":13163,"_nature,":13164,"_credits.":13165,"EASE":13166,"_earlier.":13167,"_Whoever":13168,"_fascination":13169,"_potential,":13170,"_(David":13171,"_Quaid":13172,"_complexity":13173,"_ambition":13174,"_romance.":13175,"_suitably":13176,"_loud,":13177,"_mistake.":13178,"ttp:":13179,"_Paris,":13180,"_(part":13181,"-than":13182,"_wedd":13183,"_iconic":13184,"_Campbell":13185,"_bonus":13186,"_Florida":13187,"_Republic":13188,"_Dawson":13189,"_difficul":13190,"_chapter":13191,"_Nicole":13192,"_Sellers":13193,"_abysmal":13194,"_Court":13195,"_Ollie":13196,"_simplicity":13197,"_Godzilla":13198,"_nonsensical":13199,"_Eugene":13200,"ttp:/":13201,"-it":13202,"-or":13203,"-action":13204,"DS":13205,"J.":13206,"ca":13207,"ho":13208,"jay":13209,"zing":13210,"_tv":13211,"hell":13212,"inity":13213,"_fishing":13214,"_caut":13215,"_IF":13216,"icing":13217,"iced":13218,"leted":13219,"_naught":13220,"ala":13221,"_revers":13222,"_AID":13223,"_anc":13224,"_movie).":13225,"_(out":13226,"_(e.":13227,"_CON":13228,"_Hepburn":13229,"_W.":13230,"_WR":13231,"_Production":13232,"_rant":13233,"_rational":13234,"_rising":13235,"ardom":13236,"osition":13237,"ookie":13238,"ighty":13239,"_enig":13240,"abled":13241,"_perman":13242,"_class,":13243,"_overlong":13244,"_poetic":13245,"_will.":13246,"peror":13247,"_/>Is":13248,"_off.<br":13249,"_spont":13250,"_flim":13251,"_flirt":13252,"_backst":13253,"_rig":13254,"everly":13255,"_musc":13256,"_genres":13257,"_fact.":13258,"_trav":13259,"ocaust":13260,"_youngest":13261,"issance":13262,"_newcom":13263,"_triv":13264,"_termin":13265,"_appall":13266,"_hard.":13267,"_Brun":13268,"_insists":13269,"_actor's":13270,"_Shame":13271,"_cope":13272,"_co-work":13273,"_artwork":13274,"_happened,":13275,"_glowing":13276,"_reviews,":13277,"_understandable":13278,"_phony":13279,"_distraction":13280,"_Christians":13281,"_Zone":13282,"_top-not":13283,"-by":13284,"_mess,":13285,"_retire":13286,"_assert":13287,"ology.":13288,"_collaps":13289,"_misfortun":13290,"_strongest":13291,"_Harold":13292,"_demented":13293,"_provoking":13294,"_paran":13295,"_morally":13296,"_mysteries":13297,"_considerably":13298,"_patients":13299,"_weak.":13300,"_uncertain":13301,"_doubts":13302,"_Colonel":13303,"_nature.":13304,"_screenplay.":13305,"_sorry,":13306,"_(Brazil":13307,"_immature":13308,"_explores":13309,"_store,":13310,"_satisfied":13311,"_judging":13312,"_robots":13313,"_westerns":13314,"_purpose.":13315,"_pointless.":13316,"_Angeles":13317,"_hurts":13318,"_lifeless":13319,"_lifestyle":13320,"_scarecrow":13321,"_invented":13322,"_dragon":13323,"_knocked":13324,"_passionate":13325,"_deserted":13326,"_Shakespeare's":13327,"_coward":13328,"_strange,":13329,"_petty":13330,"_/>That's":13331,"_fifty":13332,".5/10":13333,"_University":13334,"_Montana":13335,"_Terrible":13336,"_empath":13337,"_empathy":13338,"load":13339,"_Sunshine":13340,"_Bernard":13341,"_interactions":13342,"_Cuba":13343,"_Altman":13344,"berlake":13345,"_Gregory":13346,"_Alec":13347,"_adolescent":13348,"_Polanski":13349,"_Owen":13350,"_WITH":13351,"!'":13352,"-ex":13353,"-play":13354,"It's":13355,"aired":13356,"l,":13357,"led.":13358,"oen":13359,"rust":13360,"world":13361,"_tip":13362,"ino's":13363,"_wow":13364,"_wire":13365,"_bike":13366,"ester":13367,"oust":13368,"onent":13369,"_toys":13370,"_tomb":13371,"_pound":13372,"_pump":13373,"_date.":13374,"omic":13375,"_eats":13376,"imon":13377,"_you?":13378,"_Bugs":13379,"_Cushing":13380,"_Han":13381,"_Hain":13382,"_Happ":13383,"_shorter":13384,"_shoddy":13385,"_Danger":13386,"_succ":13387,"el's":13388,"_vot":13389,"_Pink":13390,"_Lar":13391,"_Loy":13392,"_Lenn":13393,"_Fans":13394,"_Thing":13395,"_about.<br":13396,"acking":13397,"_charged":13398,"_Ein":13399,"There":13400,"so,":13401,"_them!":13402,"_peoples":13403,"_thinking,":13404,"_ages.":13405,"_Whit":13406,"_Straight":13407,"_minus":13408,"_2/10":13409,"_pron":13410,"_similarly":13411,"_enjoyable,":13412,"_exceed":13413,"_persons":13414,"_musician":13415,"_Should":13416,"_both.":13417,"_audition":13418,"_camc":13419,"_artic":13420,"_letters":13421,"_believe,":13422,"incarn":13423,"_hour.":13424,"_Beast":13425,"symp":13426,"_Really,":13427,"_Zizek":13428,"_Ariel":13429,"_definitive":13430,"_indication":13431,"_light.":13432,"_violent,":13433,"_form,":13434,"_piece,":13435,"_Carre":13436,"_impressive.":13437,"_mentioning":13438,"_relationship.":13439,"ucing":13440,"_presenting":13441,"_psychic":13442,"_rooms":13443,"_solution":13444,"_photo":13445,"_indeed.":13446,"ART":13447,"_sweat":13448,"_Among":13449,"_adaptations":13450,"_MacD":13451,"_clever,":13452,"_marries":13453,"_modest":13454,"_(\"The":13455,"_store.":13456,"_1960s":13457,"_radical":13458,"_subtlety":13459,"_prepare":13460,"_Roh":13461,"_additional":13462,"_Believe":13463,"_witnessed":13464,"_Palm":13465,"_Eye":13466,"_mountains":13467,"_deriv":13468,"_corruption":13469,"_education":13470,"_pressure":13471,"_reported":13472,"_flee":13473,"_activities":13474,"_tunes":13475,"_manner,":13476,"_dinosaurs":13477,"_Detective":13478,"_scratch":13479,"_adopted":13480,"_Brenda":13481,"_Vegas":13482,"_close-ups":13483,"_ambiguous":13484,"_Portug":13485,"_pattern":13486,"_resurrect":13487,"_lackluster":13488,"_expedition":13489,"-I":13490,"/com":13491,"0)":13492,"HER":13493,"O,":13494,"foot":13495,"say":13496,"uation":13497,"_tunn":13498,"_sappy":13499,"_cos":13500,"_cod":13501,"es)":13502,"an)":13503,"_lic":13504,"_lux":13505,"_/>3.":13506,"_moody":13507,"ver,":13508,"_stag":13509,"ghan":13510,"ghter":13511,"_film...":13512,"_with.<br":13513,"_sending":13514,"irlfriend":13515,"_Bird":13516,"_Camb":13517,"_COM":13518,"_\"sp":13519,"_HU":13520,"_Hog":13521,"_Wol":13522,"_scand":13523,"ists,":13524,"_R.":13525,"_Ritch":13526,"asted":13527,"_FIL":13528,"_outlaw":13529,"_Gram":13530,"_unm":13531,"resent":13532,"_Os":13533,"_Olymp":13534,"_no-one":13535,"cipl":13536,"_endear":13537,"_prequel":13538,"_realm":13539,"_party,":13540,"ile.":13541,"isha":13542,"_Yok":13543,"_Vill":13544,"_View":13545,"_tea":13546,"_entitled":13547,"_Stack":13548,"_UP":13549,"_underneath":13550,"_acting.<br":13551,"_Alison":13552,"_comprehe":13553,"azing":13554,"--it":13555,"_/>Title":13556,"_subplots":13557,"_years.<br":13558,"istic,":13559,"onto":13560,"_minded":13561,"-co":13562,"_Note":13563,"_DeM":13564,"_skit":13565,"_general,":13566,"_women's":13567,"_/>Its":13568,"_Lev":13569,"_piece.":13570,"_transformed":13571,"ika":13572,"_uncut":13573,"_feature.":13574,"_lands":13575,"_checked":13576,"pending":13577,"_inspire":13578,"_(after":13579,"_ideas,":13580,"_/>Gr":13581,"_estr":13582,"_circle":13583,"_models":13584,"_improb":13585,"_\"cl":13586,"_soul.":13587,"_fashion,":13588,"_savage":13589,"_Room":13590,"_discussing":13591,"_energet":13592,".It":13593,"_celebration":13594,"_attitudes":13595,"_blockbust":13596,"_believable,":13597,"_deranged":13598,"_WHAT":13599,"_preferred":13600,"_Robinson":13601,"_experimental":13602,"_unfolds":13603,"_Granted,":13604,"_Jr.,":13605,"_values,":13606,"_values.":13607,"_Ashley":13608,"_inevitably":13609,"_kissing":13610,"_rendered":13611,"_stumbles":13612,"_Giov":13613,"_blatantly":13614,"_pedest":13615,"_tempted":13616,"_infected":13617,"_vulnerable":13618,"_minimum":13619,"_safety":13620,"_Muppet":13621,"_dreary":13622,"_disjointed":13623,"_Purple":13624,"_culmin":13625,"_non-stop":13626,"(M":13627,"-op":13628,"UST":13629,"_!!":13630,"crack":13631,"gate":13632,"gian":13633,"iors":13634,"vyn":13635,"when":13636,"inction":13637,"err":13638,"_barrel":13639,"itable":13640,"atum":13641,"_dressing":13642,"omber":13643,"_is...":13644,"utive":13645,"_relev":13646,"_stilted":13647,"_moving.":13648,"_SG":13649,"_ans":13650,"road":13651,"_Mist":13652,"_Malt":13653,"_(it's":13654,"_(aka":13655,"_Cany":13656,"_\"ch":13657,"_WA":13658,"_Wing":13659,"_Drey":13660,"essa":13661,"_sorely":13662,"usp":13663,"_Paz":13664,"th,":13665,"_Rid":13666,"_outright":13667,"_Nat":13668,"_Nap":13669,"_Native":13670,"_Omen":13671,"_peril":13672,"inking":13673,"_clueless":13674,"_que":13675,"_quirk":13676,"_rope":13677,"force":13678,"_realised":13679,"_serving":13680,"_remakes":13681,"_remove":13682,"_feel.":13683,"_Alvin":13684,"_rabb":13685,"_compris":13686,"_actually,":13687,"_accent,":13688,"_kid's":13689,"_farmer":13690,"_far-fet":13691,"_handles":13692,"_careers":13693,"_/>Though":13694,"_restrict":13695,"_secondary":13696,"orky":13697,"_nightclub":13698,"_Screen":13699,"_eye.":13700,"_March":13701,"_experiments":13702,"-bad":13703,"_studying":13704,"_generated":13705,"-winning":13706,"_assured":13707,"_\"Sp":13708,"_wax":13709,"_credited":13710,"_passeng":13711,"_refuse":13712,"_already,":13713,"_femme":13714,"_value,":13715,"_continually":13716,"_prominent":13717,"_Hero":13718,"_soon.":13719,"_viewer's":13720,"_2004":13721,"_colleag":13722,"_forgiven":13723,"_gangsters":13724,"_Prom":13725,"_accepts":13726,"_milk":13727,"OUS":13728,"_business,":13729,"_backgrounds":13730,"_Small":13731,"_Guin":13732,"_taste.":13733,"_crime.":13734,"ermin":13735,"_Simply":13736,"_repeating":13737,"_recognizable":13738,"_claiming":13739,"_remarks":13740,"_accident.":13741,"_midnight":13742,"_pace.":13743,"_Glob":13744,"_Madonna":13745,"_unsuspect":13746,"_drugs,":13747,"_fashion.":13748,"_\"Night":13749,"_hangs":13750,"_Days":13751,"ylan":13752,"_lover,":13753,"_nowhere.":13754,"_Palance":13755,"_internal":13756,"_objective":13757,"AME":13758,"_appropriately":13759,"_exposition":13760,"_Central":13761,"_distracting":13762,"_screwed":13763,"_Writer":13764,"_complaining":13765,"_Wendy":13766,"_improvement":13767,"_challenges":13768,"_lifted":13769,"_uniformly":13770,"_amusing.":13771,"_hippie":13772,"_firmly":13773,"_Sharon":13774,"_Pickford":13775,"_Marshall":13776,"_befriends":13777,"_Garbo":13778,"_boss,":13779,"_censors":13780,"amiliar":13781,"_Belushi":13782,"_attorney":13783,"_Cassavet":13784,"_athlet":13785,"_difficulty":13786,"_(Brazil):":13787,"dog":13788,"got":13789,"gers":13790,"u.":13791,"vo":13792,"vas":13793,"_awhile":13794,"ino,":13795,"_fres":13796,"esse":13797,"_hides":13798,"arious":13799,"_dow":13800,"_dwell":13801,"_IV":13802,"_glee":13803,"_egg":13804,"_natives":13805,"_Tap":13806,"_mode":13807,"_reel":13808,"_static":13809,"_Barr":13810,"_Buff":13811,"_Beth":13812,"_Brilliant":13813,"_Mau":13814,"_(e":13815,"_(re":13816,"_\"1":13817,"_Hon":13818,"_Hom":13819,"_dope":13820,"_sock":13821,"_by.":13822,"again":13823,"_vice":13824,"_vign":13825,"_Poe":13826,"estin":13827,"_List":13828,"_Randy":13829,"asting":13830,"_Fil":13831,"_Jar":13832,"_Jol":13833,"ques":13834,"quire":13835,"_Giant":13836,"_me!":13837,"ard's":13838,"_unem":13839,"_unleas":13840,"_Ele":13841,"_Oper":13842,"_enchant":13843,"_Know":13844,"_quarter":13845,"ine\"":13846,"_badd":13847,"_rooting":13848,"_disreg":13849,"_/>I'll":13850,"_fun.<br":13851,"ep,":13852,"typ":13853,"ivable":13854,"_remade":13855,"_Stock":13856,"_slip":13857,"_speec":13858,"_Ut":13859,"_again!":13860,"_miniser":13861,"_oldest":13862,"_didn't.":13863,"_startling":13864,"_bitch":13865,"_smell":13866,"_kidd":13867,"_insomn":13868,"_buzz":13869,"_hands.":13870,"_last,":13871,"_3D":13872,"_worst,":13873,"_likable,":13874,"_/>See":13875,"_boasts":13876,"_watched.":13877,"_creativity":13878,"_headache":13879,"_else's":13880,"_understands":13881,"-fash":13882,"-faced":13883,"_Scary":13884,"_phrase":13885,"_commenting":13886,"_Myers":13887,"_Zh":13888,"_wrong.<br":13889,"_general.":13890,"_8.":13891,"_Lee,":13892,"_lively":13893,"_namely":13894,"rophe":13895,"_centered":13896,"-spe":13897,"_provocative":13898,"unga":13899,"_infant":13900,"_shootout":13901,"_musical,":13902,"_sleaz":13903,"_importantly,":13904,"_vein":13905,"_above,":13906,"_(St":13907,"_(when":13908,"_Exp":13909,"ermaid":13910,"_match.":13911,"_Brain":13912,"_charm.":13913,"_died.":13914,"_terrorists":13915,"IDE":13916,"itzer":13917,"_tragedy.":13918,"_frustrating":13919,"_companies":13920,"-and-":13921,"_biography":13922,"_laun":13923,"_beliefs":13924,"_nonsense.":13925,"uh?":13926,"_Parad":13927,"_Paramount":13928,"_propagand":13929,"_Upon":13930,"_survivors":13931,"_enhance":13932,"_True,":13933,"_Hyde":13934,"_Armstrong":13935,"_houses":13936,"_chaos":13937,"_Lumet":13938,"_Ruby":13939,"_suburban":13940,"iblical":13941,"_troops":13942,"_Thunderbird":13943,"_Carradine":13944,"_hallucin":13945,"_Affleck":13946,"_Kolchak":13947,"_astronaut":13948,"ttp://":13949,"_ancest":13950,"_far-fetched":13951,"/C":13952,"/th":13953,"Y.":13954,"gling":13955,"lined":13956,"uccess":13957,"_somed":13958,"_firing":13959,"itated":13960,"_citiz":13961,"_hij":13962,"_pants":13963,"_lam":13964,"_/>--":13965,"_niece":13966,"_item":13967,"imes.":13968,"_whale":13969,"oo,":13970,"_AM":13971,"_Sa":13972,"_movie-m":13973,"_Mason":13974,"rable":13975,"_Hum":13976,"ck,":13977,"_chorus":13978,"_Dent":13979,"_sugar":13980,"_scrap":13981,"_active":13982,"_doing.":13983,"anth":13984,"oler":13985,"_voted":13986,"usions":13987,"_Pas":13988,"istan":13989,"_L.A.":13990,"_Rent":13991,"_Rita":13992,"_Gang":13993,"_Kline":13994,"_pecul":13995,"acy.":13996,"_agon":13997,"_amused":13998,"_'K":13999,"_Vance":14000,"_entered":14001,"_specially":14002,"_decap":14003,"_viewing,":14004,"_coupled":14005,"ventures":14006,"_directors,":14007,"ubby":14008,"_newer":14009,"_subtext":14010,"igned":14011,"_inspect":14012,"ordin":14013,"_rest.":14014,"_second,":14015,"lands":14016,"_nightmares":14017,"_Beyond":14018,"_Zor":14019,"_/>Oh,":14020,"_remember,":14021,"_Leo":14022,"_swing":14023,"_conviction":14024,"_refers":14025,"_/>Many":14026,"_medic":14027,"_footage,":14028,"_Warhol":14029,"ielding":14030,"_destined":14031,"_parents.":14032,"_apart.":14033,"_airport":14034,"_Anyway":14035,"_landing":14036,"_embark":14037,"_difficulties":14038,"_/>Ex":14039,"_wait,":14040,"?\"<br":14041,"_die-hard":14042,"_Luk":14043,"_communicate":14044,"_Goldbl":14045,"_Otherwise":14046,"_control.":14047,"_ballet":14048,"_smart,":14049,"_Stevens":14050,"_collection.":14051,"-forward":14052,"_Winter":14053,"_departure":14054,"_McCart":14055,"_WHO":14056,"_Lois":14057,"_crazed":14058,"_Hawke":14059,"_complaints":14060,"_demonstrates":14061,"_methods":14062,"_Gilliam":14063,"_Gandhi":14064,"_irrelevant":14065,"_Usually":14066,"_adopt":14067,"_cerebr":14068,"_\"real\"":14069,"_Atlantis":14070,"_steady":14071,"_acknowled":14072,"_\"film\"":14073,"_exterior":14074,"_Preston":14075,"_recycled":14076,"_misguided":14077,"_(e.g.":14078,"_FILM":14079,")...":14080,"-but":14081,"/5":14082,"/b":14083,"/g":14084,"<<":14085,"FE":14086,"aise":14087,"car":14088,"fly":14089,"flu":14090,"front":14091,"gio":14092,"kish":14093,"rr":14094,"town":14095,"_turd":14096,"_wolf":14097,"_omin":14098,"_cem":14099,"_curt":14100,"_thug":14101,"_hust":14102,"_hires":14103,"_token":14104,"_Ish":14105,"_gent":14106,"leans":14107,"otic,":14108,"uty":14109,"owulf":14110,"_stage.":14111,"chair":14112,"_asset":14113,"_Ay":14114,"_Auss":14115,"_BR":14116,"_Bry":14117,"_Mans":14118,"_Mask":14119,"_MAD":14120,"_weather":14121,"_(v":14122,"_(be":14123,"_(com":14124,"_(where":14125,"_Cort":14126,"_Creat":14127,"_Hig":14128,"_Hell,":14129,"_Winc":14130,"ainly":14131,"el\"":14132,"_deem":14133,"_Loc":14134,"_Running":14135,"ate\"":14136,"osis":14137,"_unrelated":14138,"_unattract":14139,"igious":14140,"ude.":14141,"_lend":14142,"_clin":14143,"apse":14144,"irsty":14145,"_impe":14146,"_imitation":14147,"_advis":14148,"_partially":14149,"_made.<br":14150,"_Ins":14151,"ipes":14152,"_surg":14153,"there":14154,"_why?":14155,"_day.<br":14156,"_friend's":14157,"_effect,":14158,"_kind,":14159,"_You've":14160,"_role.<br":14161,"_leads,":14162,"annels":14163,"_standout":14164,"_wasn't.":14165,"_shortcom":14166,"_reviews.":14167,"-too":14168,"_Clo":14169,"otta":14170,"_sadly,":14171,"_suspension":14172,"ypher":14173,"_steel":14174,"_importantly":14175,"_subject,":14176,"_hugely":14177,"_victory":14178,"_suggested":14179,"_witches":14180,"_losers":14181,"_survives":14182,"_Marty":14183,"_dog.":14184,"_destroys":14185,"_regardless":14186,
[...]
